{
  "version": "1.0",
  "truncation": null,
  "padding": null,
  "added_tokens": [
    {
      "id": 0,
      "content": "<unk>",
      "single_word": false,
      "lstrip": false,
      "rstrip": false,
      "normalized": false,
      "special": true
    },
    {
      "id": 1,
      "content": "<s>",
      "single_word": false,
      "lstrip": false,
      "rstrip": false,
      "normalized": false,
      "special": true
    },
    {
      "id": 2,
      "content": "</s>",
      "single_word": false,
      "lstrip": false,
      "rstrip": false,
      "normalized": false,
      "special": true
    },
    {
      "id": 3,
      "content": "<pad>",
      "single_word": false,
      "lstrip": false,
      "rstrip": false,
      "normalized": false,
      "special": true
    },
    {
      "id": 4,
      "content": "<|im_start|>",
      "single_word": false,
      "lstrip": false,
      "rstrip": false,
      "normalized": false,
      "special": true
    },
    {
      "id": 5,
      "content": "<|im_end|>",
      "single_word": false,
      "lstrip": false,
      "rstrip": false,
      "normalized": false,
      "special": true
    },
    {
      "id": 6,
      "content": "<|endoftext|>",
      "single_word": false,
      "lstrip": false,
      "rstrip": false,
      "normalized": false,
      "special": true
    },
    {
      "id": 7,
      "content": "<fim_prefix>",
      "single_word": false,
      "lstrip": false,
      "rstrip": false,
      "normalized": false,
      "special": true
    },
    {
      "id": 8,
      "content": "<fim_middle>",
      "single_word": false,
      "lstrip": false,
      "rstrip": false,
      "normalized": false,
      "special": true
    },
    {
      "id": 9,
      "content": "<fim_suffix>",
      "single_word": false,
      "lstrip": false,
      "rstrip": false,
      "normalized": false,
      "special": true
    },
    {
      "id": 10,
      "content": "<fim_pad>",
      "single_word": false,
      "lstrip": false,
      "rstrip": false,
      "normalized": false,
      "special": true
    },
    {
      "id": 11,
      "content": "<filename>",
      "single_word": false,
      "lstrip": false,
      "rstrip": false,
      "normalized": false,
      "special": true
    },
    {
      "id": 12,
      "content": "<gh_stars>",
      "single_word": false,
      "lstrip": false,
      "rstrip": false,
      "normalized": false,
      "special": true
    },
    {
      "id": 13,
      "content": "<issue_start>",
      "single_word": false,
      "lstrip": false,
      "rstrip": false,
      "normalized": false,
      "special": true
    },
    {
      "id": 14,
      "content": "<issue_comment>",
      "single_word": false,
      "lstrip": false,
      "rstrip": false,
      "normalized": false,
      "special": true
    },
    {
      "id": 15,
      "content": "<issue_closed>",
      "single_word": false,
      "lstrip": false,
      "rstrip": false,
      "normalized": false,
      "special": true
    },
    {
      "id": 16,
      "content": "<jupyter_start>",
      "single_word": false,
      "lstrip": false,
      "rstrip": false,
      "normalized": false,
      "special": true
    },
    {
      "id": 17,
      "content": "<jupyter_text>",
      "single_word": false,
      "lstrip": false,
      "rstrip": false,
      "normalized": false,
      "special": true
    },
    {
      "id": 18,
      "content": "<jupyter_code>",
      "single_word": false,
      "lstrip": false,
      "rstrip": false,
      "normalized": false,
      "special": true
    },
    {
      "id": 19,
      "content": "<jupyter_output>",
      "single_word": false,
      "lstrip": false,
      "rstrip": false,
      "normalized": false,
      "special": true
    },
    {
      "id": 20,
      "content": "<empty_output>",
      "single_word": false,
      "lstrip": false,
      "rstrip": false,
      "normalized": false,
      "special": true
    },
    {
      "id": 21,
      "content": "<commit_before>",
      "single_word": false,
      "lstrip": false,
      "rstrip": false,
      "normalized": false,
      "special": true
    },
    {
      "id": 22,
      "content": "<commit_msg>",
      "single_word": false,
      "lstrip": false,
      "rstrip": false,
      "normalized": false,
      "special": true
    },
    {
      "id": 23,
      "content": "<commit_after>",
      "single_word": false,
      "lstrip": false,
      "rstrip": false,
      "normalized": false,
      "special": true
    },
    {
      "id": 24,
      "content": "<reponame>",
      "single_word": false,
      "lstrip": false,
      "rstrip": false,
      "normalized": false,
      "special": true
    }
  ],
  "normalizer": {
    "type": "Sequence",
    "normalizers": [
      {
        "type": "NFD"
      },
      {
        "type": "Lowercase"
      },
      {
        "type": "StripAccents"
      },
      {
        "type": "Replace",
        "pattern": {
          "String": " {2,}"
        },
        "content": " "
      }
    ]
  },
  "pre_tokenizer": {
    "type": "ByteLevel",
    "add_prefix_space": false,
    "trim_offsets": true,
    "use_regex": true
  },
  "post_processor": {
    "type": "ByteLevel",
    "add_prefix_space": true,
    "trim_offsets": false,
    "use_regex": true
  },
  "decoder": {
    "type": "ByteLevel",
    "add_prefix_space": true,
    "trim_offsets": true,
    "use_regex": true
  },
  "model": {
    "type": "BPE",
    "dropout": null,
    "unk_token": "<unk>",
    "continuing_subword_prefix": null,
    "end_of_word_suffix": null,
    "fuse_unk": false,
    "byte_fallback": false,
    "ignore_merges": false,
    "vocab": {
      "<unk>": 0,
      "<s>": 1,
      "</s>": 2,
      "<pad>": 3,
      "<|im_start|>": 4,
      "<|im_end|>": 5,
      "<|endoftext|>": 6,
      "<fim_prefix>": 7,
      "<fim_middle>": 8,
      "<fim_suffix>": 9,
      "<fim_pad>": 10,
      "<filename>": 11,
      "<gh_stars>": 12,
      "<issue_start>": 13,
      "<issue_comment>": 14,
      "<issue_closed>": 15,
      "<jupyter_start>": 16,
      "<jupyter_text>": 17,
      "<jupyter_code>": 18,
      "<jupyter_output>": 19,
      "<empty_output>": 20,
      "<commit_before>": 21,
      "<commit_msg>": 22,
      "<commit_after>": 23,
      "<reponame>": 24,
      "!": 25,
      "\"": 26,
      "#": 27,
      "$": 28,
      "%": 29,
      "&": 30,
      "'": 31,
      "(": 32,
      ")": 33,
      "*": 34,
      "+": 35,
      ",": 36,
      "-": 37,
      ".": 38,
      "/": 39,
      "0": 40,
      "1": 41,
      "2": 42,
      "3": 43,
      "4": 44,
      "5": 45,
      "6": 46,
      "7": 47,
      "8": 48,
      "9": 49,
      ":": 50,
      ";": 51,
      "<": 52,
      "=": 53,
      ">": 54,
      "?": 55,
      "@": 56,
      "[": 57,
      "\\": 58,
      "]": 59,
      "^": 60,
      "_": 61,
      "`": 62,
      "a": 63,
      "b": 64,
      "c": 65,
      "d": 66,
      "e": 67,
      "f": 68,
      "g": 69,
      "h": 70,
      "i": 71,
      "j": 72,
      "k": 73,
      "l": 74,
      "m": 75,
      "n": 76,
      "o": 77,
      "p": 78,
      "q": 79,
      "r": 80,
      "s": 81,
      "t": 82,
      "u": 83,
      "v": 84,
      "w": 85,
      "x": 86,
      "y": 87,
      "z": 88,
      "{": 89,
      "|": 90,
      "}": 91,
      "~": 92,
      "¡": 93,
      "¢": 94,
      "£": 95,
      "¤": 96,
      "¥": 97,
      "¦": 98,
      "§": 99,
      "¨": 100,
      "©": 101,
      "ª": 102,
      "«": 103,
      "¬": 104,
      "®": 105,
      "¯": 106,
      "°": 107,
      "±": 108,
      "²": 109,
      "³": 110,
      "´": 111,
      "µ": 112,
      "¶": 113,
      "·": 114,
      "¸": 115,
      "¹": 116,
      "º": 117,
      "»": 118,
      "¼": 119,
      "½": 120,
      "¾": 121,
      "¿": 122,
      "Â": 123,
      "Ã": 124,
      "Ä": 125,
      "Å": 126,
      "Æ": 127,
      "Ç": 128,
      "É": 129,
      "Ê": 130,
      "Ë": 131,
      "Î": 132,
      "Ï": 133,
      "Ð": 134,
      "Ñ": 135,
      "Ò": 136,
      "Ó": 137,
      "Õ": 138,
      "Ö": 139,
      "×": 140,
      "Ø": 141,
      "Ù": 142,
      "Ú": 143,
      "Û": 144,
      "Ü": 145,
      "Ý": 146,
      "Þ": 147,
      "ß": 148,
      "à": 149,
      "á": 150,
      "â": 151,
      "ã": 152,
      "ä": 153,
      "å": 154,
      "æ": 155,
      "ç": 156,
      "è": 157,
      "é": 158,
      "ê": 159,
      "ï": 160,
      "ð": 161,
      "ĉ": 162,
      "Ċ": 163,
      "Ġ": 164,
      "Ģ": 165,
      "ģ": 166,
      "Ĥ": 167,
      "ĥ": 168,
      "Ħ": 169,
      "ħ": 170,
      "Ĩ": 171,
      "ĩ": 172,
      "Ī": 173,
      "ī": 174,
      "Ĭ": 175,
      "ĭ": 176,
      "Į": 177,
      "į": 178,
      "İ": 179,
      "ı": 180,
      "Ĳ": 181,
      "ĳ": 182,
      "Ĵ": 183,
      "ĵ": 184,
      "Ķ": 185,
      "ķ": 186,
      "ĸ": 187,
      "Ĺ": 188,
      "ĺ": 189,
      "Ļ": 190,
      "ļ": 191,
      "Ľ": 192,
      "ľ": 193,
      "Ŀ": 194,
      "ŀ": 195,
      "Ł": 196,
      "ł": 197,
      "Ń": 198,
      "an": 199,
      "Ġd": 200,
      "er": 201,
      "en": 202,
      "Ġm": 203,
      "Ġp": 204,
      "Ġs": 205,
      "ar": 206,
      "at": 207,
      "Ġk": 208,
      "in": 209,
      "ang": 210,
      "Ġb": 211,
      "Ġt": 212,
      "al": 213,
      "ah": 214,
      "as": 215,
      "un": 216,
      "ak": 217,
      "Ġdi": 218,
      "am": 219,
      "em": 220,
      "ad": 221,
      "el": 222,
      "is": 223,
      "Ġy": 224,
      "Ġse": 225,
      "eng": 226,
      "ik": 227,
      "uk": 228,
      "Ġdan": 229,
      "on": 230,
      "ya": 231,
      "it": 232,
      "Ġyang": 233,
      "es": 234,
      "Ġl": 235,
      "us": 236,
      "il": 237,
      "ap": 238,
      "or": 239,
      "Ġke": 240,
      "ur": 241,
      "Ġmen": 242,
      "ga": 243,
      "ut": 244,
      "Ġj": 245,
      "Ġber": 246,
      "Ġh": 247,
      "ol": 248,
      "ia": 249,
      "Ġin": 250,
      "Ġr": 251,
      "ada": 252,
      "kan": 253,
      "ul": 254,
      "Ġter": 255,
      "Ġper": 256,
      "ing": 257,
      "ari": 258,
      "um": 259,
      "ara": 260,
      "ir": 261,
      "Ġn": 262,
      "Ġ(": 263,
      "ek": 264,
      "Ġ1": 265,
      "et": 266,
      "nya": 267,
      "eb": 268,
      "id": 269,
      "im": 270,
      "Ġc": 271,
      "akan": 272,
      "Ġmem": 273,
      "asi": 274,
      "Ġg": 275,
      "ba": 276,
      "engan": 277,
      "ung": 278,
      "ta": 279,
      "Ġa": 280,
      "Ġdari": 281,
      "Ġpada": 282,
      "om": 283,
      "Ġdengan": 284,
      "Ġun": 285,
      "ud": 286,
      "ama": 287,
      "tuk": 288,
      "Ġmeng": 289,
      "alam": 290,
      "ian": 291,
      "up": 292,
      "Ġw": 293,
      "Ġpen": 294,
      "and": 295,
      "Ġf": 296,
      "si": 297,
      "alah": 298,
      "Ġ2": 299,
      "ti": 300,
      "ab": 301,
      "Ġdalam": 302,
      "Ġuntuk": 303,
      "Ġini": 304,
      "ata": 305,
      "atan": 306,
      "Ġpr": 307,
      "Ġad": 308,
      "ok": 309,
      "eg": 310,
      "uh": 311,
      "per": 312,
      "Ġ19": 313,
      "emb": 314,
      "eh": 315,
      "Ġtah": 316,
      "ag": 317,
      "aw": 318,
      "ih": 319,
      "gai": 320,
      "Ġmer": 321,
      "00": 322,
      "ant": 323,
      "ed": 324,
      "Ġtahun": 325,
      "ai": 326,
      "tr": 327,
      "ay": 328,
      "Ġseba": 329,
      "os": 330,
      "adi": 331,
      "Ġadalah": 332,
      "ĠĊ": 333,
      "asa": 334,
      "ikan": 335,
      "oleh": 336,
      "ent": 337,
      "aj": 338,
      "ub": 339,
      "ain": 340,
      "Ġbah": 341,
      "ep": 342,
      "angan": 343,
      "Ġsebagai": 344,
      "Ġoleh": 345,
      "Ġmenj": 346,
      "ter": 347,
      "wa": 348,
      "og": 349,
      "Ġsel": 350,
      "itu": 351,
      "elah": 352,
      "Ġseb": 353,
      "od": 354,
      "ot": 355,
      "ota": 356,
      "Ġpem": 357,
      "Ġind": 358,
      "Ġmel": 359,
      "aan": 360,
      "ib": 361,
      "uan": 362,
      "Ġpeng": 363,
      "ua": 364,
      "orang": 365,
      "seb": 366,
      "op": 367,
      "apat": 368,
      "amp": 369,
      "end": 370,
      "ahan": 371,
      "Ġal": 372,
      "ika": 373,
      "ukan": 374,
      "idak": 375,
      "anya": 376,
      "isi": 377,
      "ist": 378,
      "Ġser": 379,
      "ati": 380,
      "angg": 381,
      "Ġmenjadi": 382,
      "Ġkar": 383,
      "atu": 384,
      "Ġv": 385,
      "ali": 386,
      "Ġju": 387,
      "Ġtidak": 388,
      "Ġmemb": 389,
      "ip": 390,
      "emp": 391,
      "atau": 392,
      "ana": 393,
      "aya": 394,
      "sebut": 395,
      "Ġ\"": 396,
      "int": 397,
      "any": 398,
      "ic": 399,
      "Ġatau": 400,
      "Ġjuga": 401,
      "âĢ": 402,
      "Ġkem": 403,
      "angk": 404,
      "ong": 405,
      "Ġsek": 406,
      "Ġpert": 407,
      "Ġbar": 408,
      "Ġneg": 409,
      "amb": 410,
      "Ġak": 411,
      "Ġo": 412,
      "ones": 413,
      "Ġmeny": 414,
      "Ġitu": 415,
      "Ġas": 416,
      "ra": 417,
      "esar": 418,
      "Ġkep": 419,
      "onesia": 420,
      "ena": 421,
      "anj": 422,
      "Ġ200": 423,
      "Ġkota": 424,
      "Ġindonesia": 425,
      "ilik": 426,
      "ala": 427,
      "gun": 428,
      "ingg": 429,
      "Ġia": 430,
      "he": 431,
      "Ġmas": 432,
      "onal": 433,
      "Ġlain": 434,
      "Ġpend": 435,
      "eka": 436,
      "ber": 437,
      "),": 438,
      "ula": 439,
      "Ġar": 440,
      "itas": 441,
      "Ġ-": 442,
      "ov": 443,
      "ebih": 444,
      "apa": 445,
      "Ġker": 446,
      "Ġ20": 447,
      "ac": 448,
      "oh": 449,
      "ew": 450,
      "aran": 451,
      ").": 452,
      "Ġsem": 453,
      "Ġdik": 454,
      "ri": 455,
      "Ġtersebut": 456,
      "Ġst": 457,
      "Ġkon": 458,
      "uj": 459,
      "uah": 460,
      "Ġmereka": 461,
      "iri": 462,
      "Ġbag": 463,
      "Ġkel": 464,
      "iliki": 465,
      "upakan": 466,
      "ind": 467,
      "uar": 468,
      "Ġmerupakan": 469,
      "Ġlebih": 470,
      "Ġkom": 471,
      "lah": 472,
      "Ġdit": 473,
      "19": 474,
      "Ġkec": 475,
      "Ġbahwa": 476,
      "Ġorang": 477,
      "Ġdapat": 478,
      "pr": 479,
      "ja": 480,
      "Ġant": 481,
      "Ġset": 482,
      "Ġmemiliki": 483,
      "api": 484,
      "Ġat": 485,
      "cara": 486,
      "Ġda": 487,
      "Ġut": 488,
      "Ġsa": 489,
      "gunakan": 490,
      "asan": 491,
      "sa": 492,
      "Ġsatu": 493,
      "iv": 494,
      "ef": 495,
      "Ġnegara": 496,
      "Ġbel": 497,
      "perti": 498,
      "Ġbeb": 499,
      "anyak": 500,
      "ch": 501,
      "ingk": 502,
      "ingga": 503,
      "Ġkarena": 504,
      "ungan": 505,
      "Ġsebuah": 506,
      "Ġket": 507,
      "alan": 508,
      "Ġwil": 509,
      "Ġsej": 510,
      "Ġag": 511,
      "Ġbahasa": 512,
      "Ġtim": 513,
      "Ġtelah": 514,
      "Ġam": 515,
      "Ġmus": 516,
      "Ġan": 517,
      "Ġpemb": 518,
      "inya": 519,
      "Ġmend": 520,
      "Ġseperti": 521,
      "Ġis": 522,
      "âĢĵ": 523,
      "erapa": 524,
      "Ġtet": 525,
      "Ġbesar": 526,
      "asil": 527,
      "entuk": 528,
      "empat": 529,
      "Ġtr": 530,
      "erint": 531,
      "Ġsecara": 532,
      "Ġdis": 533,
      "aman": 534,
      "ayah": 535,
      "Ġ3": 536,
      "Ġdib": 537,
      "Ġbeberapa": 538,
      "erah": 539,
      "imp": 540,
      "ers": 541,
      "Ġthe": 542,
      "Ġkab": 543,
      "Ġi": 544,
      "anc": 545,
      "Ġab": 546,
      "Ġakan": 547,
      "Ġpar": 548,
      "ug": 549,
      "hir": 550,
      "alu": 551,
      "Ġwilayah": 552,
      "Ġked": 553,
      "uat": 554,
      "unan": 555,
      "eri": 556,
      "ig": 557,
      "mas": 558,
      "Ġterb": 559,
      "udian": 560,
      "ob": 561,
      "Ġmar": 562,
      "Ġdip": 563,
      "ec": 564,
      "Ġpas": 565,
      "Ġterd": 566,
      "asional": 567,
      "Ġpula": 568,
      "Ġkes": 569,
      "Ġof": 570,
      "Ġti": 571,
      "uran": 572,
      "Ġpemerint": 573,
      "Ġum": 574,
      "man": 575,
      "Ġsu": 576,
      "Ġkemudian": 577,
      "Ġ201": 578,
      "Ġbanyak": 579,
      "Ġsetelah": 580,
      "aten": 581,
      "Ġmenc": 582,
      "Ġsaat": 583,
      "ensi": 584,
      "Ġ199": 585,
      "Ġberk": 586,
      "Ġada": 587,
      "Ġantara": 588,
      "Ġz": 589,
      "Ġdil": 590,
      "Ġek": 591,
      "anda": 592,
      "Ġpol": 593,
      "st": 594,
      "arkan": 595,
      "pada": 596,
      "Ġpertama": 597,
      "Ġdes": 598,
      "Ġch": 599,
      "olog": 600,
      "unia": 601,
      "le": 602,
      "uhan": 603,
      "angkan": 604,
      "Ġair": 605,
      "Ġman": 606,
      "upaten": 607,
      "Ġsep": 608,
      "usia": 609,
      "ilm": 610,
      "Ġpel": 611,
      "Ġbagian": 612,
      "ev": 613,
      "ej": 614,
      "Ġhar": 615,
      "Ġdunia": 616,
      "Ġkr": 617,
      "und": 618,
      "Ġpeny": 619,
      "arah": 620,
      "akt": 621,
      "ita": 622,
      "amatan": 623,
      "Ġberb": 624,
      "enal": 625,
      "est": 626,
      "Ġbers": 627,
      "akar": 628,
      "Ġmengh": 629,
      "Ġdaerah": 630,
      "Ġkek": 631,
      "Ġbi": 632,
      "Ġpara": 633,
      "orm": 634,
      "Ġso": 635,
      "Ġkeb": 636,
      "Ġtan": 637,
      "if": 638,
      "Ġterl": 639,
      "Ġtetapi": 640,
      "Ġsed": 641,
      "Ġla": 642,
      "Ġ18": 643,
      "ĊĠ": 644,
      "Ġamer": 645,
      "aja": 646,
      "Ġkabupaten": 647,
      "umlah": 648,
      "Ġatas": 649,
      "awa": 650,
      "gi": 651,
      "Ġya": 652,
      "ulan": 653,
      "Ġpers": 654,
      "tai": 655,
      "Ġluar": 656,
      "Ġbaru": 657,
      "Ġdua": 658,
      "itar": 659,
      "Ġbr": 660,
      "akukan": 661,
      "Ġtingg": 662,
      "ont": 663,
      "Ġaw": 664,
      "20": 665,
      "Ġor": 666,
      "Ġinter": 667,
      "Ġsang": 668,
      "ima": 669,
      "ember": 670,
      "Ġnama": 671,
      "iden": 672,
      "Ġyaitu": 673,
      "Ġkh": 674,
      "Ġsen": 675,
      "ingkat": 676,
      "Ġmes": 677,
      "Ġbarat": 678,
      "Ġger": 679,
      "Ġtimur": 680,
      "lik": 681,
      "utan": 682,
      "ivers": 683,
      "aka": 684,
      "ulai": 685,
      "apan": 686,
      "Ġnam": 687,
      "itik": 688,
      "usah": 689,
      "uku": 690,
      "Ġseorang": 691,
      "Ġ4": 692,
      "Ġkepada": 693,
      "Ġbert": 694,
      "uduk": 695,
      "Ġamerika": 696,
      "Ġdigunakan": 697,
      "iran": 698,
      "Ġtent": 699,
      "Ġumum": 700,
      "gr": 701,
      "na": 702,
      "Ġselatan": 703,
      "Ġgr": 704,
      "ina": 705,
      "ans": 706,
      "Ġhal": 707,
      "yar": 708,
      "ow": 709,
      "Ġdid": 710,
      "Ġsalah": 711,
      "Ġkecamatan": 712,
      "Ġres": 713,
      "ologi": 714,
      "gan": 715,
      "Ġunivers": 716,
      "Ġhingga": 717,
      "ulis": 718,
      "li": 719,
      "Ġap": 720,
      "Ġsp": 721,
      "Ġpal": 722,
      "Ġsur": 723,
      "uas": 724,
      "anan": 725,
      "Ġseh": 726,
      "ikut": 727,
      "Ġib": 728,
      "unya": 729,
      "Ġpres": 730,
      "Ġing": 731,
      "Ġma": 732,
      "Ġlainnya": 733,
      "ism": 734,
      "omp": 735,
      "Ġterj": 736,
      "Ġtangg": 737,
      "onom": 738,
      "Ġand": 739,
      "Ġ5": 740,
      "had": 741,
      "ikat": 742,
      "Ġpes": 743,
      "ihat": 744,
      "ort": 745,
      "Ġdir": 746,
      "Ġdiper": 747,
      "Ġhanya": 748,
      "ult": 749,
      "aks": 750,
      "Ġhari": 751,
      "Ġsekitar": 752,
      "arang": 753,
      "unc": 754,
      "ustr": 755,
      "unj": 756,
      "Ġsamp": 757,
      "elum": 758,
      "asih": 759,
      "Ġserta": 760,
      "Ġer": 761,
      "Ġsum": 762,
      "engah": 763,
      "Ġmemper": 764,
      "etak": 765,
      "to": 766,
      "Ġpan": 767,
      "Ġberd": 768,
      "Âł": 769,
      "Ġdim": 770,
      "ungk": 771,
      "Ġakhir": 772,
      "Ġmasa": 773,
      "itan": 774,
      "Ġga": 775,
      "ump": 776,
      "ni": 777,
      "Ġnamun": 778,
      "Ġutara": 779,
      "Ġmenggunakan": 780,
      "Ġtanggal": 781,
      "isa": 782,
      "ode": 783,
      "ingan": 784,
      "Ġintern": 785,
      "Ġput": 786,
      "Ġangg": 787,
      "Ġkemb": 788,
      "ard": 789,
      "Ġterk": 790,
      "enc": 791,
      "Ġdisebut": 792,
      "gian": 793,
      "Ġ198": 794,
      "Ġdia": 795,
      "Ġmil": 796,
      "udah": 797,
      "ha": 798,
      "Ġba": 799,
      "Ġpus": 800,
      "Ġjawa": 801,
      "angs": 802,
      "idup": 803,
      "Ġsangat": 804,
      "esi": 805,
      "istem": 806,
      "masuk": 807,
      "Ġawal": 808,
      "Ġpulau": 809,
      "ern": 810,
      "ori": 811,
      "Ġtinggi": 812,
      "ij": 813,
      "akarta": 814,
      "tar": 815,
      "Ġsebelum": 816,
      "Ġfr": 817,
      "oc": 818,
      "impin": 819,
      "Ġpenduduk": 820,
      "tur": 821,
      "Ġel": 822,
      "Ġselama": 823,
      "usi": 824,
      "Ġlag": 825,
      "Ġkal": 826,
      "olah": 827,
      "ui": 828,
      "ĠĠ": 829,
      "Ġnasional": 830,
      "Ġe": 831,
      "tor": 832,
      "ini": 833,
      "Ġ7": 834,
      "Ġkomp": 835,
      "awan": 836,
      "akat": 837,
      "Ġtert": 838,
      "Ġbud": 839,
      "Ġperang": 840,
      "hadap": 841,
      "of": 842,
      "ublik": 843,
      "Ġpemerintah": 844,
      "Ġsama": 845,
      "insi": 846,
      "Ġutama": 847,
      "isme": 848,
      "isasi": 849,
      "uc": 850,
      "mi": 851,
      "Ġsehingga": 852,
      "Ġterhadap": 853,
      "af": 854,
      "Ġketika": 855,
      "teri": 856,
      "gris": 857,
      "yah": 858,
      "Ġinggris": 859,
      "ilih": 860,
      "Ġkap": 861,
      "awah": 862,
      "ani": 863,
      "Ġ6": 864,
      "Ġmal": 865,
      "Ġbelanda": 866,
      "lam": 867,
      "Ġkembali": 868,
      "anjang": 869,
      "raf": 870,
      "usan": 871,
      "Ġkedua": 872,
      "Ġtempat": 873,
      "oy": 874,
      "ons": 875,
      "Ġkali": 876,
      "ma": 877,
      "Ġpresiden": 878,
      "Ġbulan": 879,
      "udara": 880,
      "Ġmin": 881,
      "Ġtek": 882,
      "Ġte": 883,
      "Ġme": 884,
      "000": 885,
      "uruh": 886,
      "Ġde": 887,
      "Ġbang": 888,
      "Ġwar": 889,
      "Ġterdapat": 890,
      "su": 891,
      "Ġkons": 892,
      "Ġmet": 893,
      "Ġnegeri": 894,
      "urut": 895,
      "Ġka": 896,
      "Ġberba": 897,
      "Ġtel": 898,
      "Ġberh": 899,
      "la": 900,
      "Ġserikat": 901,
      "wan": 902,
      "udi": 903,
      "aki": 904,
      "Ġsistem": 905,
      "Ġ197": 906,
      "Ġsampai": 907,
      "Ġsun": 908,
      "oduk": 909,
      "Ġtermasuk": 910,
      "ola": 911,
      "Ġsejak": 912,
      "Ġband": 913,
      "erensi": 914,
      "Ġlaut": 915,
      "Ġuniversitas": 916,
      "Ġ196": 917,
      "aktu": 918,
      "atakan": 919,
      "ond": 920,
      "art": 921,
      "Ġdem": 922,
      "Ġabad": 923,
      "ilan": 924,
      "Ġbagi": 925,
      "era": 926,
      "Ġrum": 927,
      "Ġberl": 928,
      "enis": 929,
      "tif": 930,
      "iter": 931,
      "upun": 932,
      "min": 933,
      "Ġmasih": 934,
      "eja": 935,
      "alui": 936,
      "Ġrep": 937,
      "umb": 938,
      "ahkan": 939,
      "ea": 940,
      "Ġanggota": 941,
      "Ġsh": 942,
      "ki": 943,
      "Ġangk": 944,
      "apai": 945,
      "Ġberada": 946,
      "Ġsuatu": 947,
      "onomi": 948,
      "Ġdesa": 949,
      "atif": 950,
      "Ġtentang": 951,
      "Ġsal": 952,
      "Ġpern": 953,
      "uka": 954,
      "yarakat": 955,
      "Ġberbagai": 956,
      "Ġdin": 957,
      "ibat": 958,
      "endiri": 959,
      "unt": 960,
      "se": 961,
      "emen": 962,
      "Ġmat": 963,
      "Ġpemerintahan": 964,
      "Ġmenyeb": 965,
      "Ġpaling": 966,
      "Ġpusat": 967,
      "Ġmulai": 968,
      "Ġbawah": 969,
      "ust": 970,
      "Ġmelalui": 971,
      "uang": 972,
      "sp": 973,
      "Ġbat": 974,
      "erb": 975,
      "istr": 976,
      "alia": 977,
      "di": 978,
      "eda": 979,
      "Ġdikenal": 980,
      "ajaan": 981,
      "ungkin": 982,
      "ukum": 983,
      "Ġanak": 984,
      "Ġen": 985,
      "Ġsebagian": 986,
      "Ġist": 987,
      "idikan": 988,
      "Ġmasyarakat": 989,
      "Ġjumlah": 990,
      "eta": 991,
      "Ġwaktu": 992,
      "Ġinf": 993,
      "ovinsi": 994,
      "usahaan": 995,
      "Ġterjadi": 996,
      "Ġjer": 997,
      "Ġperd": 998,
      "ogr": 999,
      "har": 1000,
      "Ġ194": 1001,
      "uari": 1002,
      "Ġtengah": 1003,
      "Ġberp": 1004,
      "Ġmembuat": 1005,
      "Ġmod": 1006,
      "Ġmed": 1007,
      "uasa": 1008,
      "Ġ8": 1009,
      "anala": 1010,
      "land": 1011,
      "Ġbersama": 1012,
      "Ġperk": 1013,
      "Ġbisa": 1014,
      "Ġmah": 1015,
      "Ġkl": 1016,
      "ilah": 1017,
      "Ġterletak": 1018,
      "Ġilm": 1019,
      "Ġpl": 1020,
      "eferensi": 1021,
      "Ġsendiri": 1022,
      "imb": 1023,
      "Ġ9": 1024,
      "Ġsemua": 1025,
      "okoh": 1026,
      "pranala": 1027,
      "Ġkecil": 1028,
      "200": 1029,
      "Ġkerajaan": 1030,
      "Ġterp": 1031,
      "sial": 1032,
      "opa": 1033,
      "Ġkor": 1034,
      "Ġprovinsi": 1035,
      "Ġ15": 1036,
      "awat": 1037,
      "ual": 1038,
      "Ġjalan": 1039,
      "Ġkur": 1040,
      "Ġpos": 1041,
      "Ġtekn": 1042,
      "Ġseluruh": 1043,
      "apkan": 1044,
      "Ġre": 1045,
      "Ġislam": 1046,
      "Ġmenteri": 1047,
      "entara": 1048,
      "ikasi": 1049,
      "Ġresmi": 1050,
      "nama": 1051,
      "eker": 1052,
      "ord": 1053,
      "asarkan": 1054,
      "ĠĊĊ": 1055,
      "Ġtiga": 1056,
      "umi": 1057,
      "asar": 1058,
      "ank": 1059,
      "Ġsudah": 1060,
      "\".": 1061,
      "Ġkata": 1062,
      "ura": 1063,
      "men": 1064,
      "Ġgereja": 1065,
      "Ġ195": 1066,
      "ĊĊ": 1067,
      "Ġperj": 1068,
      "Ġmanusia": 1069,
      "Ġraja": 1070,
      "ompok": 1071,
      "uatan": 1072,
      "eral": 1073,
      "Ġrumah": 1074,
      "Ġtak": 1075,
      "referensi": 1076,
      "ancis": 1077,
      "asal": 1078,
      "Ġgun": 1079,
      "Ġmusim": 1080,
      "Ġtrans": 1081,
      "Ġpolitik": 1082,
      "ograf": 1083,
      "Ġaf": 1084,
      "ĠâĢĵ": 1085,
      "engk": 1086,
      "Ġtiong": 1087,
      "Ġjep": 1088,
      "eks": 1089,
      "emukan": 1090,
      "Ġtur": 1091,
      "Ġ10": 1092,
      "uta": 1093,
      "Ġsungai": 1094,
      "uda": 1095,
      "ci": 1096,
      "Ġjerman": 1097,
      "aris": 1098,
      "Ġmemp": 1099,
      "Ġpop": 1100,
      "engg": 1101,
      "Ġperusahaan": 1102,
      "Ġii": 1103,
      "Ġinternasional": 1104,
      "Ġgel": 1105,
      "Ġtanah": 1106,
      "Ġkat": 1107,
      "uru": 1108,
      "Ġstr": 1109,
      "Ġrom": 1110,
      "Ġmember": 1111,
      "Ġhukum": 1112,
      "aku": 1113,
      "Ġkeh": 1114,
      "Ġok": 1115,
      "uni": 1116,
      "Ġpet": 1117,
      "Ġdr": 1118,
      "Ġterdiri": 1119,
      "akhir": 1120,
      "yat": 1121,
      "Ġmana": 1122,
      "Ġkeluar": 1123,
      "ewan": 1124,
      "Ġjepang": 1125,
      "Ġbentuk": 1126,
      "irikan": 1127,
      "Ġmelakukan": 1128,
      "Ġbaik": 1129,
      "Ġeropa": 1130,
      "Ġperb": 1131,
      "idang": 1132,
      "angka": 1133,
      "18": 1134,
      "Ġmak": 1135,
      "Ġsementara": 1136,
      "Ġsit": 1137,
      "Ġudara": 1138,
      "Ġmengg": 1139,
      "ation": 1140,
      "Ġekonomi": 1141,
      "Ġberj": 1142,
      "Ġagama": 1143,
      "Ġorgan": 1144,
      "Ġpendidikan": 1145,
      "unjuk": 1146,
      "Ġrepublik": 1147,
      "angsung": 1148,
      "Ġhidup": 1149,
      "Ġsm": 1150,
      "Ġdilakukan": 1151,
      "Ġsering": 1152,
      "Ġperm": 1153,
      "ey": 1154,
      "Ġkol": 1155,
      "itab": 1156,
      "Ġim": 1157,
      "Ġdep": 1158,
      "inggal": 1159,
      "kip": 1160,
      "ting": 1161,
      "uli": 1162,
      "Ġben": 1163,
      "ubah": 1164,
      "ity": 1165,
      "Ġ17": 1166,
      "Ġilmu": 1167,
      "angkat": 1168,
      "ili": 1169,
      "Ġharus": 1170,
      "Ġpernah": 1171,
      "Ġalam": 1172,
      "annya": 1173,
      "usus": 1174,
      "ida": 1175,
      "anggap": 1176,
      "Ġfilm": 1177,
      "ger": 1178,
      "Ġdar": 1179,
      "ubungan": 1180,
      "Ġselain": 1181,
      "abat": 1182,
      "Ġsejarah": 1183,
      "ulu": 1184,
      "tiap": 1185,
      "anjut": 1186,
      "kipun": 1187,
      "Ġproduk": 1188,
      "Ġbal": 1189,
      "Ġberasal": 1190,
      "Ġdek": 1191,
      "Ġjenis": 1192,
      "aruh": 1193,
      "Ġjakarta": 1194,
      "asanya": 1195,
      "antan": 1196,
      "amm": 1197,
      "Ġsi": 1198,
      "Ġit": 1199,
      "ayu": 1200,
      "re": 1201,
      "Ġgen": 1202,
      "Ġsuku": 1203,
      "Ġdiri": 1204,
      "ho": 1205,
      "Ġnew": 1206,
      "\",": 1207,
      "Ġge": 1208,
      "askan": 1209,
      "omb": 1210,
      "pa": 1211,
      "Ġkrist": 1212,
      "Ġpopul": 1213,
      "Ġprancis": 1214,
      "asikan": 1215,
      "Ġdij": 1216,
      "Ġsetiap": 1217,
      "Ġluas": 1218,
      "fat": 1219,
      "Ġmenurut": 1220,
      "Ġdih": 1221,
      "angun": 1222,
      "Ġsekolah": 1223,
      "egara": 1224,
      "Ġterbesar": 1225,
      "ahasa": 1226,
      "lihat": 1227,
      "Ġsat": 1228,
      "lin": 1229,
      "Ġth": 1230,
      "Ġ16": 1231,
      "Ġibu": 1232,
      "etah": 1233,
      "Ġmendapat": 1234,
      "akit": 1235,
      "Ġmaj": 1236,
      "Ġx": 1237,
      "Ġmis": 1238,
      "epat": 1239,
      "Ġji": 1240,
      "ich": 1241,
      "Ġku": 1242,
      "199": 1243,
      "angi": 1244,
      "isata": 1245,
      "ungg": 1246,
      "tiv": 1247,
      "Ġpartai": 1248,
      "qu": 1249,
      "oses": 1250,
      "isan": 1251,
      "Ġus": 1252,
      "Ġkhusus": 1253,
      "Ġmiliter": 1254,
      "Ġ0": 1255,
      "Ġkomun": 1256,
      "ormasi": 1257,
      "ro": 1258,
      "Ġsedangkan": 1259,
      "Ġac": 1260,
      "awasan": 1261,
      "Ġgunung": 1262,
      "Ġtetap": 1263,
      "Ġrak": 1264,
      "ca": 1265,
      "Ġpun": 1266,
      "âĢĶ": 1267,
      "Ġem": 1268,
      "Ġjar": 1269,
      "embangan": 1270,
      "Ġdiber": 1271,
      "Ġpasukan": 1272,
      "ografi": 1273,
      "kota": 1274,
      "Ġ|": 1275,
      "alnya": 1276,
      "Ġnov": 1277,
      "ayaan": 1278,
      "Ġpa": 1279,
      "aksi": 1280,
      "abkan": 1281,
      "Ġpesawat": 1282,
      "pen": 1283,
      "Ġna": 1284,
      "ide": 1285,
      "Ġsub": 1286,
      "Ġkelompok": 1287,
      "sel": 1288,
      "10": 1289,
      "Ġdig": 1290,
      "urkan": 1291,
      "pem": 1292,
      "ambil": 1293,
      "ast": 1294,
      "Ġdat": 1295,
      "iz": 1296,
      "lim": 1297,
      "Ġberhasil": 1298,
      "Ġlagi": 1299,
      "Ġjan": 1300,
      "Ġmengen": 1301,
      "adang": 1302,
      "Ġmaka": 1303,
      "Ġlok": 1304,
      "eran": 1305,
      "kok": 1306,
      "ira": 1307,
      "ogram": 1308,
      "ĠĊĠĊ": 1309,
      "Ġmemba": 1310,
      "sek": 1311,
      "Ġmeskipun": 1312,
      "Ġberm": 1313,
      "Ġot": 1314,
      "Ġbiasanya": 1315,
      "Ġmemberikan": 1316,
      "Ġ12": 1317,
      "Ġantar": 1318,
      "yak": 1319,
      "atur": 1320,
      "Ġbidang": 1321,
      "Ġjiwa": 1322,
      "ge": 1323,
      "Ġsumber": 1324,
      "Ġberbeda": 1325,
      "arab": 1326,
      "Ġberdasarkan": 1327,
      "Ġpenting": 1328,
      "asilkan": 1329,
      "Ġtrad": 1330,
      "uti": 1331,
      "Ġlap": 1332,
      "Ġakhirnya": 1333,
      "asis": 1334,
      "ami": 1335,
      "Ġli": 1336,
      "Ġhasil": 1337,
      "ustri": 1338,
      "Ġart": 1339,
      "Ġraya": 1340,
      "Ġle": 1341,
      "sej": 1342,
      "hi": 1343,
      "ektr": 1344,
      "Ġmencapai": 1345,
      "Ġsosial": 1346,
      "erd": 1347,
      "Ġbangsa": 1348,
      "edia": 1349,
      "Ġbin": 1350,
      "Ġul": 1351,
      "Ġperl": 1352,
      "Ġtiongkok": 1353,
      "Ġmeninggal": 1354,
      "iti": 1355,
      "Ġkarya": 1356,
      "Ġmusik": 1357,
      "Ġberikut": 1358,
      "embang": 1359,
      "sur": 1360,
      "Ġtingkat": 1361,
      "Ġpenerb": 1362,
      "Ġprot": 1363,
      "Ġob": 1364,
      "atkan": 1365,
      "Ġbernama": 1366,
      "15": 1367,
      "nis": 1368,
      "ril": 1369,
      "Ġbumi": 1370,
      "Ġmener": 1371,
      "Ġhak": 1372,
      "Ġ.": 1373,
      "uangan": 1374,
      "Ġsy": 1375,
      "iet": 1376,
      "Ġsw": 1377,
      "Ġpenj": 1378,
      "ujuan": 1379,
      "usaha": 1380,
      "Ġkej": 1381,
      "inan": 1382,
      "enter": 1383,
      "Ġed": 1384,
      "kar": 1385,
      "Ġmon": 1386,
      "Ġja": 1387,
      "Ġbur": 1388,
      "Ġah": 1389,
      "gab": 1390,
      "Ġdasar": 1391,
      "Ġdic": 1392,
      "Ġsitus": 1393,
      "Ġbola": 1394,
      "Ġhind": 1395,
      "ila": 1396,
      "alami": 1397,
      "utama": 1398,
      "ton": 1399,
      "alis": 1400,
      "ell": 1401,
      "Ġrakyat": 1402,
      "Ġet": 1403,
      "Ġjuta": 1404,
      "Ġaustr": 1405,
      "Ġlalu": 1406,
      "Ġyak": 1407,
      "Ġkepala": 1408,
      "Ġkapal": 1409,
      "upa": 1410,
      "Ġmaupun": 1411,
      "Ġindustri": 1412,
      "Ġtradisi": 1413,
      "Ġbudaya": 1414,
      "Ġ193": 1415,
      "awi": 1416,
      "Ġjam": 1417,
      "ilai": 1418,
      "ĠĊĠ": 1419,
      "Ġjika": 1420,
      "km": 1421,
      "te": 1422,
      "Ġalb": 1423,
      "perasi": 1424,
      "Ġproses": 1425,
      "ekerja": 1426,
      "Ġ14": 1427,
      "Ġto": 1428,
      "Ġdianggap": 1429,
      "tober": 1430,
      "Ġsekarang": 1431,
      "Ġbo": 1432,
      "uncul": 1433,
      "Ġu": 1434,
      "Ġkun": 1435,
      "ukung": 1436,
      "Ġup": 1437,
      "war": 1438,
      "Ġmenunjuk": 1439,
      "Ġdiba": 1440,
      "ersi": 1441,
      "Ġlingk": 1442,
      "Ġsebelumnya": 1443,
      "th": 1444,
      "Ġpantai": 1445,
      "Ġdaf": 1446,
      "17": 1447,
      "Ġir": 1448,
      "iman": 1449,
      "Ġkawasan": 1450,
      "inasi": 1451,
      "Ġseg": 1452,
      "urahan": 1453,
      "stit": 1454,
      "ade": 1455,
      "Ġrusia": 1456,
      "Ġdaftar": 1457,
      "esa": 1458,
      "Ġditer": 1459,
      "Ġco": 1460,
      "atian": 1461,
      "Ġlem": 1462,
      "Ġbl": 1463,
      "Ġ13": 1464,
      "Ġbahan": 1465,
      "Ġfil": 1466,
      "ens": 1467,
      "Ġsk": 1468,
      "Ġdesember": 1469,
      "oni": 1470,
      "ustus": 1471,
      "ungsi": 1472,
      "Ġrel": 1473,
      "ill": 1474,
      "12": 1475,
      "Ġmengan": 1476,
      "Ġpanjang": 1477,
      "ebr": 1478,
      "Ġarab": 1479,
      "Ġpat": 1480,
      "Ġsam": 1481,
      "eksi": 1482,
      "Ġmakan": 1483,
      "Ġmengalami": 1484,
      "unyai": 1485,
      "Ġmembentuk": 1486,
      "set": 1487,
      "ontoh": 1488,
      "fa": 1489,
      "ine": 1490,
      "Ġlama": 1491,
      "dalam": 1492,
      "alur": 1493,
      "Ġoktober": 1494,
      "Ġsept": 1495,
      "astr": 1496,
      "Ġmempunyai": 1497,
      "endah": 1498,
      "Ġsekali": 1499,
      "all": 1500,
      "ork": 1501,
      "Ġlagu": 1502,
      "Ġsebelah": 1503,
      "arti": 1504,
      "adan": 1505,
      "Ġditemukan": 1506,
      "intang": 1507,
      "atas": 1508,
      "Ġters": 1509,
      "Ġprogram": 1510,
      "Ġempat": 1511,
      "Ġfor": 1512,
      "Ġpenggun": 1513,
      "Ġpenc": 1514,
      "Ġbukan": 1515,
      "Ġmuh": 1516,
      "Ġkamp": 1517,
      "16": 1518,
      "Ġsul": 1519,
      "Ġmengenai": 1520,
      "Ġmuncul": 1521,
      "urn": 1522,
      "Ġjuli": 1523,
      "Ġ'": 1524,
      "Ġperi": 1525,
      "Ġasia": 1526,
      "Ġ2005": 1527,
      "imia": 1528,
      "angunan": 1529,
      "Ġterkenal": 1530,
      "21": 1531,
      "isti": 1532,
      "Ġelektr": 1533,
      "Ġnom": 1534,
      "Ġafr": 1535,
      "rat": 1536,
      "negara": 1537,
      "Ġmei": 1538,
      "Ġjanuari": 1539,
      "Ġsejumlah": 1540,
      "Ġterutama": 1541,
      "Ġseptember": 1542,
      "Ġmasuk": 1543,
      "Ġagustus": 1544,
      "araan": 1545,
      "au": 1546,
      "14": 1547,
      "Ġon": 1548,
      "Ġapril": 1549,
      "bahasa": 1550,
      "uktur": 1551,
      "uskan": 1552,
      "Ġtanpa": 1553,
      "Ġsin": 1554,
      "Ġmeningkat": 1555,
      "ulkan": 1556,
      "Ġgol": 1557,
      "Ġmaret": 1558,
      "asiun": 1559,
      "entukan": 1560,
      "Ġcuk": 1561,
      "Ġterakhir": 1562,
      "ulauan": 1563,
      "Ġ,": 1564,
      "Ġmo": 1565,
      "Ġmenyatakan": 1566,
      "Ġstat": 1567,
      "Ġsesu": 1568,
      "ator": 1569,
      "ampir": 1570,
      "inta": 1571,
      "Ġkas": 1572,
      "Ġsuk": 1573,
      "Ġur": 1574,
      "Ġsing": 1575,
      "ongan": 1576,
      "Ġhubungan": 1577,
      "Ġpi": 1578,
      "adaan": 1579,
      "Ġindia": 1580,
      "Ġkristen": 1581,
      "ark": 1582,
      "Ġjuni": 1583,
      "Ġlat": 1584,
      "ihak": 1585,
      "Ġno": 1586,
      "ays": 1587,
      "Ġcara": 1588,
      "Ġlangsung": 1589,
      "Ġbuk": 1590,
      "olik": 1591,
      "Ġberarti": 1592,
      "Ġmungkin": 1593,
      "Ġgl": 1594,
      "Ġsebanyak": 1595,
      "Ġpand": 1596,
      "Ġik": 1597,
      "Ġagar": 1598,
      "ban": 1599,
      "elit": 1600,
      "Ġkeluarga": 1601,
      "tiga": 1602,
      "Ġpenerbangan": 1603,
      "Ġko": 1604,
      "Ġlog": 1605,
      "Ġpang": 1606,
      "Ġmenunjukkan": 1607,
      "gabung": 1608,
      "ajar": 1609,
      "Ġyakni": 1610,
      "13": 1611,
      "Ġangkatan": 1612,
      "Ġmuhamm": 1613,
      "Ġkekuasa": 1614,
      "kr": 1615,
      "Ġsup": 1616,
      "|-": 1617,
      "uju": 1618,
      "ational": 1619,
      "Ġlay": 1620,
      "Ġterba": 1621,
      "ubahan": 1622,
      "Ġdel": 1623,
      "ou": 1624,
      "Ġrek": 1625,
      "angga": 1626,
      "Ġmenyebabkan": 1627,
      "Ġorganisasi": 1628,
      "Ġcukup": 1629,
      "ais": 1630,
      "Ġdidirikan": 1631,
      "Ġtokoh": 1632,
      "anding": 1633,
      "Ġakibat": 1634,
      "co": 1635,
      "asti": 1636,
      "da": 1637,
      "entu": 1638,
      "Ġumumnya": 1639,
      "Ġint": 1640,
      "Ġpembangunan": 1641,
      "olusi": 1642,
      "peng": 1643,
      "Ġsurat": 1644,
      "Ġdekat": 1645,
      "Ġnovember": 1646,
      "Ġsebesar": 1647,
      "ĠâĢ": 1648,
      "Ġro": 1649,
      "Ġistilah": 1650,
      "Ġsah": 1651,
      "Ġalbum": 1652,
      "Ġ2006": 1653,
      "Ġ2004": 1654,
      "ilihan": 1655,
      "jo": 1656,
      "ukaan": 1657,
      "Ġmenghasilkan": 1658,
      "Ġbant": 1659,
      "Ġbuku": 1660,
      "Ġunit": 1661,
      "Ġjalur": 1662,
      "Ġha": 1663,
      "erang": 1664,
      "res": 1665,
      "atasan": 1666,
      "Ġbe": 1667,
      "Ġseni": 1668,
      "abatan": 1669,
      "ite": 1670,
      "Ġkereta": 1671,
      "ass": 1672,
      "Ġafrika": 1673,
      "Ġmay": 1674,
      "ektur": 1675,
      "Ġsar": 1676,
      "Ġpasar": 1677,
      "ry": 1678,
      "Ġmur": 1679,
      "Ġitalia": 1680,
      "Ġkepulauan": 1681,
      "adikan": 1682,
      "ugas": 1683,
      "Ġtub": 1684,
      "Ġprof": 1685,
      "Ġbahkan": 1686,
      "oll": 1687,
      "erita": 1688,
      "eter": 1689,
      "egi": 1690,
      "ish": 1691,
      "Ġkerja": 1692,
      "Ġstasiun": 1693,
      "198": 1694,
      "Ġpengh": 1695,
      "Ġdewan": 1696,
      "abi": 1697,
      "50": 1698,
      "itkan": 1699,
      "uter": 1700,
      "Ġef": 1701,
      "Ġjoh": 1702,
      "Ġtertentu": 1703,
      "Ġperiode": 1704,
      "Ġuk": 1705,
      "Ġfl": 1706,
      "port": 1707,
      "itania": 1708,
      "Ġmodern": 1709,
      "ka": 1710,
      "Ġang": 1711,
      "istiwa": 1712,
      "rasi": 1713,
      "Ġtentara": 1714,
      "Ġdata": 1715,
      "andi": 1716,
      "idupan": 1717,
      "str": 1718,
      "Ġ||": 1719,
      "ultan": 1720,
      "Ġjend": 1721,
      "ht": 1722,
      "baga": 1723,
      "istrik": 1724,
      "Ġzaman": 1725,
      "osa": 1726,
      "Ġtem": 1727,
      "ikian": 1728,
      "anjian": 1729,
      "isah": 1730,
      "Ġwisata": 1731,
      "Ġri": 1732,
      "Ġasal": 1733,
      "Ġ()": 1734,
      "Ġfis": 1735,
      "antu": 1736,
      "sejarah": 1737,
      "Ġcontoh": 1738,
      "oritas": 1739,
      "uri": 1740,
      "inggi": 1741,
      "aria": 1742,
      "Ġkimia": 1743,
      "ikuti": 1744,
      "Ġmag": 1745,
      "Ġkan": 1746,
      "Ġped": 1747,
      "Ġhid": 1748,
      "ker": 1749,
      "tokoh": 1750,
      "Ġund": 1751,
      "Ġkekuasaan": 1752,
      "Ġpihak": 1753,
      "andar": 1754,
      "no": 1755,
      "Ġdom": 1756,
      "Ġkitab": 1757,
      "antikan": 1758,
      "Ġhit": 1759,
      "Ġmesin": 1760,
      "Ġph": 1761,
      "Ġlima": 1762,
      "Ġfebr": 1763,
      "Ġberkembang": 1764,
      "Ġapi": 1765,
      "Ġpe": 1766,
      "gaan": 1767,
      "iah": 1768,
      "han": 1769,
      "ses": 1770,
      "uanya": 1771,
      "Ġlah": 1772,
      "Ġrendah": 1773,
      "Ġq": 1774,
      "Ġkurang": 1775,
      "enda": 1776,
      "Ġstudi": 1777,
      "etahui": 1778,
      "Ġsaja": 1779,
      "son": 1780,
      "22": 1781,
      "Ġhampir": 1782,
      "Ġabd": 1783,
      "ahun": 1784,
      "Ġyes": 1785,
      "Ġsepanjang": 1786,
      "inc": 1787,
      "ergi": 1788,
      "'s": 1789,
      "cat": 1790,
      "Ġtamp": 1791,
      "oro": 1792,
      "obil": 1793,
      "umen": 1794,
      "Ġwan": 1795,
      "Ġkelurahan": 1796,
      "Ġmad": 1797,
      "Ġdaya": 1798,
      "Ġperubahan": 1799,
      "Ġfebruari": 1800,
      "empuan": 1801,
      "Ġbatu": 1802,
      "orn": 1803,
      "Ġteknologi": 1804,
      "jata": 1805,
      "ogen": 1806,
      "Ġaj": 1807,
      "Ġseri": 1808,
      "Ġketiga": 1809,
      "=\"": 1810,
      "Ġbekerja": 1811,
      "Ġjauh": 1812,
      "ingin": 1813,
      "oks": 1814,
      "Ġ30": 1815,
      "Ġperjanjian": 1816,
      "ĠĠĠĠ": 1817,
      "oran": 1818,
      "Ġmisalnya": 1819,
      "ona": 1820,
      "Ġyah": 1821,
      "istik": 1822,
      "Ġkontr": 1823,
      "Ġsuara": 1824,
      "Ġsov": 1825,
      "Ġdistr": 1826,
      "Ġkaum": 1827,
      "Ġbritania": 1828,
      "landia": 1829,
      "Ġallah": 1830,
      "arl": 1831,
      "ess": 1832,
      "anian": 1833,
      "ve": 1834,
      "akai": 1835,
      "ministr": 1836,
      "embangkan": 1837,
      "Ġdok": 1838,
      "akil": 1839,
      "Ġkonf": 1840,
      "Ġ&": 1841,
      "Ġradi": 1842,
      "ach": 1843,
      "11": 1844,
      "Ġlingkungan": 1845,
      "Ġterus": 1846,
      "Ġsedang": 1847,
      "uhkan": 1848,
      "Ġdemikian": 1849,
      "umbuhan": 1850,
      "Ġtinggal": 1851,
      ".\"": 1852,
      "Ġdaripada": 1853,
      "anyol": 1854,
      "Ġisra": 1855,
      "Ġbadan": 1856,
      "Ġposisi": 1857,
      "Ġtaman": 1858,
      "Ġpemain": 1859,
      "Ġmengak": 1860,
      "ehatan": 1861,
      "Ġmendapatkan": 1862,
      "Â°": 1863,
      "sat": 1864,
      "Ġmemen": 1865,
      "Ġuni": 1866,
      "Ġgelar": 1867,
      "ihan": 1868,
      "Ġpad": 1869,
      "yang": 1870,
      "ert": 1871,
      "isar": 1872,
      "Ġproduksi": 1873,
      "urunan": 1874,
      "Ġfin": 1875,
      "Ġperempuan": 1876,
      "arian": 1877,
      "Ġhutan": 1878,
      "Ġketua": 1879,
      "Ġsoviet": 1880,
      "kah": 1881,
      "ket": 1882,
      "uf": 1883,
      "ikit": 1884,
      "arik": 1885,
      "masing": 1886,
      "engaruh": 1887,
      "encana": 1888,
      "adakan": 1889,
      "aksan": 1890,
      "Ġkatolik": 1891,
      "ubern": 1892,
      "Ġ2007": 1893,
      "Ġkond": 1894,
      "Ġdibuat": 1895,
      "Ġrev": 1896,
      "alif": 1897,
      "Ġport": 1898,
      "kel": 1899,
      "rah": 1900,
      "unuh": 1901,
      "Ġjabatan": 1902,
      "yata": 1903,
      "ender": 1904,
      "Ġmenerima": 1905,
      "Ġadministr": 1906,
      "undang": 1907,
      "Ġmelayu": 1908,
      "Ġperdana": 1909,
      "din": 1910,
      "Ġnomor": 1911,
      "osi": 1912,
      "Ġ2010": 1913,
      "erdek": 1914,
      "Ġmasing": 1915,
      "Ġkalim": 1916,
      "ubung": 1917,
      "Ġmenyebut": 1918,
      "Ġmakanan": 1919,
      "Ġspanyol": 1920,
      "Ġsta": 1921,
      "ono": 1922,
      "Ġteknik": 1923,
      "antung": 1924,
      "Ġweb": 1925,
      "ein": 1926,
      "Ġfak": 1927,
      "Ġpenggunaan": 1928,
      "Ġop": 1929,
      "Ġbank": 1930,
      "unda": 1931,
      "Ġpanas": 1932,
      "jek": 1933,
      "ase": 1934,
      "Ġpemimpin": 1935,
      "ania": 1936,
      "Ġsedikit": 1937,
      "Ġjenderal": 1938,
      "Ġwarga": 1939,
      "Ġinformasi": 1940,
      "30": 1941,
      "Ġpopulasi": 1942,
      "Ġpember": 1943,
      "ubernur": 1944,
      "Ġkong": 1945,
      "Ġadanya": 1946,
      "Ġ2000": 1947,
      "Ġdibangun": 1948,
      "Ġ25": 1949,
      "Ġdiperk": 1950,
      "Ġlahir": 1951,
      "erdekaan": 1952,
      "ampu": 1953,
      "Ġsultan": 1954,
      "âĢĿ": 1955,
      "zi": 1956,
      "Ġkam": 1957,
      "eum": 1958,
      "eli": 1959,
      "oto": 1960,
      "Ġgerakan": 1961,
      "Ġtujuan": 1962,
      "Ġperw": 1963,
      "Ġmelawan": 1964,
      "Ġkend": 1965,
      "Ġ11": 1966,
      "Ġkant": 1967,
      "ulang": 1968,
      "edi": 1969,
      "akin": 1970,
      "Ġmasalah": 1971,
      "olak": 1972,
      "Ġpur": 1973,
      "ith": 1974,
      "Ġmenyel": 1975,
      "ujan": 1976,
      "Ġbiasa": 1977,
      "Ġhad": 1978,
      "Ġbelum": 1979,
      "Ġcl": 1980,
      "ii": 1981,
      "Ġjat": 1982,
      "Ġ=": 1983,
      "ost": 1984,
      "Ġyork": 1985,
      "Ġkehidupan": 1986,
      "ipt": 1987,
      "Ġsch": 1988,
      "Ġlistrik": 1989,
      "Ġmul": 1990,
      "Ġsesuai": 1991,
      "Ġkeber": 1992,
      "ikel": 1993,
      "Ġpak": 1994,
      "ilis": 1995,
      "agangan": 1996,
      "agama": 1997,
      "Ġbelak": 1998,
      "Ġdimulai": 1999,
      "Ġisrael": 2000,
      "Ġpermukaan": 2001,
      "Ġagung": 2002,
      "Ġmobil": 2003,
      "Ġyesus": 2004,
      "Ġsepak": 2005,
      "Ġbul": 2006,
      "Ġwakil": 2007,
      "yo": 2008,
      "ore": 2009,
      "Ġkesehatan": 2010,
      "Ġras": 2011,
      "Ġes": 2012,
      "Ġenergi": 2013,
      "jid": 2014,
      "Ġkemerdekaan": 2015,
      "fer": 2016,
      "Ġyahudi": 2017,
      "Ġ/": 2018,
      "aknya": 2019,
      "Ġbangunan": 2020,
      "ran": 2021,
      "sit": 2022,
      "Ġmelip": 2023,
      "Ġtengg": 2024,
      "unani": 2025,
      "Ġpenyakit": 2026,
      "ex": 2027,
      "emuan": 2028,
      "Ġwanita": 2029,
      "Ġtubuh": 2030,
      "Ġmenuju": 2031,
      "Ġkul": 2032,
      "irkan": 2033,
      "ment": 2034,
      "amanya": 2035,
      "Ġbersi": 2036,
      "Ġsemakin": 2037,
      "Ġtamb": 2038,
      "Ġpenulis": 2039,
      "Ġ2008": 2040,
      "Ġputih": 2041,
      "bo": 2042,
      "sk": 2043,
      "Ġol": 2044,
      "Ġpertanian": 2045,
      "Ġ2003": 2046,
      "evisi": 2047,
      "aysia": 2048,
      "23": 2049,
      "etik": 2050,
      "enar": 2051,
      "Ġcon": 2052,
      "alaman": 2053,
      "ogy": 2054,
      "Ġgag": 2055,
      "uth": 2056,
      "Ġmerah": 2057,
      "Ġbintang": 2058,
      "ijakan": 2059,
      "enang": 2060,
      "kitab": 2061,
      "Ġid": 2062,
      "Ġmeliputi": 2063,
      "ungi": 2064,
      "setelah": 2065,
      "Ġberupa": 2066,
      "entang": 2067,
      "anyi": 2068,
      "197": 2069,
      "ue": 2070,
      "Ġbek": 2071,
      "Ġmenulis": 2072,
      "Ġgubernur": 2073,
      "Ġprib": 2074,
      "ler": 2075,
      "Ġkeuangan": 2076,
      "Ġher": 2077,
      "Ġmengambil": 2078,
      "ogyakarta": 2079,
      "etapkan": 2080,
      "Ġyunani": 2081,
      "Ġperdagangan": 2082,
      "ock": 2083,
      "Ġbus": 2084,
      "Ġanti": 2085,
      "Ġberg": 2086,
      "nam": 2087,
      "pl": 2088,
      "Ġmac": 2089,
      "Ġkita": 2090,
      "impinan": 2091,
      "Ġmata": 2092,
      "Ġbak": 2093,
      "Ġhujan": 2094,
      "Ġnilai": 2095,
      "urun": 2096,
      "Ġasli": 2097,
      "hargaan": 2098,
      "Ġstruktur": 2099,
      "anjung": 2100,
      "ibatkan": 2101,
      "Ġnon": 2102,
      "Ġgaya": 2103,
      "Ġbuah": 2104,
      "Ġgrup": 2105,
      "Ġmengel": 2106,
      "Ġinv": 2107,
      "Ġsumat": 2108,
      "awab": 2109,
      "aba": 2110,
      "Ġromawi": 2111,
      "via": 2112,
      "Ġversi": 2113,
      "Ġtertinggi": 2114,
      "Ġkaki": 2115,
      "anyakan": 2116,
      "Ġkuno": 2117,
      "Ġmuslim": 2118,
      "amat": 2119,
      "Ġden": 2120,
      "Ġcat": 2121,
      "Ġmuhammad": 2122,
      "umpang": 2123,
      "bac": 2124,
      "Ġbanj": 2125,
      "urg": 2126,
      "Ġelektron": 2127,
      "uluh": 2128,
      "Ġbis": 2129,
      "Ġtradisional": 2130,
      "Ġken": 2131,
      "Ġmalaysia": 2132,
      "erasi": 2133,
      "Ġsuh": 2134,
      "Ġpemilihan": 2135,
      "Ġayah": 2136,
      "Ġasam": 2137,
      "entr": 2138,
      "Ġkegi": 2139,
      "ke": 2140,
      "epatan": 2141,
      "Ġkegiatan": 2142,
      "Ġtot": 2143,
      "Ġrata": 2144,
      "Ġunsur": 2145,
      "lukan": 2146,
      "ital": 2147,
      "ce": 2148,
      "Ġmuda": 2149,
      "Ġkekais": 2150,
      "Ġkekuatan": 2151,
      "Ġkekaisaran": 2152,
      "Ġgar": 2153,
      "ultas": 2154,
      "Ġliga": 2155,
      "Ġref": 2156,
      "Ġputra": 2157,
      "ohon": 2158,
      "ganti": 2159,
      "Ġgaris": 2160,
      "Ġkematian": 2161,
      "Ġarah": 2162,
      "rata": 2163,
      "za": 2164,
      "irim": 2165,
      "adem": 2166,
      "Ġvan": 2167,
      "Ġkini": 2168,
      "Ġpeg": 2169,
      "urus": 2170,
      "..": 2171,
      "uruan": 2172,
      "kapai": 2173,
      "Ġlib": 2174,
      "adilan": 2175,
      "bi": 2176,
      "uki": 2177,
      "Ġkuat": 2178,
      "Ġemas": 2179,
      "Ġahli": 2180,
      "oduksi": 2181,
      "utup": 2182,
      "one": 2183,
      "196": 2184,
      "Ġoperasi": 2185,
      "ĠâĢľ": 2186,
      "Ġdiberikan": 2187,
      "Ġtelevisi": 2188,
      "ilangan": 2189,
      "Ġjaringan": 2190,
      "Ġpap": 2191,
      "25": 2192,
      "ela": 2193,
      "alaupun": 2194,
      "ji": 2195,
      "Ġsip": 2196,
      "Ġsaya": 2197,
      "Ġbergabung": 2198,
      "Ġperkembangan": 2199,
      "Ġhi": 2200,
      "Ġged": 2201,
      "Ġos": 2202,
      "Ġperistiwa": 2203,
      "Ġminyak": 2204,
      "Ġmedia": 2205,
      "sh": 2206,
      "Ġrad": 2207,
      "de": 2208,
      "Ġuang": 2209,
      "Ġawalnya": 2210,
      "Ġbandara": 2211,
      "Ġtangan": 2212,
      "Ġyogyakarta": 2213,
      "ora": 2214,
      "Ġ2002": 2215,
      "Ġ24": 2216,
      "atuan": 2217,
      "ute": 2218,
      "Ġkelas": 2219,
      "Ġpener": 2220,
      "Ġmenjabat": 2221,
      "asif": 2222,
      "imana": 2223,
      "Ġmir": 2224,
      "empuran": 2225,
      "Ġmilik": 2226,
      "ash": 2227,
      "Ġ2011": 2228,
      "istor": 2229,
      "Ġkomputer": 2230,
      "Ġdibanding": 2231,
      "uw": 2232,
      "Ġistana": 2233,
      "Ġsil": 2234,
      "ei": 2235,
      "ser": 2236,
      "aftar": 2237,
      "abang": 2238,
      "Ġ2001": 2239,
      "ld": 2240,
      "udul": 2241,
      "hari": 2242,
      "ingkatan": 2243,
      "Ġkebijakan": 2244,
      "Ġmemas": 2245,
      "rik": 2246,
      "Ġmampu": 2247,
      "Ġditulis": 2248,
      "Ġbun": 2249,
      "elas": 2250,
      "ebut": 2251,
      "Ġinstit": 2252,
      "Ġex": 2253,
      "Ġpot": 2254,
      "Ġham": 2255,
      "Ġperc": 2256,
      "Ġgas": 2257,
      "ver": 2258,
      "âĢĻ": 2259,
      "Ġdikel": 2260,
      "ime": 2261,
      "Ġuniversity": 2262,
      "astra": 2263,
      "angsa": 2264,
      "Ġmasjid": 2265,
      "Ġlembaga": 2266,
      "Ġapa": 2267,
      "Ġperjalan": 2268,
      "asiswa": 2269,
      "Ġjohn": 2270,
      "Ġ:": 2271,
      "ĠĊĊĠ": 2272,
      "Ġcepat": 2273,
      "Ġserangan": 2274,
      "Ġsan": 2275,
      "Ġmendirikan": 2276,
      "Ġpo": 2277,
      "Ġform": 2278,
      "Ġ2009": 2279,
      "Ġsif": 2280,
      "Ġterbaik": 2281,
      "Ġpublik": 2282,
      "bar": 2283,
      "uhnya": 2284,
      "portasi": 2285,
      "Ġkantor": 2286,
      "uman": 2287,
      "Ġleg": 2288,
      "oko": 2289,
      "indah": 2290,
      "Ġsisi": 2291,
      "Ġ1999": 2292,
      "Ġvol": 2293,
      "efin": 2294,
      "uarkan": 2295,
      "olahra": 2296,
      "Ġdistrik": 2297,
      "ulus": 2298,
      "Ġdepan": 2299,
      "Ġmeter": 2300,
      "kab": 2301,
      "utusan": 2302,
      "ombang": 2303,
      "elaj": 2304,
      "andia": 2305,
      ".,": 2306,
      "abuhan": 2307,
      "Ġlokal": 2308,
      "Ġdatang": 2309,
      "jah": 2310,
      "elitian": 2311,
      "Ġgu": 2312,
      "Ġantaranya": 2313,
      "Ġaceh": 2314,
      "atangan": 2315,
      "Ġperh": 2316,
      "asia": 2317,
      "Ġbir": 2318,
      "irakan": 2319,
      "Ġpengembangan": 2320,
      "Ġatom": 2321,
      "pend": 2322,
      "sen": 2323,
      "apura": 2324,
      "Ġca": 2325,
      "Ġperg": 2326,
      "dung": 2327,
      "Ġeksp": 2328,
      "Ġtotal": 2329,
      "Ġsud": 2330,
      "alkan": 2331,
      "Ġbab": 2332,
      "gaimana": 2333,
      "kem": 2334,
      "Ġmati": 2335,
      "aturan": 2336,
      "Ġcom": 2337,
      "Ġsifat": 2338,
      "Ġundang": 2339,
      "ign": 2340,
      "bon": 2341,
      "ekan": 2342,
      "Ġsus": 2343,
      "Ġtni": 2344,
      "ick": 2345,
      "ema": 2346,
      "andang": 2347,
      "olahraga": 2348,
      "Ġuj": 2349,
      "Ġumat": 2350,
      "Ġbeg": 2351,
      "Ġdemok": 2352,
      "una": 2353,
      "elis": 2354,
      "Ġdiketahui": 2355,
      "iptakan": 2356,
      "Ġbelakang": 2357,
      "ait": 2358,
      "elahiran": 2359,
      "Ġefek": 2360,
      "Ġmengatakan": 2361,
      "ie": 2362,
      "Ġketer": 2363,
      "oa": 2364,
      "akter": 2365,
      "Ġdipimpin": 2366,
      "Ġpiala": 2367,
      "Ġmenemukan": 2368,
      "anjutnya": 2369,
      "Ġbas": 2370,
      "Ġtab": 2371,
      "egang": 2372,
      "Ġkondisi": 2373,
      "Ġleb": 2374,
      "Ġhewan": 2375,
      "Ġaustralia": 2376,
      "Ġpt": 2377,
      "gn": 2378,
      "ayat": 2379,
      "Ġmelihat": 2380,
      "Ġmantan": 2381,
      "Ġalat": 2382,
      "Ġ1990": 2383,
      "Ġwarna": 2384,
      "ahanan": 2385,
      "Ġeks": 2386,
      "iko": 2387,
      "Ġspesi": 2388,
      "tivitas": 2389,
      "Ġmol": 2390,
      "Ġberubah": 2391,
      "Ġteori": 2392,
      "Ġtenggara": 2393,
      "Ġsakit": 2394,
      "Ġtitik": 2395,
      "Ġabdul": 2396,
      "mar": 2397,
      "Ġsd": 2398,
      "Ġgamb": 2399,
      "Ġmembangun": 2400,
      "ann": 2401,
      "Ġps": 2402,
      "ekerj": 2403,
      "mad": 2404,
      "Ġtar": 2405,
      "Ġkari": 2406,
      "gus": 2407,
      "ris": 2408,
      "Ġbebas": 2409,
      "Ġev": 2410,
      "Ġkont": 2411,
      "Ġmenik": 2412,
      "Ġacara": 2413,
      "ambah": 2414,
      "ret": 2415,
      "amin": 2416,
      "Ġsc": 2417,
      "Ġnas": 2418,
      "wi": 2419,
      "Ġruang": 2420,
      "obal": 2421,
      "lo": 2422,
      "Ġmik": 2423,
      "orld": 2424,
      "Ġketurunan": 2425,
      "Ġradio": 2426,
      "tion": 2427,
      "emat": 2428,
      "apt": 2429,
      "Ġmempr": 2430,
      "Ġ190": 2431,
      "40": 2432,
      "ts": 2433,
      "Ġfakultas": 2434,
      "orong": 2435,
      "ainan": 2436,
      "Ġmembawa": 2437,
      "ansi": 2438,
      "org": 2439,
      "Ġder": 2440,
      "Ġ2012": 2441,
      "Ġpopuler": 2442,
      "Ġkeadaan": 2443,
      "ainkan": 2444,
      "Ġaliran": 2445,
      "Ġbudd": 2446,
      "Ġhindia": 2447,
      "anto": 2448,
      "Ġarg": 2449,
      "Ġrah": 2450,
      "ice": 2451,
      "Ġpertempuran": 2452,
      "Ġkalimantan": 2453,
      "ros": 2454,
      "anak": 2455,
      "Ġusaha": 2456,
      "Ġvir": 2457,
      "iknya": 2458,
      "Ġberlangsung": 2459,
      "engaruhi": 2460,
      "Ġhindu": 2461,
      "umkan": 2462,
      "edaan": 2463,
      "Ġ23": 2464,
      "Ġmew": 2465,
      "Ġialah": 2466,
      "ayang": 2467,
      "Ġfungsi": 2468,
      "Ġpengaruh": 2469,
      "anggung": 2470,
      "Ġmendukung": 2471,
      "Ġdiv": 2472,
      "Ġsol": 2473,
      "apun": 2474,
      "luk": 2475,
      "ate": 2476,
      "enaga": 2477,
      "Ġjarak": 2478,
      "mer": 2479,
      "rist": 2480,
      "Ġbandung": 2481,
      "ack": 2482,
      "Ġpenyanyi": 2483,
      "usun": 2484,
      "pol": 2485,
      "Ġpenelitian": 2486,
      "ku": 2487,
      "ps": 2488,
      "Ġtuhan": 2489,
      "ary": 2490,
      "amanan": 2491,
      "ino": 2492,
      "Ġpenghargaan": 2493,
      "ez": 2494,
      "Ġdah": 2495,
      "):": 2496,
      "kec": 2497,
      "antara": 2498,
      "tern": 2499,
      "yi": 2500,
      "Ġtepat": 2501,
      "Ġ21": 2502,
      "Ġmenghad": 2503,
      "24": 2504,
      "Ġmot": 2505,
      "Ġkeputusan": 2506,
      "Ġpenumpang": 2507,
      "Ġpart": 2508,
      "tahun": 2509,
      "udukan": 2510,
      "ambarkan": 2511,
      "kup": 2512,
      "Ġpemba": 2513,
      "rad": 2514,
      "uksi": 2515,
      "Ġ100": 2516,
      "Ġses": 2517,
      "Ġmedan": 2518,
      "upati": 2519,
      "Ġdarat": 2520,
      "Ġselalu": 2521,
      "Ġmesir": 2522,
      "Ġsuhu": 2523,
      "ral": 2524,
      "ambang": 2525,
      "Ġpendek": 2526,
      "Ġmembantu": 2527,
      "Ġkesel": 2528,
      "Ġpunc": 2529,
      "her": 2530,
      "aranya": 2531,
      "Ġkaisar": 2532,
      "cl": 2533,
      "Ġsir": 2534,
      "Ġlab": 2535,
      "Ġperjalanan": 2536,
      "Ġsunda": 2537,
      "alahkan": 2538,
      "Ġdirinya": 2539,
      "Ġ22": 2540,
      "Ġperp": 2541,
      "Ġdew": 2542,
      "Ġpej": 2543,
      "engahan": 2544,
      "etahuan": 2545,
      "Ġpaus": 2546,
      "ungkinan": 2547,
      "Ġwalaupun": 2548,
      "Ġdibentuk": 2549,
      "uhi": 2550,
      "ujuh": 2551,
      "akup": 2552,
      "ju": 2553,
      "va": 2554,
      "Ġwal": 2555,
      "Ġroma": 2556,
      "Ġ[": 2557,
      "angkap": 2558,
      "artemen": 2559,
      "Ø§": 2560,
      "com": 2561,
      "Ġpag": 2562,
      "gen": 2563,
      "Ġmuseum": 2564,
      "nu": 2565,
      "Ġperan": 2566,
      "rop": 2567,
      "Ġduk": 2568,
      "amai": 2569,
      "Ġtanaman": 2570,
      "Ġtv": 2571,
      "erta": 2572,
      "Ġhistor": 2573,
      "istan": 2574,
      "bert": 2575,
      "Ġfed": 2576,
      "pi": 2577,
      "Ġmodel": 2578,
      "Ġselanjutnya": 2579,
      "lem": 2580,
      "Ġdial": 2581,
      "Ġsik": 2582,
      "Ġbet": 2583,
      "Ġmenjel": 2584,
      "fr": 2585,
      "Ġpelabuhan": 2586,
      "inet": 2587,
      "Ġbali": 2588,
      "Ġportug": 2589,
      "Ġberikutnya": 2590,
      "Ġtugas": 2591,
      "Ġkomand": 2592,
      "ahaya": 2593,
      "unungan": 2594,
      "Ġusia": 2595,
      "ajak": 2596,
      "agam": 2597,
      "iaya": 2598,
      "ekul": 2599,
      "Ġsuci": 2600,
      "aktor": 2601,
      "Ġng": 2602,
      "Ġcal": 2603,
      "ondon": 2604,
      "Ġmengikuti": 2605,
      "Ġmahasiswa": 2606,
      "Ġ27": 2607,
      "Ġmeningkatkan": 2608,
      "Ġpertengahan": 2609,
      "Ġkonsep": 2610,
      "ibu": 2611,
      "27": 2612,
      "Ġcerita": 2613,
      "Ġklub": 2614,
      "hana": 2615,
      "uruf": 2616,
      "28": 2617,
      "vi": 2618,
      "Ġteg": 2619,
      "Ġmalam": 2620,
      "andingan": 2621,
      "Ġdiberi": 2622,
      "Ġbanjar": 2623,
      "Ġ1998": 2624,
      "Ġcar": 2625,
      "embatan": 2626,
      "Ġmaskapai": 2627,
      "Ġkebanyakan": 2628,
      "Ġkasus": 2629,
      "iling": 2630,
      "ean": 2631,
      "Ġpah": 2632,
      "acara": 2633,
      "Ġlokasi": 2634,
      "Ġil": 2635,
      "itasi": 2636,
      "Ġhe": 2637,
      "Ġjuara": 2638,
      "Ġmit": 2639,
      "Ġtemp": 2640,
      "rogen": 2641,
      "bn": 2642,
      "Ġtulis": 2643,
      "akaan": 2644,
      "Ġputri": 2645,
      "Ġsis": 2646,
      "Ġkos": 2647,
      "alin": 2648,
      "anet": 2649,
      "Ġmempert": 2650,
      "omo": 2651,
      "Ġketingg": 2652,
      "ence": 2653,
      "hoa": 2654,
      "ultanan": 2655,
      "Ġgedung": 2656,
      "Ġpengetahuan": 2657,
      "Ġmengandung": 2658,
      "wisata": 2659,
      "Ġlayanan": 2660,
      "Ġbersifat": 2661,
      "Ġkorea": 2662,
      "ne": 2663,
      "Ġworld": 2664,
      "Ġbandar": 2665,
      "Ġbisnis": 2666,
      "Ġdibandingkan": 2667,
      "Ġcandi": 2668,
      "Ġguru": 2669,
      "Ġsuraba": 2670,
      "par": 2671,
      "Ġglobal": 2672,
      "ilang": 2673,
      "fi": 2674,
      "Ġmemperk": 2675,
      "Ġmeninggalkan": 2676,
      "rig": 2677,
      "Ġdinasti": 2678,
      "Ġlaki": 2679,
      "Ġkoloni": 2680,
      "Ġtind": 2681,
      "Ġairlin": 2682,
      "oyek": 2683,
      "Ġlet": 2684,
      "Ġsurabaya": 2685,
      "Ġpegunungan": 2686,
      "Ġolahraga": 2687,
      "Ġinternational": 2688,
      "Ġrevolusi": 2689,
      "Ġbakar": 2690,
      "ica": 2691,
      "Ġingin": 2692,
      "Ġbegitu": 2693,
      "Ġtenaga": 2694,
      "Ġmenolak": 2695,
      "enangan": 2696,
      "Ġsri": 2697,
      "Ġkop": 2698,
      "Ġris": 2699,
      "Ġpangeran": 2700,
      "iki": 2701,
      "seorang": 2702,
      "Ġta": 2703,
      "Ġdipr": 2704,
      "Ġgo": 2705,
      "Ġcur": 2706,
      "ampuan": 2707,
      "Ġdewa": 2708,
      "ron": 2709,
      "Ġmemberi": 2710,
      "Ġturki": 2711,
      "kes": 2712,
      "Ġenam": 2713,
      "enterian": 2714,
      "Ġton": 2715,
      "Ġali": 2716,
      "the": 2717,
      "Ġbupati": 2718,
      "Ġlondon": 2719,
      "Ġ26": 2720,
      "Ġkemungkinan": 2721,
      "ahari": 2722,
      "Ġlemb": 2723,
      "Ġpelay": 2724,
      "Ġberat": 2725,
      "minal": 2726,
      "Ġpro": 2727,
      "Ġ2013": 2728,
      "Ġmemut": 2729,
      "ikiran": 2730,
      "Ġaz": 2731,
      "Ġpengg": 2732,
      "Ġikan": 2733,
      "Ġ2014": 2734,
      "Ġkeper": 2735,
      "aksa": 2736,
      "Ġberakhir": 2737,
      "Ġnus": 2738,
      "Ġkhas": 2739,
      "ungkinkan": 2740,
      "asta": 2741,
      "Ġsana": 2742,
      "Ġkayu": 2743,
      "ium": 2744,
      "Ġpersen": 2745,
      "Ġpribadi": 2746,
      "Ġketinggian": 2747,
      "Ġcomp": 2748,
      "Ġbarang": 2749,
      "Ġmengk": 2750,
      "alahan": 2751,
      "Ġgor": 2752,
      "Ġay": 2753,
      "Ġ28": 2754,
      "Ġtua": 2755,
      "Ġrus": 2756,
      "Ġcamp": 2757,
      "Ġby": 2758,
      "epas": 2759,
      "Ġkarakter": 2760,
      "26": 2761,
      "Ġtumb": 2762,
      "so": 2763,
      "uruhan": 2764,
      "Ġperbedaan": 2765,
      "go": 2766,
      "aksanakan": 2767,
      "Ġkud": 2768,
      "esis": 2769,
      "Ġmemilih": 2770,
      "Ġstatus": 2771,
      "Ġmemperoleh": 2772,
      "ampung": 2773,
      "Ġkompl": 2774,
      "Ġairlines": 2775,
      "iar": 2776,
      "Ġmudah": 2777,
      "Ġtip": 2778,
      "umumkan": 2779,
      "Ġgal": 2780,
      "enarnya": 2781,
      "udayaan": 2782,
      "estasi": 2783,
      "Ġdipakai": 2784,
      "Ġobjek": 2785,
      "laki": 2786,
      "Ġmor": 2787,
      "untuk": 2788,
      "daftar": 2789,
      "oman": 2790,
      "warna": 2791,
      "Ġtionghoa": 2792,
      "Ġsipil": 2793,
      "Ġkecepatan": 2794,
      "Ġmetode": 2795,
      "Ġdag": 2796,
      "Ġne": 2797,
      "Ġstandar": 2798,
      "Ġspesies": 2799,
      "Ġland": 2800,
      "Ġistr": 2801,
      "Ġmanaj": 2802,
      "epak": 2803,
      "kom": 2804,
      "yle": 2805,
      "Ġpertahanan": 2806,
      "Ġkot": 2807,
      "arakan": 2808,
      "Ġakadem": 2809,
      "utu": 2810,
      "Ġharga": 2811,
      "akilan": 2812,
      "Ġsenjata": 2813,
      "Ġdibagi": 2814,
      "Ġpertumbuhan": 2815,
      "Ġmenjadikan": 2816,
      "Ġpenyel": 2817,
      "Ġterg": 2818,
      "Ġasing": 2819,
      "Ġmenarik": 2820,
      "inggu": 2821,
      "Ġmatahari": 2822,
      "igi": 2823,
      "Ġmassa": 2824,
      "wah": 2825,
      "Ġkulit": 2826,
      "uasai": 2827,
      "bel": 2828,
      "Ġkesultanan": 2829,
      "uddin": 2830,
      "Ġberper": 2831,
      "Ġperangkat": 2832,
      "Ġterkait": 2833,
      "gerak": 2834,
      "lat": 2835,
      "stitusi": 2836,
      "Ġbenar": 2837,
      "Ġlatin": 2838,
      "yan": 2839,
      "liam": 2840,
      "Ġsekaligus": 2841,
      "itung": 2842,
      "Ġpemberont": 2843,
      "bil": 2844,
      "Ġmengembangkan": 2845,
      "hy": 2846,
      "zim": 2847,
      "Ġdiseb": 2848,
      "Ġtemb": 2849,
      "Ġra": 2850,
      "Ġ1945": 2851,
      "80": 2852,
      "ight": 2853,
      "Ġkode": 2854,
      "emu": 2855,
      "Ġmenggantikan": 2856,
      "Ġsain": 2857,
      "Ġberdiri": 2858,
      "Ġcabang": 2859,
      "ejo": 2860,
      "Ġsastra": 2861,
      "Ġbatas": 2862,
      "ekat": 2863,
      "Ġmencakup": 2864,
      "mes": 2865,
      "Ġbay": 2866,
      "Ġterbentuk": 2867,
      "unggal": 2868,
      "Ġsemb": 2869,
      "Ġkomunikasi": 2870,
      "Ġdu": 2871,
      "Ġmic": 2872,
      "Ġaktif": 2873,
      "Ġberf": 2874,
      "Ġnabi": 2875,
      "Ġpenuh": 2876,
      "inj": 2877,
      "ahankan": 2878,
      "Ġkeduanya": 2879,
      "29": 2880,
      "Ġ)": 2881,
      "erik": 2882,
      "Ġdepartemen": 2883,
      "Ġterpilih": 2884,
      "Ġsab": 2885,
      "Ġupaya": 2886,
      "ubungkan": 2887,
      "Ġdiperkirakan": 2888,
      "Ġbuddha": 2889,
      "Ġmu": 2890,
      "Ġkeamanan": 2891,
      "Ġperwakilan": 2892,
      "iss": 2893,
      "Ġhuruf": 2894,
      "Ġcoll": 2895,
      "Ġ2015": 2896,
      "ediakan": 2897,
      "ical": 2898,
      "hal": 2899,
      "Ġsebenarnya": 2900,
      "Ġkemampuan": 2901,
      "che": 2902,
      "Ġtop": 2903,
      "isip": 2904,
      "batas": 2905,
      "Ġsut": 2906,
      "Ġkm": 2907,
      "iring": 2908,
      "Ġnuk": 2909,
      "estan": 2910,
      "Ġhitam": 2911,
      "Ġbenda": 2912,
      "ajib": 2913,
      "Ġetnis": 2914,
      "Ġsaham": 2915,
      "Ġpenyeb": 2916,
      "Ġperlu": 2917,
      "Ġbantuan": 2918,
      "Ġjatuh": 2919,
      "Ġmenikah": 2920,
      "onia": 2921,
      "Ġlar": 2922,
      "Ġmenand": 2923,
      "Ġkomunitas": 2924,
      "Ġsaudara": 2925,
      "Â²": 2926,
      "Ġterbang": 2927,
      "amaan": 2928,
      "Ġprakt": 2929,
      "Ġkementerian": 2930,
      "Ġsemen": 2931,
      "kep": 2932,
      "osisi": 2933,
      "oba": 2934,
      "esaikan": 2935,
      "Ġjawab": 2936,
      "antik": 2937,
      "Ġ50": 2938,
      "ekerjaan": 2939,
      "ial": 2940,
      "Ġdarah": 2941,
      "Ġdingin": 2942,
      "lemen": 2943,
      "tim": 2944,
      "Ġberbatasan": 2945,
      "alikan": 2946,
      "enalkan": 2947,
      "ly": 2948,
      "Ġkebudayaan": 2949,
      "sum": 2950,
      "sin": 2951,
      "ome": 2952,
      "Ġ1997": 2953,
      "Ġmemungkinkan": 2954,
      "Ġlogam": 2955,
      "mat": 2956,
      "anti": 2957,
      "adian": 2958,
      "ley": 2959,
      "Ġmengubah": 2960,
      "Ġpapua": 2961,
      "Ġnat": 2962,
      "Ġpembentukan": 2963,
      "Ġpimpinan": 2964,
      "pert": 2965,
      "asik": 2966,
      "mus": 2967,
      "awanan": 2968,
      "laim": 2969,
      "ominasi": 2970,
      "Ġmenjalan": 2971,
      "trans": 2972,
      "Ġ40": 2973,
      "Ġparis": 2974,
      "Ġpuncak": 2975,
      "Ġmemerint": 2976,
      "Ġmemenangkan": 2977,
      "kabupaten": 2978,
      "Ġkhususnya": 2979,
      "Ġ189": 2980,
      "Ġaward": 2981,
      "onen": 2982,
      "organ": 2983,
      "ajaran": 2984,
      "Ġtata": 2985,
      "net": 2986,
      "antai": 2987,
      "Ġproyek": 2988,
      "anta": 2989,
      "atang": 2990,
      "Ġkabinet": 2991,
      "erit": 2992,
      "Ġsim": 2993,
      "Ġtai": 2994,
      "Ġcol": 2995,
      "imbol": 2996,
      "pe": 2997,
      "Ġ1980": 2998,
      "Ġseseorang": 2999,
      "ujuk": 3000,
      "anjutkan": 3001,
      "catatan": 3002,
      "bul": 3003,
      "Ġlen": 3004,
      "ria": 3005,
      "Ġangka": 3006,
      "Ġstrat": 3007,
      "satunya": 3008,
      "amakan": 3009,
      "Ġterminal": 3010,
      "erahkan": 3011,
      "47": 3012,
      "ohan": 3013,
      "Ġera": 3014,
      "Ġdataran": 3015,
      "Ġturun": 3016,
      "Ġkut": 3017,
      "oper": 3018,
      "ww": 3019,
      "enteng": 3020,
      "ipta": 3021,
      "sus": 3022,
      "Ġkeras": 3023,
      "operasi": 3024,
      "ram": 3025,
      "Ġqu": 3026,
      "Ġpras": 3027,
      "edakan": 3028,
      "Ġkalangan": 3029,
      "Ġmemutuskan": 3030,
      "Ġdanau": 3031,
      "omat": 3032,
      "Ġsektor": 3033,
      "Ġep": 3034,
      "Ġmemulai": 3035,
      "ix": 3036,
      "Ġtanda": 3037,
      "Ġkepad": 3038,
      "ariwisata": 3039,
      "Ġabu": 3040,
      "ks": 3041,
      "Ġsempat": 3042,
      "utuhkan": 3043,
      "Ġ29": 3044,
      "dari": 3045,
      "terd": 3046,
      "Ġparlemen": 3047,
      "ologis": 3048,
      "let": 3049,
      "awesi": 3050,
      "Ġarsit": 3051,
      "Ġukuran": 3052,
      "ater": 3053,
      "asilitas": 3054,
      "Ġ1996": 3055,
      "ayani": 3056,
      "60": 3057,
      "arat": 3058,
      "ney": 3059,
      "Ġhab": 3060,
      "Ġmateri": 3061,
      "Ġrat": 3062,
      "Ġaustria": 3063,
      "ĠâĢĶ": 3064,
      "iland": 3065,
      "Ġjelas": 3066,
      "Ġgelombang": 3067,
      "Ġlew": 3068,
      "Ġ2020": 3069,
      "insip": 3070,
      "Ġberusaha": 3071,
      "menurut": 3072,
      "tan": 3073,
      "Ġisbn": 3074,
      "Ġpekerjaan": 3075,
      "ulasi": 3076,
      "ekar": 3077,
      "Ġide": 3078,
      "Ġmun": 3079,
      "Ġmatemat": 3080,
      "ĠĊĠĊĠĊĠĊ": 3081,
      "37": 3082,
      "ebasan": 3083,
      "Ġwilliam": 3084,
      "arto": 3085,
      "alap": 3086,
      "Ġfir": 3087,
      "Ġkepem": 3088,
      "Ġberpend": 3089,
      "Ġdiadakan": 3090,
      "apatan": 3091,
      "Ġkampung": 3092,
      "Ġpenguasa": 3093,
      "Ġditetapkan": 3094,
      "isir": 3095,
      "Ġberbentuk": 3096,
      "Ġkala": 3097,
      "akh": 3098,
      "Ġtol": 3099,
      "kh": 3100,
      "otel": 3101,
      "Ġtumbuh": 3102,
      "ee": 3103,
      "osis": 3104,
      "isahkan": 3105,
      "Ġditerb": 3106,
      "Ġplanet": 3107,
      "Ġpu": 3108,
      "Ġmolekul": 3109,
      "Ġdiangkat": 3110,
      "age": 3111,
      "Ġcity": 3112,
      "Ġalkitab": 3113,
      "Ġtransportasi": 3114,
      "bit": 3115,
      "Ġkak": 3116,
      "oda": 3117,
      "Ġkonstitusi": 3118,
      "pres": 3119,
      "Ġburung": 3120,
      "Ġpab": 3121,
      "alang": 3122,
      "Ġstyle": 3123,
      "Ġayahnya": 3124,
      "aih": 3125,
      "Ġmand": 3126,
      "Ġjadi": 3127,
      "ariasi": 3128,
      "intah": 3129,
      "Ġbos": 3130,
      "Ġbila": 3131,
      "aji": 3132,
      "dengan": 3133,
      "Ġfisik": 3134,
      "tu": 3135,
      "ĊĊĠ": 3136,
      "itif": 3137,
      "Ġdiambil": 3138,
      "Ġcr": 3139,
      "Ġimam": 3140,
      "uali": 3141,
      "Ġfo": 3142,
      "encan": 3143,
      "ampil": 3144,
      "Ġulang": 3145,
      "Ġmirip": 3146,
      "Ġadat": 3147,
      "ance": 3148,
      "Ġkompleks": 3149,
      "ten": 3150,
      "me": 3151,
      "Ġpergi": 3152,
      "ff": 3153,
      "enti": 3154,
      "Ġmenengah": 3155,
      "Ġterbuka": 3156,
      "Ġsatuan": 3157,
      "Ġtindakan": 3158,
      "Ġpohon": 3159,
      "Ġcor": 3160,
      "Ġpengadilan": 3161,
      "Ġmenciptakan": 3162,
      "Ġsingapura": 3163,
      "yawa": 3164,
      "Ġ2021": 3165,
      "Ġsumatera": 3166,
      "Ġdirilis": 3167,
      "Ġbukit": 3168,
      "asinya": 3169,
      "Ġarm": 3170,
      "Ġdisel": 3171,
      "%.": 3172,
      "Ġmeminta": 3173,
      "ungaria": 3174,
      "ampa": 3175,
      "ulau": 3176,
      "sem": 3177,
      "ijaya": 3178,
      "kanan": 3179,
      "Ġ1970": 3180,
      "Ġdukungan": 3181,
      "okan": 3182,
      "Ġberwarna": 3183,
      "Ġteluk": 3184,
      ");": 3185,
      "45": 3186,
      "Ġfa": 3187,
      "Ġ2016": 3188,
      "Ġsmp": 3189,
      "Ġjo": 3190,
      "Ġbesi": 3191,
      "acam": 3192,
      "wil": 3193,
      "Ġdpr": 3194,
      "Ġjembatan": 3195,
      "Ġbukti": 3196,
      "Ġbunga": 3197,
      "ersial": 3198,
      "Ġoper": 3199,
      "Ġmencari": 3200,
      "Ġdo": 3201,
      "Ġny": 3202,
      "Ġaktivitas": 3203,
      "ideo": 3204,
      "ene": 3205,
      "Ġkand": 3206,
      "lima": 3207,
      "Ġluk": 3208,
      "aca": 3209,
      "Ġterlihat": 3210,
      "Ġiii": 3211,
      "pulau": 3212,
      "Ġsulawesi": 3213,
      "Ġtujuh": 3214,
      "Ġsegala": 3215,
      "ph": 3216,
      "inkan": 3217,
      "aksud": 3218,
      "Ġdivisi": 3219,
      "ubl": 3220,
      "amah": 3221,
      "uler": 3222,
      "safat": 3223,
      "Ġseng": 3224,
      "urangi": 3225,
      "Ġrencana": 3226,
      "alisis": 3227,
      "Ġperguruan": 3228,
      "Ġnaik": 3229,
      "Ġsl": 3230,
      "Ġ(\"": 3231,
      "Ġalasan": 3232,
      "ican": 3233,
      "kecamatan": 3234,
      "Ġditerbitkan": 3235,
      "kin": 3236,
      "Ġtambahan": 3237,
      "kata": 3238,
      "les": 3239,
      "Ġval": 3240,
      "Ġswasta": 3241,
      "Ġmayoritas": 3242,
      "Ġprod": 3243,
      "Ġ1995": 3244,
      "Ġdisebabkan": 3245,
      "Ġ1960": 3246,
      "pel": 3247,
      "alem": 3248,
      "Ġhan": 3249,
      "ujud": 3250,
      "akaian": 3251,
      "hat": 3252,
      "okter": 3253,
      "Ġkonser": 3254,
      "Ġdur": 3255,
      "ivid": 3256,
      "Ġdipilih": 3257,
      "Ġinj": 3258,
      "tp": 3259,
      "Ġlang": 3260,
      "Ġmenganggap": 3261,
      "Ġmiliar": 3262,
      "Ġajaran": 3263,
      "Ġprotestan": 3264,
      "beb": 3265,
      "kop": 3266,
      "Ġreg": 3267,
      "rus": 3268,
      "Ġtanjung": 3269,
      "mark": 3270,
      "Ġgrand": 3271,
      "dis": 3272,
      "ikal": 3273,
      "195": 3274,
      "Ġlint": 3275,
      "Ġsegera": 3276,
      "Ġkil": 3277,
      "Ġterh": 3278,
      "Ġtern": 3279,
      "umpulan": 3280,
      "Ġbekas": 3281,
      "Ġtunggal": 3282,
      "Ġros": 3283,
      "Ġberjumlah": 3284,
      "Ġkad": 3285,
      "Ġberisi": 3286,
      "likasi": 3287,
      "Ġdijadikan": 3288,
      "Ġcatatan": 3289,
      "Ġkeseluruhan": 3290,
      "Ġho": 3291,
      "Ġmotor": 3292,
      "bah": 3293,
      "Ġlahan": 3294,
      "Ġgug": 3295,
      "Ġpeningkatan": 3296,
      "own": 3297,
      "jana": 3298,
      "Ġminggu": 3299,
      "Ġcahaya": 3300,
      "ko": 3301,
      "amer": 3302,
      "Ġrelatif": 3303,
      "Ġkeju": 3304,
      "sama": 3305,
      "Ġpolisi": 3306,
      "Ġadministrasi": 3307,
      "een": 3308,
      "Ġikut": 3309,
      "bagian": 3310,
      "hev": 3311,
      "Ġlaporan": 3312,
      "Ġbern": 3313,
      "Ġhol": 3314,
      "Ġnational": 3315,
      "Ġlun": 3316,
      "ektor": 3317,
      "hou": 3318,
      "Ġkomunis": 3319,
      "ukul": 3320,
      "Ġmemimpin": 3321,
      "ental": 3322,
      "sal": 3323,
      "arif": 3324,
      "osfer": 3325,
      "xt": 3326,
      "sekarang": 3327,
      "Ġgam": 3328,
      "Ġ2019": 3329,
      "emahan": 3330,
      "Ġperaturan": 3331,
      "\"|": 3332,
      "Ġberita": 3333,
      "Ġgambar": 3334,
      "Ġkadang": 3335,
      "Ġkisah": 3336,
      "Ġhel": 3337,
      "Ġhati": 3338,
      "seba": 3339,
      "Ġperingkat": 3340,
      "dan": 3341,
      "sm": 3342,
      "48": 3343,
      "Ġeng": 3344,
      "Ġastr": 3345,
      "burg": 3346,
      "jen": 3347,
      "Ġmang": 3348,
      "Ġjasa": 3349,
      "Ġ2018": 3350,
      "erus": 3351,
      "Ġkeempat": 3352,
      "Ġ1991": 3353,
      "Ġlapangan": 3354,
      "hak": 3355,
      "Ġfisika": 3356,
      "Ġmengeluarkan": 3357,
      "urat": 3358,
      "Ġjaya": 3359,
      "Ġbergerak": 3360,
      "kl": 3361,
      "Ġnamanya": 3362,
      "uncurkan": 3363,
      "ham": 3364,
      "Ġperak": 3365,
      "adah": 3366,
      "Ġmengumumkan": 3367,
      "Ġtekanan": 3368,
      "jau": 3369,
      "Ġterlibat": 3370,
      "Ġeur": 3371,
      "Ġmempertahankan": 3372,
      "mal": 3373,
      "Ġbertemu": 3374,
      "Ġdialek": 3375,
      "Ġfes": 3376,
      "okteran": 3377,
      "alitas": 3378,
      "Ġbelajar": 3379,
      "Ġ1994": 3380,
      "ukuran": 3381,
      "Ġmart": 3382,
      "Ġbermain": 3383,
      "put": 3384,
      "Ġmengirim": 3385,
      "Ġmos": 3386,
      "akili": 3387,
      "ool": 3388,
      "atasi": 3389,
      "atih": 3390,
      "Ġrasa": 3391,
      "raja": 3392,
      "Ġcharl": 3393,
      "ibusi": 3394,
      "icara": 3395,
      "Ġdikembangkan": 3396,
      "ampilkan": 3397,
      "ear": 3398,
      "Ġdiak": 3399,
      "align": 3400,
      "Ġmeraih": 3401,
      "Ġkonst": 3402,
      "Ġtiba": 3403,
      "bb": 3404,
      "Ġtok": 3405,
      "angkah": 3406,
      "Ġ188": 3407,
      "olis": 3408,
      "Ġbend": 3409,
      "Ġkedokteran": 3410,
      "Ġberjudul": 3411,
      "do": 3412,
      "Ġtam": 3413,
      "Ġterc": 3414,
      "entina": 3415,
      "Ġdana": 3416,
      "usat": 3417,
      "Ġindivid": 3418,
      "Ġdaratan": 3419,
      "akuan": 3420,
      "Ġjos": 3421,
      "Ġaktor": 3422,
      "ornia": 3423,
      "lain": 3424,
      "Ġata": 3425,
      "Ġpindah": 3426,
      "Ġsuper": 3427,
      "ontr": 3428,
      "oma": 3429,
      "Ġpertandingan": 3430,
      "Ġtep": 3431,
      "onel": 3432,
      "Ġvideo": 3433,
      "bia": 3434,
      "keb": 3435,
      "Ġkarbon": 3436,
      "Ġmenemp": 3437,
      "Ġmengalahkan": 3438,
      "impi": 3439,
      "Ġterbatas": 3440,
      "Ġred": 3441,
      "ace": 3442,
      "saat": 3443,
      "Ġmenghubungkan": 3444,
      "Ġfasilitas": 3445,
      "Ġkabar": 3446,
      "sch": 3447,
      "imen": 3448,
      "Ġ1993": 3449,
      "ner": 3450,
      "Ġnet": 3451,
      "abila": 3452,
      "Ġpertemuan": 3453,
      "Ġyud": 3454,
      "beberapa": 3455,
      "Ġmerujuk": 3456,
      "Ġmenggambarkan": 3457,
      "dem": 3458,
      "zh": 3459,
      "Ġsamud": 3460,
      "elajari": 3461,
      "||": 3462,
      "alian": 3463,
      "Ġprop": 3464,
      "Ġseder": 3465,
      "lan": 3466,
      "Ġbiaya": 3467,
      "Ġadministratif": 3468,
      "alifornia": 3469,
      "uga": 3470,
      "Ġamb": 3471,
      "Ġfer": 3472,
      "Ġvok": 3473,
      "Ġ1992": 3474,
      "70": 3475,
      "Ġ$": 3476,
      "onis": 3477,
      "ayakan": 3478,
      "Ġterlalu": 3479,
      "Ġangin": 3480,
      "Ġip": 3481,
      "Ġmengadakan": 3482,
      "Ġkemenangan": 3483,
      "empatkan": 3484,
      "Ġkelahiran": 3485,
      "Ġpesisir": 3486,
      "Ġ+": 3487,
      "Ġki": 3488,
      "Ġmerasa": 3489,
      "pemerint": 3490,
      "Ġpotensi": 3491,
      "tv": 3492,
      "Ġintel": 3493,
      "angat": 3494,
      "Ġmenurun": 3495,
      "Ġ2017": 3496,
      "Ġdiikuti": 3497,
      "tris": 3498,
      "engkap": 3499,
      "Ġdihasilkan": 3500,
      "Ġpermainan": 3501,
      "%,": 3502,
      "pek": 3503,
      "ahit": 3504,
      "Ġroh": 3505,
      "iro": 3506,
      "ilu": 3507,
      "Ġpengel": 3508,
      "krip": 3509,
      "film": 3510,
      "form": 3511,
      "Ġarea": 3512,
      "Ġkorban": 3513,
      "Ġpemberontakan": 3514,
      "gerakan": 3515,
      "Ġpercaya": 3516,
      "Ġmenjelaskan": 3517,
      "oli": 3518,
      "Ġberjalan": 3519,
      "Ġcer": 3520,
      "Ġmenyediakan": 3521,
      "indahkan": 3522,
      "impan": 3523,
      "Ġ1950": 3524,
      "Ġmanajemen": 3525,
      "amaian": 3526,
      "ambat": 3527,
      "Ġkanada": 3528,
      "bud": 3529,
      "inal": 3530,
      "Ġgagal": 3531,
      "Ġujung": 3532,
      "lir": 3533,
      "Ġsimbol": 3534,
      "Ġmenyerang": 3535,
      "ling": 3536,
      "elar": 3537,
      "okok": 3538,
      "Ġgajah": 3539,
      "asifik": 3540,
      "sara": 3541,
      "Ġrute": 3542,
      "Ġgolongan": 3543,
      "Ġpam": 3544,
      "ester": 3545,
      "angkaian": 3546,
      "itur": 3547,
      "ganya": 3548,
      "Ġreaksi": 3549,
      "Ġregi": 3550,
      "Ġpembuatan": 3551,
      "Ġlapisan": 3552,
      "Ġpandangan": 3553,
      "okus": 3554,
      "awar": 3555,
      "angsaan": 3556,
      "yataan": 3557,
      "Ġbol": 3558,
      "Ġchrist": 3559,
      "Ġperbatasan": 3560,
      "\")": 3561,
      "Ġcalifornia": 3562,
      "Ġbertahan": 3563,
      "Ġmekan": 3564,
      "eo": 3565,
      "Ġsak": 3566,
      "Ġlanjut": 3567,
      "Ġratu": 3568,
      "den": 3569,
      "Ġahmad": 3570,
      "ometer": 3571,
      "orium": 3572,
      "enggarakan": 3573,
      "Ġreformasi": 3574,
      "omas": 3575,
      "ancang": 3576,
      "Ġpress": 3577,
      "mis": 3578,
      "Ġpangk": 3579,
      "ado": 3580,
      "imer": 3581,
      "Ġbrasil": 3582,
      "Ġpejabat": 3583,
      "Ġtulisan": 3584,
      "Ġpd": 3585,
      "atat": 3586,
      "apor": 3587,
      "Ġmerek": 3588,
      "Ġjur": 3589,
      "rid": 3590,
      "Ġpengan": 3591,
      "ujukan": 3592,
      "Ġdahulu": 3593,
      "35": 3594,
      "Ġall": 3595,
      "Ġbelas": 3596,
      "Ġgro": 3597,
      "tival": 3598,
      "uy": 3599,
      "sebagai": 3600,
      "lawan": 3601,
      "Ġcinta": 3602,
      "Ġkeker": 3603,
      "Ġiv": 3604,
      "adiyah": 3605,
      "Ġdesain": 3606,
      "ege": 3607,
      "ford": 3608,
      "Ġbangk": 3609,
      "Ġmengurangi": 3610,
      "ewati": 3611,
      "Ġprotein": 3612,
      "Ġprofesi": 3613,
      "Ġdemokrat": 3614,
      "lag": 3615,
      "Ġday": 3616,
      "Ġmenentukan": 3617,
      "utuhan": 3618,
      "Ġfinal": 3619,
      "ect": 3620,
      "Ġmeski": 3621,
      "bau": 3622,
      "selain": 3623,
      "78": 3624,
      "Ġnik": 3625,
      "Ġfilsafat": 3626,
      "Ġtangga": 3627,
      "akkan": 3628,
      "omos": 3629,
      "egori": 3630,
      "Ġnaskah": 3631,
      "rain": 3632,
      "ito": 3633,
      "Ġmenyelesaikan": 3634,
      "Ġpendapatan": 3635,
      "Ġdav": 3636,
      "Ġberbasis": 3637,
      "Ġulama": 3638,
      "Ġni": 3639,
      "Ġfaktor": 3640,
      "Ġataupun": 3641,
      "cayaan": 3642,
      "peny": 3643,
      "aga": 3644,
      "ington": 3645,
      "Ġpolit": 3646,
      "nik": 3647,
      "irian": 3648,
      "Ġsekret": 3649,
      "Ġsign": 3650,
      "pemb": 3651,
      "uel": 3652,
      "ormatan": 3653,
      "Ġapabila": 3654,
      "Ġdiny": 3655,
      "Ġiklim": 3656,
      "Ġportugis": 3657,
      "bangsa": 3658,
      "der": 3659,
      "eph": 3660,
      "Ġlel": 3661,
      "abet": 3662,
      "Ġditerima": 3663,
      "ajukan": 3664,
      "Ġstar": 3665,
      "unjungi": 3666,
      "Ġkecuali": 3667,
      "ement": 3668,
      "faatkan": 3669,
      "mo": 3670,
      "Ġtew": 3671,
      "iksi": 3672,
      "entasi": 3673,
      "Ġsaling": 3674,
      "Ġilmiah": 3675,
      "Ġterpisah": 3676,
      "Ġlin": 3677,
      "Ġberoperasi": 3678,
      "egah": 3679,
      "atangani": 3680,
      "ren": 3681,
      "awal": 3682,
      "iyah": 3683,
      "Ġpekerja": 3684,
      "Ġmelayani": 3685,
      "esai": 3686,
      "Ġpolandia": 3687,
      "Ġ1989": 3688,
      "Ġpelayanan": 3689,
      "Ġkendaraan": 3690,
      "Ġanj": 3691,
      "Ġcap": 3692,
      "Ġmembunuh": 3693,
      "uduki": 3694,
      "Ġterbagi": 3695,
      "catat": 3696,
      "orge": 3697,
      "Ġnit": 3698,
      "Ġdimiliki": 3699,
      "Ġuskup": 3700,
      "Ġartinya": 3701,
      "ato": 3702,
      "Ġ31": 3703,
      "Ġmalang": 3704,
      "Ġmi": 3705,
      "Ġmisi": 3706,
      "Ġpint": 3707,
      "Ġkub": 3708,
      "Ġkew": 3709,
      "Ġmark": 3710,
      "Ġbenua": 3711,
      "Ġbog": 3712,
      "gaw": 3713,
      "Ġvirus": 3714,
      "Ġhadi": 3715,
      "Ġpendapat": 3716,
      "Ġsalat": 3717,
      "Ġcharles": 3718,
      "eing": 3719,
      "Ġmajelis": 3720,
      "Ġsitu": 3721,
      "Ġkeberadaan": 3722,
      "amkan": 3723,
      "Ġpendukung": 3724,
      "Ġberlaku": 3725,
      "tifikasi": 3726,
      "Ġupacara": 3727,
      "tas": 3728,
      "Ġend": 3729,
      "Ġsebab": 3730,
      "imbulkan": 3731,
      "ualitas": 3732,
      "arawan": 3733,
      "Ġfilip": 3734,
      "Ġpin": 3735,
      "akah": 3736,
      "Ġsayap": 3737,
      "Ġarsitektur": 3738,
      "Ġ186": 3739,
      "Ġmenyebutkan": 3740,
      "operasikan": 3741,
      "tra": 3742,
      "anggota": 3743,
      "Ġaktris": 3744,
      "Ġphil": 3745,
      "lar": 3746,
      "vin": 3747,
      "Ġmendorong": 3748,
      "Ġunited": 3749,
      "oner": 3750,
      "Ġterjun": 3751,
      "Ġnor": 3752,
      "Ġbudak": 3753,
      "apahit": 3754,
      "tidak": 3755,
      "Ġsenyawa": 3756,
      "desa": 3757,
      "kol": 3758,
      "gag": 3759,
      "karya": 3760,
      "Ġberfungsi": 3761,
      "Ġmatematika": 3762,
      "Ġbes": 3763,
      "Ġbut": 3764,
      "gereja": 3765,
      "efinisi": 3766,
      "kal": 3767,
      "yu": 3768,
      "Ġrem": 3769,
      "ampilan": 3770,
      "Ġver": 3771,
      "Ġmuhammadiyah": 3772,
      "Ġmengakibatkan": 3773,
      "aksanaan": 3774,
      "Ġpurw": 3775,
      "Ġkanan": 3776,
      "Ġmembuka": 3777,
      "Ġoff": 3778,
      "Ġbany": 3779,
      "Ġberusia": 3780,
      "Ġcir": 3781,
      "Ġmelibatkan": 3782,
      "yarat": 3783,
      "Ġikatan": 3784,
      "bal": 3785,
      "engar": 3786,
      "Ġberagam": 3787,
      "Ġtercatat": 3788,
      "abu": 3789,
      "ogo": 3790,
      "seperti": 3791,
      "Ġinti": 3792,
      "omba": 3793,
      "Ġprinsip": 3794,
      "Ġalex": 3795,
      "Ġkebutuhan": 3796,
      "Ġtersedia": 3797,
      "anjutan": 3798,
      "36": 3799,
      "Ġmoh": 3800,
      "Ġpp": 3801,
      "Ġmencoba": 3802,
      "ows": 3803,
      "Ġstaf": 3804,
      "olong": 3805,
      "Ġkerus": 3806,
      "Ġpabrik": 3807,
      "kadang": 3808,
      "por": 3809,
      "Ġarti": 3810,
      "enj": 3811,
      "Ġht": 3812,
      "wilayah": 3813,
      "Ġnob": 3814,
      "ayan": 3815,
      "Ġbakteri": 3816,
      "Ġargentina": 3817,
      "ahu": 3818,
      "Ġaku": 3819,
      "uji": 3820,
      "Ġlunak": 3821,
      "Ġdj": 3822,
      "Ġdet": 3823,
      "Ġperintah": 3824,
      "ingkan": 3825,
      "Ġmenguasai": 3826,
      "Ġdimana": 3827,
      "Ġcollege": 3828,
      "Ġkompet": 3829,
      "Ġjamb": 3830,
      "aju": 3831,
      "etan": 3832,
      "Ġmemang": 3833,
      "Ġmelanjutkan": 3834,
      "igrasi": 3835,
      "anji": 3836,
      "secara": 3837,
      "impiade": 3838,
      "Ġsederhana": 3839,
      "arikan": 3840,
      "Ġkod": 3841,
      "ancurkan": 3842,
      "Ġkarier": 3843,
      "mon": 3844,
      "ÙĦ": 3845,
      "ular": 3846,
      "Ġmerd": 3847,
      "Ġkapas": 3848,
      "Ġrp": 3849,
      "Ġcan": 3850,
      "86": 3851,
      "Ġpec": 3852,
      "Ġsatelit": 3853,
      "Ġpajak": 3854,
      "okasi": 3855,
      "ive": 3856,
      "Ġtrop": 3857,
      "Ġinternet": 3858,
      "Ġurutan": 3859,
      "Ġsudut": 3860,
      "Ġdiam": 3861,
      "eku": 3862,
      "line": 3863,
      "Ġlewat": 3864,
      "Ġmenyer": 3865,
      "Ġpendiri": 3866,
      "Ġsoekar": 3867,
      "Ġmajalah": 3868,
      "Ġyo": 3869,
      "orit": 3870,
      "iau": 3871,
      "Ġram": 3872,
      "Ġberpendapat": 3873,
      "sy": 3874,
      "Ġdian": 3875,
      "Ġtewas": 3876,
      "ings": 3877,
      "Ġibnu": 3878,
      "Ġmajapahit": 3879,
      "Ġwind": 3880,
      "Ġpemilu": 3881,
      "Ġmemasuki": 3882,
      "umsi": 3883,
      "sejak": 3884,
      "Ġfederal": 3885,
      "aporkan": 3886,
      "ajur": 3887,
      "Ġkarang": 3888,
      "Ġdilihat": 3889,
      "Ġtipe": 3890,
      "las": 3891,
      "Ġsay": 3892,
      "Ġkristus": 3893,
      "Ġlintas": 3894,
      "unjung": 3895,
      "Ġkepercayaan": 3896,
      "Ġmam": 3897,
      "atorium": 3898,
      "indungi": 3899,
      "Ġsetempat": 3900,
      "Ġmurid": 3901,
      "Ġfestival": 3902,
      "//": 3903,
      "90": 3904,
      "Ġkiri": 3905,
      "ukiman": 3906,
      "imal": 3907,
      "Ġnuklir": 3908,
      "tek": 3909,
      "Ġselesai": 3910,
      "Ġkolonial": 3911,
      "nia": 3912,
      "sual": 3913,
      "Ġindividu": 3914,
      "Ġmerdeka": 3915,
      "Ġsoeh": 3916,
      "Ġ60": 3917,
      "Ġdigantikan": 3918,
      "Ġirlandia": 3919,
      "Ġpariwisata": 3920,
      "Ġcil": 3921,
      "Ġmemenuhi": 3922,
      "br": 3923,
      "Ġpul": 3924,
      "isten": 3925,
      "Ġdiperlukan": 3926,
      "Ġdisebutkan": 3927,
      "aitan": 3928,
      "masa": 3929,
      "Ġnusantara": 3930,
      ".)": 3931,
      "ero": 3932,
      "Ġjangka": 3933,
      "Ġmakam": 3934,
      "qur": 3935,
      "Ġtang": 3936,
      "Ġsesuatu": 3937,
      "Ġpertamanya": 3938,
      "rav": 3939,
      "estina": 3940,
      "sun": 3941,
      "isikan": 3942,
      "ukti": 3943,
      "use": 3944,
      "politik": 3945,
      "eria": 3946,
      "Ġsya": 3947,
      "atus": 3948,
      "Ġtumbuhan": 3949,
      "ampak": 3950,
      "Ġpersatuan": 3951,
      "Ġkomponen": 3952,
      "lus": 3953,
      "Ġdibuka": 3954,
      "Ġdirektur": 3955,
      "Ġkalinya": 3956,
      "Ġperdamaian": 3957,
      "geografi": 3958,
      "ny": 3959,
      "Ġwali": 3960,
      "Ġsetengah": 3961,
      "Ġkonflik": 3962,
      "adinya": 3963,
      "ustakaan": 3964,
      "Ġprasasti": 3965,
      "Ġimp": 3966,
      "aru": 3967,
      "alih": 3968,
      "Ġcit": 3969,
      "Ġgad": 3970,
      "Ġaksara": 3971,
      "Ġkehilangan": 3972,
      "Ġmenghadapi": 3973,
      "Ġberperan": 3974,
      "eld": 3975,
      "Ġrasi": 3976,
      "Ġsebagaimana": 3977,
      "Ġmelewati": 3978,
      "Ġalih": 3979,
      "Ġditand": 3980,
      "Ġmc": 3981,
      "Ġkomersial": 3982,
      "Ġklasik": 3983,
      "ulah": 3984,
      "Ġarus": 3985,
      "Ġkonv": 3986,
      "Ġsurya": 3987,
      "49": 3988,
      "pu": 3989,
      "ale": 3990,
      "Ġhungaria": 3991,
      "hailand": 3992,
      "tik": 3993,
      "Ġkami": 3994,
      "agang": 3995,
      "Ġpengguna": 3996,
      "air": 3997,
      "Ġatm": 3998,
      "unjukan": 3999,
      "://": 4000,
      "Ġnorm": 4001,
      "Ġstadi": 4002,
      "Ġsehari": 4003,
      "osiasi": 4004,
      "Ġmacam": 4005,
      "lis": 4006,
      "ood": 4007,
      "Ġwah": 4008,
      "span": 4009,
      "sman": 4010,
      "arai": 4011,
      "acu": 4012,
      "Ġjames": 4013,
      "ye": 4014,
      "Ġcender": 4015,
      "entitas": 4016,
      "Ġsma": 4017,
      "eder": 4018,
      "entikan": 4019,
      "Ġpanglima": 4020,
      "Ġhidrogen": 4021,
      "33": 4022,
      "Ġsulit": 4023,
      "ys": 4024,
      "Ġpria": 4025,
      "Ġdikatakan": 4026,
      "Ġeksek": 4027,
      "ukur": 4028,
      "Ġhen": 4029,
      "menia": 4030,
      "text": 4031,
      "usnya": 4032,
      "Ġmenetapkan": 4033,
      "ole": 4034,
      "Ġav": 4035,
      "daerah": 4036,
      "Ġlampung": 4037,
      "Ġistri": 4038,
      "Ġjag": 4039,
      "Ġditunjuk": 4040,
      "row": 4041,
      "Ġsid": 4042,
      "empatan": 4043,
      "Ġstabil": 4044,
      "urang": 4045,
      "egal": 4046,
      "antas": 4047,
      "ations": 4048,
      "Ġort": 4049,
      "Ġpaul": 4050,
      "Ġsukses": 4051,
      "Ġhat": 4052,
      "ualan": 4053,
      "ille": 4054,
      "Ġberhubungan": 4055,
      "Ġalami": 4056,
      "osaurus": 4057,
      "Ġdev": 4058,
      "Ġtertua": 4059,
      "iner": 4060,
      "Ġsemarang": 4061,
      "Ġhijau": 4062,
      "Ġsemp": 4063,
      "Ġtik": 4064,
      "Ġteks": 4065,
      "enakan": 4066,
      "esif": 4067,
      "Ġsebutan": 4068,
      "Ġpenduduknya": 4069,
      "Ġsoeharto": 4070,
      "luas": 4071,
      "Ġtari": 4072,
      "Ġlengkap": 4073,
      "Ġrob": 4074,
      "ingatan": 4075,
      "ras": 4076,
      "inf": 4077,
      "Ġins": 4078,
      "berg": 4079,
      "obatan": 4080,
      "Ġbad": 4081,
      "Ġgab": 4082,
      "mel": 4083,
      "ume": 4084,
      "Ġbagaimana": 4085,
      "Ġsumatra": 4086,
      "Ġhotel": 4087,
      "Ġaset": 4088,
      "berd": 4089,
      "iskan": 4090,
      "ambut": 4091,
      "Ġbenteng": 4092,
      "Ġberc": 4093,
      "Ġmengatur": 4094,
      "Ġberkaitan": 4095,
      "ografis": 4096,
      "46": 4097,
      "ple": 4098,
      "Ġkir": 4099,
      "Ġberbahasa": 4100,
      "tempat": 4101,
      "Ġpanc": 4102,
      "ukt": 4103,
      "Ġjul": 4104,
      "Ġfat": 4105,
      "Ġsanto": 4106,
      "Ġsignif": 4107,
      "itor": 4108,
      "Ġpenemuan": 4109,
      "Ġpark": 4110,
      "Ġindah": 4111,
      "Ġsepen": 4112,
      "Ġkongres": 4113,
      "Ġperal": 4114,
      "Ġciri": 4115,
      "abad": 4116,
      "Ġkomite": 4117,
      "Ġfrom": 4118,
      "Ġkursi": 4119,
      "Ġgeorge": 4120,
      "Ġinstitut": 4121,
      "Ġpartikel": 4122,
      "56": 4123,
      "isl": 4124,
      "esta": 4125,
      "Ġass": 4126,
      "Ġolimpiade": 4127,
      "Ġfilipina": 4128,
      "Ġdiubah": 4129,
      "Ġarmenia": 4130,
      "chi": 4131,
      "engkapi": 4132,
      "Ġdigital": 4133,
      "Ġinjil": 4134,
      "caya": 4135,
      "utif": 4136,
      "Ġtahu": 4137,
      "orth": 4138,
      "peristiwa": 4139,
      "Ġhistory": 4140,
      "38": 4141,
      "hasil": 4142,
      "meng": 4143,
      "Ġpil": 4144,
      "arak": 4145,
      "Ġthailand": 4146,
      "Ġmenimbulkan": 4147,
      "ekonom": 4148,
      "Ġven": 4149,
      "Ġtiap": 4150,
      "bai": 4151,
      "Ġnar": 4152,
      "ebunan": 4153,
      "Ġkampus": 4154,
      "Ġrobert": 4155,
      "Ġkudus": 4156,
      "eritakan": 4157,
      "yon": 4158,
      "Ġlub": 4159,
      "Ġwat": 4160,
      "ambahkan": 4161,
      "Ġpaulus": 4162,
      "Ġlo": 4163,
      "sebar": 4164,
      "Ġvis": 4165,
      "Ġmempelajari": 4166,
      "Ġamerican": 4167,
      "Ġperkebunan": 4168,
      "sumber": 4169,
      "Ġ1987": 4170,
      "2005": 4171,
      "Ġsignifikan": 4172,
      "Ġmont": 4173,
      "Ġdiant": 4174,
      "Ġrec": 4175,
      "Ġmemer": 4176,
      "Ġpasangan": 4177,
      "Ġsekitarnya": 4178,
      "nas": 4179,
      "erto": 4180,
      "Ġbh": 4181,
      "Ġbu": 4182,
      "ainya": 4183,
      "Ġdaun": 4184,
      "lu": 4185,
      "Ġinilah": 4186,
      "Ġseluas": 4187,
      "Ġ2022": 4188,
      "Ġ80": 4189,
      "Ġcampuran": 4190,
      "Ġbata": 4191,
      "Ġbilangan": 4192,
      "Ġpasir": 4193,
      "Ġboeing": 4194,
      "Ġpbb": 4195,
      "Ġfar": 4196,
      "Ġtuan": 4197,
      "Ġpenjualan": 4198,
      "ze": 4199,
      "Ġsom": 4200,
      "Ġkn": 4201,
      "Ġtersebar": 4202,
      "Ġgraf": 4203,
      "Ġmembutuhkan": 4204,
      "Ġzhou": 4205,
      "Ġ70": 4206,
      "Ġmewakili": 4207,
      "Ġarmada": 4208,
      "Ġsoci": 4209,
      "Ġgagasan": 4210,
      "Ġteb": 4211,
      "Ġnobel": 4212,
      "Ġsoekarno": 4213,
      "Ġbrig": 4214,
      "Ġmenara": 4215,
      "epend": 4216,
      "Ġketidak": 4217,
      "Ġmusa": 4218,
      "Ġpetani": 4219,
      "32": 4220,
      "pp": 4221,
      "ander": 4222,
      "tic": 4223,
      "onstr": 4224,
      "Ġnovel": 4225,
      "ure": 4226,
      "Ġpembalap": 4227,
      "39": 4228,
      "bu": 4229,
      "Ġmong": 4230,
      "Ġperingatan": 4231,
      "Ġfos": 4232,
      "Ġpalestina": 4233,
      "Ġmengakui": 4234,
      "jem": 4235,
      "inci": 4236,
      "anye": 4237,
      "Ġtor": 4238,
      "Ġ1965": 4239,
      "Ġmenjalankan": 4240,
      "Ġbogor": 4241,
      "Ġgem": 4242,
      "Ġbalik": 4243,
      "Ġpahlawan": 4244,
      "Ġkejadian": 4245,
      "Ġhitler": 4246,
      "pendidikan": 4247,
      "Ġdaging": 4248,
      "rum": 4249,
      "alo": 4250,
      "Ġstalin": 4251,
      "Ġbertanggung": 4252,
      "imewa": 4253,
      "31": 4254,
      "Ġpid": 4255,
      "sebelum": 4256,
      "Ġ1986": 4257,
      "que": 4258,
      "Ġkuning": 4259,
      "kap": 4260,
      "hael": 4261,
      "Ġpingg": 4262,
      "Ġnasi": 4263,
      "Ġmeman": 4264,
      "Ġmengetahui": 4265,
      "Ġgenerasi": 4266,
      "Ġkomando": 4267,
      "Ġec": 4268,
      "aram": 4269,
      "Ġlaw": 4270,
      "usul": 4271,
      "Ġkebebasan": 4272,
      "Ġayat": 4273,
      "Ġfot": 4274,
      "Ġberkel": 4275,
      "Ġsamping": 4276,
      "yakini": 4277,
      "Ġartikel": 4278,
      "Ġobat": 4279,
      "Ġurusan": 4280,
      "ohanes": 4281,
      "mm": 4282,
      "Ġlu": 4283,
      "Ġsejarawan": 4284,
      "Ġrow": 4285,
      "Ġgand": 4286,
      "Ġvi": 4287,
      "indungan": 4288,
      "Ġcontohnya": 4289,
      "Ġkonferensi": 4290,
      "75": 4291,
      "Ġ1988": 4292,
      "izinkan": 4293,
      "aton": 4294,
      "Ġgroup": 4295,
      "enjata": 4296,
      "Ġpor": 4297,
      "Ġhip": 4298,
      "Ġlebar": 4299,
      "Ġlabor": 4300,
      "bang": 4301,
      "unuhan": 4302,
      "Ġfen": 4303,
      "Ġortod": 4304,
      "Ġpuluh": 4305,
      "taan": 4306,
      "impunan": 4307,
      "imbangan": 4308,
      "Ġdinyatakan": 4309,
      "Ġpintu": 4310,
      "jak": 4311,
      "top": 4312,
      "Ġpadang": 4313,
      "Ġpersi": 4314,
      "Ġtahap": 4315,
      "entingan": 4316,
      "Ġdiproduksi": 4317,
      "Ġburuh": 4318,
      "aliknya": 4319,
      "Ġmerebut": 4320,
      "Ġkering": 4321,
      "Ġilmuwan": 4322,
      "col": 4323,
      "esm": 4324,
      "Ġdipl": 4325,
      "Ġchina": 4326,
      "Ġ1984": 4327,
      "Ġcenderung": 4328,
      "Ġmenampilkan": 4329,
      "Ġdelapan": 4330,
      "Ġdavid": 4331,
      "itis": 4332,
      "Ġinstr": 4333,
      "perusahaan": 4334,
      "Ġdemi": 4335,
      "Ġcurah": 4336,
      "Ġhadiah": 4337,
      "uma": 4338,
      "Ġiz": 4339,
      "Ġdilaksanakan": 4340,
      "Ġcomm": 4341,
      "Ġmemakai": 4342,
      "Ġdemokrasi": 4343,
      "Ġkekerasan": 4344,
      "Ġbor": 4345,
      "Ġaksi": 4346,
      "Ġdikar": 4347,
      "indonesia": 4348,
      "Ġsepuluh": 4349,
      "Ġsarjana": 4350,
      "Ġsini": 4351,
      "Ġnag": 4352,
      "epon": 4353,
      "oth": 4354,
      "%),": 4355,
      "Ġmund": 4356,
      "ory": 4357,
      "igh": 4358,
      "Ġ1985": 4359,
      "Ġsaluran": 4360,
      "Ġprodus": 4361,
      "Ġtri": 4362,
      "Ġraj": 4363,
      "Ġperjuangan": 4364,
      "Ġtaiwan": 4365,
      "ekonomian": 4366,
      "met": 4367,
      "Ġkaya": 4368,
      "adat": 4369,
      "ile": 4370,
      "Ġmemegang": 4371,
      "Ġmembeli": 4372,
      "Ġbersenjata": 4373,
      "enaran": 4374,
      "Ġkategori": 4375,
      "mur": 4376,
      "ound": 4377,
      "Ġpemikiran": 4378,
      "Ġutsman": 4379,
      "eft": 4380,
      "Ġtampil": 4381,
      "we": 4382,
      "Ġtid": 4383,
      "Ġnur": 4384,
      "Ġwe": 4385,
      "Ġwith": 4386,
      "zah": 4387,
      "Ġgeorg": 4388,
      "Ġdita": 4389,
      "ullah": 4390,
      "red": 4391,
      "akaran": 4392,
      "Ġlangkah": 4393,
      "Ġhulu": 4394,
      "erusalem": 4395,
      "Ġsamudra": 4396,
      "34": 4397,
      "Ġinduk": 4398,
      "Ġpasal": 4399,
      "Ġkejuaraan": 4400,
      "Ġdiantaranya": 4401,
      "atnya": 4402,
      "Ġbanten": 4403,
      "kelahiran": 4404,
      "vent": 4405,
      "Ġmenit": 4406,
      "Ġhilang": 4407,
      "Ġwh": 4408,
      "egoro": 4409,
      "Ġmut": 4410,
      "Ġkomisi": 4411,
      "Ġsekretaris": 4412,
      "airan": 4413,
      "Ġmenekan": 4414,
      "Ġjarang": 4415,
      "Ġindepend": 4416,
      "Ġtampak": 4417,
      "Ġpemilik": 4418,
      "ashington": 4419,
      "val": 4420,
      "Ġhib": 4421,
      "Ġroy": 4422,
      "Ġsekutu": 4423,
      "Ġtimor": 4424,
      "Ġmaria": 4425,
      "Ġmencegah": 4426,
      "az": 4427,
      "Ġdna": 4428,
      "Ġmy": 4429,
      "Ġhong": 4430,
      "ins": 4431,
      "ise": 4432,
      "Ġmenjaga": 4433,
      "Ġpola": 4434,
      "Ġdipert": 4435,
      "Ġmaju": 4436,
      "ĠÂ": 4437,
      "Ġkuda": 4438,
      "orejo": 4439,
      "Ġmenerb": 4440,
      "Ġdisney": 4441,
      "Ġsensus": 4442,
      "Ġraden": 4443,
      "Ġpraktik": 4444,
      "ath": 4445,
      "Ġperhatian": 4446,
      "Ġkilometer": 4447,
      "jenis": 4448,
      "adu": 4449,
      "Ġyohanes": 4450,
      "Ġperpustakaan": 4451,
      "42": 4452,
      "variasi": 4453,
      "olar": 4454,
      "Ġanalisis": 4455,
      "Ġdipengaruhi": 4456,
      "Ġangkasa": 4457,
      "Ġiman": 4458,
      "agamaan": 4459,
      "get": 4460,
      "po": 4461,
      "Ġtun": 4462,
      "Ġburuk": 4463,
      "ius": 4464,
      "elih": 4465,
      "ikahan": 4466,
      "uto": 4467,
      "Ġaplikasi": 4468,
      "Ġkuil": 4469,
      "Ġzona": 4470,
      "2004": 4471,
      "Ġbalapan": 4472,
      "77": 4473,
      "Ġviet": 4474,
      "Ġthomas": 4475,
      "Ġdenmark": 4476,
      "ajurit": 4477,
      "wang": 4478,
      "Ġpust": 4479,
      "Ġtokyo": 4480,
      "Ġprofesional": 4481,
      "Ġpir": 4482,
      "Ġpakaian": 4483,
      "Ġdiw": 4484,
      "Ġdihar": 4485,
      "Ġpernikahan": 4486,
      "Ġkomandan": 4487,
      "Ġsebaliknya": 4488,
      "Ġfrank": 4489,
      "Ġperlindungan": 4490,
      "Ġpadat": 4491,
      "Ġrasul": 4492,
      "Ġpangkalan": 4493,
      "komp": 4494,
      "Ġ500": 4495,
      "untungan": 4496,
      "Ġlegisl": 4497,
      "tah": 4498,
      "Ġmendek": 4499,
      "kelurahan": 4500,
      "ampaikan": 4501,
      "Ġub": 4502,
      "Ġjudul": 4503,
      "Ġâ": 4504,
      "Ġlas": 4505,
      "Ġvoc": 4506,
      "ology": 4507,
      "aptis": 4508,
      "Ġdewasa": 4509,
      "ekuensi": 4510,
      "Ġstadion": 4511,
      "Ġdefinisi": 4512,
      "Ġpon": 4513,
      "Ġdikirim": 4514,
      "Ġ35": 4515,
      "Ġpelaksanaan": 4516,
      "Ġflu": 4517,
      "jalan": 4518,
      "urangan": 4519,
      "Ġpergerakan": 4520,
      "Ġfre": 4521,
      "Ġdinamakan": 4522,
      "Ġdibawa": 4523,
      "iam": 4524,
      "adar": 4525,
      "Ġrich": 4526,
      "Ġlangit": 4527,
      "berdasarkan": 4528,
      "2000": 4529,
      "inter": 4530,
      "asari": 4531,
      "unikasi": 4532,
      "Ġyerusalem": 4533,
      "Ġkeagamaan": 4534,
      "awatan": 4535,
      "ujui": 4536,
      "Ġswedia": 4537,
      "Ġdikeluarkan": 4538,
      "ion": 4539,
      "Ġnot": 4540,
      "asaan": 4541,
      "ajah": 4542,
      "opsi": 4543,
      "Ġberkata": 4544,
      "Ġdiakui": 4545,
      "Ġaer": 4546,
      "Ġpembunuhan": 4547,
      "Ġkesatuan": 4548,
      "Ġharry": 4549,
      "Ġdekade": 4550,
      "zhab": 4551,
      "Ġeksekutif": 4552,
      "ll": 4553,
      "erk": 4554,
      "Ġtal": 4555,
      "Ġpermin": 4556,
      "irinya": 4557,
      "Ġnap": 4558,
      "Ġserupa": 4559,
      "ove": 4560,
      "Ġsarana": 4561,
      "Ġawards": 4562,
      "Ġstrateg": 4563,
      "Ġatmosfer": 4564,
      "suku": 4565,
      "Ġpubl": 4566,
      "Ġkalah": 4567,
      "Ġtapi": 4568,
      "etujui": 4569,
      "ehi": 4570,
      "Ġkepentingan": 4571,
      "Ġaturan": 4572,
      "ower": 4573,
      "ition": 4574,
      "berikut": 4575,
      "Ġmenduduki": 4576,
      "Ġkehormatan": 4577,
      "way": 4578,
      "Ġrump": 4579,
      "Ġdidukung": 4580,
      "efinisikan": 4581,
      "irah": 4582,
      "Ġteman": 4583,
      "79": 4584,
      "arki": 4585,
      "Ġyay": 4586,
      "Ġmenentang": 4587,
      "etri": 4588,
      "ambangkan": 4589,
      "Ġterbuat": 4590,
      "Ġpersia": 4591,
      "ijing": 4592,
      "ondok": 4593,
      "Ġnazi": 4594,
      "Ġtahunan": 4595,
      "itual": 4596,
      "Ġhukuman": 4597,
      "Ġregional": 4598,
      "ano": 4599,
      "urt": 4600,
      "Ġmarx": 4601,
      "Ġpustaka": 4602,
      "tel": 4603,
      "elan": 4604,
      "Ġmengal": 4605,
      "Ġselat": 4606,
      "Ġapakah": 4607,
      "Ġinform": 4608,
      "entrasi": 4609,
      "bus": 4610,
      "Ġkamb": 4611,
      "Ġbaw": 4612,
      "sip": 4613,
      "Ġibunya": 4614,
      "Ġortodoks": 4615,
      "kon": 4616,
      "Ġsimp": 4617,
      "Ġion": 4618,
      "organisasi": 4619,
      "Ġbon": 4620,
      "Ġrock": 4621,
      "Ġsinar": 4622,
      "Ġcalon": 4623,
      "old": 4624,
      "Ġterm": 4625,
      "Ġdomest": 4626,
      "Ġinvestasi": 4627,
      "Ġsemenanjung": 4628,
      "ico": 4629,
      "Ġkepadatan": 4630,
      "500": 4631,
      "Ġboleh": 4632,
      "une": 4633,
      "gainya": 4634,
      "Ġwashington": 4635,
      "Ġkris": 4636,
      "44": 4637,
      "Ġpeta": 4638,
      "inus": 4639,
      "Ġbangs": 4640,
      "76": 4641,
      "zo": 4642,
      "Ġest": 4643,
      "Ġkoord": 4644,
      "yn": 4645,
      "illa": 4646,
      "Ġhend": 4647,
      "Ġgus": 4648,
      "Ġsouth": 4649,
      "lagu": 4650,
      "Ġpadi": 4651,
      "Ġpilihan": 4652,
      "ikir": 4653,
      "esia": 4654,
      "Ġzat": 4655,
      "Ġorganisme": 4656,
      "Ġdokter": 4657,
      "Ġschool": 4658,
      "sky": 4659,
      "Ġbabak": 4660,
      "Ġrib": 4661,
      "ejarah": 4662,
      "Ġpositif": 4663,
      "Ġmemproduksi": 4664,
      "rani": 4665,
      "Ġkualitas": 4666,
      "idah": 4667,
      "Ġberkuasa": 4668,
      "stem": 4669,
      "ilingi": 4670,
      "Ġsepenuhnya": 4671,
      "ahami": 4672,
      "ire": 4673,
      "Ġcenter": 4674,
      "Ġtepi": 4675,
      "Ġdon": 4676,
      "erj": 4677,
      "ajuan": 4678,
      "odi": 4679,
      "Ġakademi": 4680,
      "kons": 4681,
      "uturkan": 4682,
      "Ġcoc": 4683,
      "Ġbersamaan": 4684,
      "Ġperwira": 4685,
      "Ġcount": 4686,
      "Ġkopi": 4687,
      "55": 4688,
      "tle": 4689,
      "identifikasi": 4690,
      "kat": 4691,
      "Ġkelapa": 4692,
      "Ġ1974": 4693,
      "kannya": 4694,
      "jaga": 4695,
      "Ġberbicara": 4696,
      "ifa": 4697,
      "Ġdiperoleh": 4698,
      "Ġ1979": 4699,
      "Ġ1948": 4700,
      "Ġsolo": 4701,
      "hu": 4702,
      "are": 4703,
      "Ġbuatan": 4704,
      "elang": 4705,
      "Ġrud": 4706,
      "angkut": 4707,
      "ambangan": 4708,
      "Ġmencatat": 4709,
      "Ġsosialis": 4710,
      "nan": 4711,
      "Ġbervariasi": 4712,
      "Ġmengus": 4713,
      "Ġatl": 4714,
      "Ġsaint": 4715,
      "aul": 4716,
      "Ġlip": 4717,
      "irasi": 4718,
      "Ġpemuda": 4719,
      "Ġditentukan": 4720,
      "Ġ1962": 4721,
      "pemerintahan": 4722,
      "imum": 4723,
      "indahan": 4724,
      "Ġ1978": 4725,
      "Ġhadis": 4726,
      "ics": 4727,
      "Ġ1975": 4728,
      "anker": 4729,
      "bc": 4730,
      "Ġpant": 4731,
      "Ġseiring": 4732,
      "tab": 4733,
      "ajian": 4734,
      "Ġanjing": 4735,
      "left": 4736,
      "pas": 4737,
      "enian": 4738,
      "Ġfac": 4739,
      "Ġpemr": 4740,
      "Ġmelaksanakan": 4741,
      "Ġsemuanya": 4742,
      "Ġdibunuh": 4743,
      "Ġpernyataan": 4744,
      "Ġvietnam": 4745,
      "96": 4746,
      "Ġbani": 4747,
      "ukai": 4748,
      "Ġcad": 4749,
      "Ġcina": 4750,
      "Ġprajurit": 4751,
      "Ġbertugas": 4752,
      "Ġmenempati": 4753,
      "win": 4754,
      "Ġswiss": 4755,
      "araja": 4756,
      "Ġmakna": 4757,
      "Ġsong": 4758,
      "Ġty": 4759,
      "ilaku": 4760,
      "Ġwir": 4761,
      "Ġmenjual": 4762,
      "Ġdiser": 4763,
      "Ġterbanyak": 4764,
      "Ġbrah": 4765,
      "Ġmetrop": 4766,
      "Ġperalatan": 4767,
      "Ġwaf": 4768,
      "Ġkalender": 4769,
      "Ġ1973": 4770,
      "Ġmemerintahkan": 4771,
      "Ġkompetisi": 4772,
      "Ġmr": 4773,
      "Ġmaks": 4774,
      "Ġteh": 4775,
      "unsur": 4776,
      "eliti": 4777,
      "upsi": 4778,
      "umpulkan": 4779,
      "Ġ1983": 4780,
      "Ġ90": 4781,
      "karena": 4782,
      "kira": 4783,
      "yanya": 4784,
      "Ġdeb": 4785,
      "Ġkanker": 4786,
      "Ġtaj": 4787,
      "Ġletak": 4788,
      "Ġmemainkan": 4789,
      "Ġdalamnya": 4790,
      "Ġakses": 4791,
      "alau": 4792,
      "Ġ1981": 4793,
      "Ġ1982": 4794,
      "Ġpedagang": 4795,
      "Ġefektif": 4796,
      "Ġsec": 4797,
      "Ġlepas": 4798,
      "Ġmenaw": 4799,
      "Ġmaluku": 4800,
      "olitan": 4801,
      "Ġaman": 4802,
      "Ġtergantung": 4803,
      "lahir": 4804,
      "Ġyayasan": 4805,
      "isk": 4806,
      "Ġwid": 4807,
      "Ġutamanya": 4808,
      "Ġtelepon": 4809,
      "urnal": 4810,
      "Ġmemperkenalkan": 4811,
      "Ġvokal": 4812,
      "Ġjurusan": 4813,
      "Ġtropis": 4814,
      "mu": 4815,
      "onegoro": 4816,
      "Ġrot": 4817,
      "adai": 4818,
      "Ġcek": 4819,
      "ajat": 4820,
      "Ġlayar": 4821,
      "Ð¸": 4822,
      "enan": 4823,
      "itz": 4824,
      "Ġasasi": 4825,
      "Ġchamp": 4826,
      "Ġharapan": 4827,
      "utar": 4828,
      "Ġmundur": 4829,
      "ĠÎ": 4830,
      "Ġsci": 4831,
      "orasi": 4832,
      "utur": 4833,
      "Ġbergantung": 4834,
      "Ġdewi": 4835,
      "Ġmaterial": 4836,
      "Ġpengikut": 4837,
      "indari": 4838,
      "Ġmusuh": 4839,
      "Ġpermintaan": 4840,
      "cr": 4841,
      "Ġberagama": 4842,
      "Ġrok": 4843,
      "Ġmengangkat": 4844,
      "Ġadip": 4845,
      "Ġalg": 4846,
      "Ġotoritas": 4847,
      "sar": 4848,
      "Ġpukul": 4849,
      "Ġsant": 4850,
      "Ġsingkat": 4851,
      "Ġcentr": 4852,
      "Ġapple": 4853,
      "Ġskala": 4854,
      "terdam": 4855,
      "Ġhttp": 4856,
      "Ġmenawarkan": 4857,
      "oft": 4858,
      "ograp": 4859,
      "meskipun": 4860,
      "jas": 4861,
      "ogan": 4862,
      "Ġorbit": 4863,
      "Ġtulang": 4864,
      "Ġsekel": 4865,
      "Ġditangkap": 4866,
      "Ġpasti": 4867,
      "Ġdomestik": 4868,
      "Ġsas": 4869,
      "Ġbib": 4870,
      "Ġkesempatan": 4871,
      "Ġdidasarkan": 4872,
      "eksiko": 4873,
      "Ġvolume": 4874,
      "400": 4875,
      "wal": 4876,
      "Ġtom": 4877,
      "Ġakunt": 4878,
      "Ġpelangg": 4879,
      "Ġmenerbitkan": 4880,
      "univers": 4881,
      "Ġlemp": 4882,
      "Ġhus": 4883,
      "ebon": 4884,
      "baikan": 4885,
      "Ġekor": 4886,
      "Ġistimewa": 4887,
      "bacaan": 4888,
      "Ġmichael": 4889,
      "ugh": 4890,
      "Ġhidr": 4891,
      "Ġlembah": 4892,
      "Ġpasifik": 4893,
      "Ġmenet": 4894,
      "Ġberhenti": 4895,
      "Ġlou": 4896,
      "Ġperekonomian": 4897,
      "Ġsebagainya": 4898,
      "Ġlegislatif": 4899,
      "Ġpac": 4900,
      "Ġterjadinya": 4901,
      "Ġkepemimpinan": 4902,
      "Ġhaji": 4903,
      "ebaskan": 4904,
      "Ġpemand": 4905,
      "Ġmasehi": 4906,
      "Ġraks": 4907,
      "sebuah": 4908,
      "angkatan": 4909,
      "Ġputr": 4910,
      "Ġmemerintah": 4911,
      "esan": 4912,
      "Ġgigi": 4913,
      "Ġkertas": 4914,
      "Ġsaudi": 4915,
      "Ġ1963": 4916,
      "besar": 4917,
      "sir": 4918,
      "sistem": 4919,
      "Ùħ": 4920,
      "Ġaltern": 4921,
      "selama": 4922,
      "Ġbiru": 4923,
      "Ġmengklaim": 4924,
      "Ġmenandatangani": 4925,
      "ese": 4926,
      "ekonomi": 4927,
      "Ġmelindungi": 4928,
      "Ġbendera": 4929,
      "lad": 4930,
      "Ġten": 4931,
      "elakaan": 4932,
      "Ġmenang": 4933,
      "Ġringan": 4934,
      "ancangan": 4935,
      "Ġkritik": 4936,
      "Ġlukisan": 4937,
      "ilasi": 4938,
      "Ġchi": 4939,
      "Ġreal": 4940,
      "Ġkapasitas": 4941,
      "Ġ1976": 4942,
      "raina": 4943,
      "Ġgula": 4944,
      "Ġdinas": 4945,
      "Ġgeografis": 4946,
      "Ġwindows": 4947,
      "tual": 4948,
      "Ġsind": 4949,
      "emi": 4950,
      "Ġhas": 4951,
      "Ġrama": 4952,
      "Ġmengunjungi": 4953,
      "epaskan": 4954,
      "Ġserv": 4955,
      "ency": 4956,
      "Ġ1967": 4957,
      "amerika": 4958,
      "Ġmosk": 4959,
      "sikan": 4960,
      "Ġturut": 4961,
      "iklim": 4962,
      "Ġmeneg": 4963,
      "Ġfisi": 4964,
      "Ġsemacam": 4965,
      "Ġmalik": 4966,
      "Ġwarisan": 4967,
      "Ġkuala": 4968,
      "Ġsembilan": 4969,
      "waktu": 4970,
      "ariat": 4971,
      "iraan": 4972,
      "Ġaspek": 4973,
      "off": 4974,
      "ketika": 4975,
      "Ġmanga": 4976,
      "Ġmongol": 4977,
      "jemahkan": 4978,
      "alat": 4979,
      "Ġpensi": 4980,
      "Ġmelainkan": 4981,
      "Ġarj": 4982,
      "Ġkonstr": 4983,
      "Ġsains": 4984,
      "ven": 4985,
      "Ġsr": 4986,
      "Ġbelah": 4987,
      "ukkan": 4988,
      "ugu": 4989,
      "Ġmax": 4990,
      "Ġharian": 4991,
      "unci": 4992,
      "Ġmadura": 4993,
      "Ġhadir": 4994,
      "Ġanda": 4995,
      "kand": 4996,
      "omi": 4997,
      "Ġberkisar": 4998,
      "Ġpenjara": 4999,
      "Ġedisi": 5000,
      "43": 5001,
      "mati": 5002,
      "Ġari": 5003,
      "Ġserbia": 5004,
      "efa": 5005,
      "Ġwilayahnya": 5006,
      "lavia": 5007,
      "Ġpuisi": 5008,
      "ame": 5009,
      "angani": 5010,
      "Ġirak": 5011,
      "yana": 5012,
      "adopsi": 5013,
      "ingat": 5014,
      "ajahan": 5015,
      "Ġkampanye": 5016,
      "Ġbeserta": 5017,
      "pan": 5018,
      "Ġsara": 5019,
      "ahas": 5020,
      "olf": 5021,
      "ongg": 5022,
      "Ġseksual": 5023,
      "onton": 5024,
      "ĠĠĠĠĠĠĠĠ": 5025,
      "Ġfinlandia": 5026,
      "kematian": 5027,
      "cel": 5028,
      "Ġmari": 5029,
      "Ġking": 5030,
      "gia": 5031,
      "Ġiran": 5032,
      "Ġhy": 5033,
      "uhur": 5034,
      "amping": 5035,
      "ifikasi": 5036,
      "Ġbeijing": 5037,
      "partai": 5038,
      "ÙĬ": 5039,
      "Ġsapi": 5040,
      "Ġluc": 5041,
      "Ġperum": 5042,
      "Ġcak": 5043,
      "antinya": 5044,
      "Ġ1949": 5045,
      "Ġlogo": 5046,
      "Ġkendali": 5047,
      "rich": 5048,
      "Ġpulang": 5049,
      "Ġsisa": 5050,
      "abd": 5051,
      "Ġ1959": 5052,
      "Ġsiaran": 5053,
      "ution": 5054,
      "cc": 5055,
      "Ġmeksiko": 5056,
      "ony": 5057,
      "anggil": 5058,
      "Ġkhal": 5059,
      "hol": 5060,
      "arjo": 5061,
      "ahatan": 5062,
      "asang": 5063,
      "Ġhalaman": 5064,
      "umur": 5065,
      "oci": 5066,
      "untut": 5067,
      "Ġmakh": 5068,
      "Ġgabungan": 5069,
      "sw": 5070,
      "Ġ1971": 5071,
      "Ġstrategis": 5072,
      "95": 5073,
      "umat": 5074,
      "Ġpesan": 5075,
      "gabungkan": 5076,
      "Ġpsik": 5077,
      "Ġrahasia": 5078,
      "Ġternyata": 5079,
      "mem": 5080,
      "enam": 5081,
      "Ġlif": 5082,
      "Ġcipta": 5083,
      "Ġsiswa": 5084,
      "pun": 5085,
      "Ġdas": 5086,
      "orida": 5087,
      "pemain": 5088,
      "assar": 5089,
      "Ġditambah": 5090,
      "Ġindependen": 5091,
      "ft": 5092,
      "Ġpondok": 5093,
      "agn": 5094,
      "bek": 5095,
      "car": 5096,
      "Ġsamb": 5097,
      "esh": 5098,
      "Ġhek": 5099,
      "Ġperairan": 5100,
      "Ġ1968": 5101,
      "fil": 5102,
      "sid": 5103,
      "Ġlump": 5104,
      "1999": 5105,
      "Ġayam": 5106,
      "Ġcounty": 5107,
      "aktif": 5108,
      "omunikasi": 5109,
      "Ġkelima": 5110,
      "igasi": 5111,
      "Ġdilengkapi": 5112,
      "Ġpokok": 5113,
      "Ġlambang": 5114,
      "Ġbersa": 5115,
      "Ġmerilis": 5116,
      "angguan": 5117,
      "Ġplay": 5118,
      "Ġabdullah": 5119,
      "transportasi": 5120,
      "vasi": 5121,
      "Ġpref": 5122,
      "otong": 5123,
      "Ġpengakuan": 5124,
      "ancarkan": 5125,
      "stan": 5126,
      "Ġsystem": 5127,
      "Ġtempur": 5128,
      "Ġpenyebab": 5129,
      "Ġsemi": 5130,
      "Ġ180": 5131,
      "à¤": 5132,
      "Ġkeuntungan": 5133,
      "Ġze": 5134,
      "Ġ45": 5135,
      "Ġsituasi": 5136,
      "Ġraksasa": 5137,
      "by": 5138,
      "buk": 5139,
      "Ġemp": 5140,
      "Ġmuatan": 5141,
      "Ġgemp": 5142,
      "Ġganda": 5143,
      "Ġekstr": 5144,
      "Ġperserik": 5145,
      "Ġterjemahan": 5146,
      "unggu": 5147,
      "Ġperserikatan": 5148,
      "intasi": 5149,
      "Ġkebangsaan": 5150,
      "Ġbatang": 5151,
      "Ġ1946": 5152,
      "Ġfenom": 5153,
      "Ġbangsawan": 5154,
      "cal": 5155,
      "dr": 5156,
      "Ġtangk": 5157,
      "ikkan": 5158,
      "trin": 5159,
      "Ġpemenang": 5160,
      "Ġdiperkenalkan": 5161,
      "%)": 5162,
      "Ġ;": 5163,
      "Ġtir": 5164,
      "Ġluth": 5165,
      "Ġmenak": 5166,
      "Ġpenampilan": 5167,
      "Ġnegatif": 5168,
      "idenan": 5169,
      "Ġkrisis": 5170,
      "Ð¾": 5171,
      "ery": 5172,
      "Ġmataram": 5173,
      "iii": 5174,
      "encanakan": 5175,
      "Ð°": 5176,
      "Ġbest": 5177,
      "Ġsend": 5178,
      "Ġkac": 5179,
      "Ġgua": 5180,
      "inda": 5181,
      "chn": 5182,
      "Ġ1961": 5183,
      "back": 5184,
      "Ġsikap": 5185,
      "demografi": 5186,
      "Ġbatavia": 5187,
      "41": 5188,
      "ulunya": 5189,
      "asihat": 5190,
      "Ġdijual": 5191,
      "Ġonline": 5192,
      "Ġcirebon": 5193,
      "uktikan": 5194,
      "Ġjema": 5195,
      "Ġwayang": 5196,
      "Ġkecelakaan": 5197,
      "Ġportugal": 5198,
      "Ġlenin": 5199,
      "Ġalternatif": 5200,
      "Ġkumpulan": 5201,
      "osari": 5202,
      "entuan": 5203,
      "Ġvic": 5204,
      "Ġpatung": 5205,
      "nah": 5206,
      "ways": 5207,
      "Ġbrit": 5208,
      "Ġdigambarkan": 5209,
      "wayat": 5210,
      "Ġyus": 5211,
      "ept": 5212,
      "Ġsetahun": 5213,
      "Ġ1969": 5214,
      "Ġmetropolitan": 5215,
      "jauh": 5216,
      "ungkapkan": 5217,
      "Ġpenurunan": 5218,
      "endalikan": 5219,
      "Ġpelat": 5220,
      "Ġperset": 5221,
      "Ġmembaca": 5222,
      "oksida": 5223,
      "my": 5224,
      "ux": 5225,
      "emuka": 5226,
      "Ġhis": 5227,
      "Ġfifa": 5228,
      "isipasi": 5229,
      "Ġbosnia": 5230,
      "olisian": 5231,
      "ahi": 5232,
      "inginan": 5233,
      "eksp": 5234,
      "ungkan": 5235,
      "Ġdiluncurkan": 5236,
      "Ġinfeksi": 5237,
      "Ġpensiun": 5238,
      "Ġpra": 5239,
      "Ġpertunjukan": 5240,
      "Ġtampaknya": 5241,
      "gawai": 5242,
      "wijaya": 5243,
      "elasan": 5244,
      "Ġlam": 5245,
      "Ġmengarah": 5246,
      "Ġlaboratorium": 5247,
      "io": 5248,
      "áĦ": 5249,
      "áħ": 5250,
      "Ġkira": 5251,
      "ukis": 5252,
      "Ġperayaan": 5253,
      "ente": 5254,
      "Ġmelambangkan": 5255,
      "inggalan": 5256,
      "inding": 5257,
      "Ġ1930": 5258,
      "Ġtepatnya": 5259,
      "99": 5260,
      "site": 5261,
      "yal": 5262,
      "Ġdh": 5263,
      "Ġbaku": 5264,
      "Ġmengaku": 5265,
      "Ġelemen": 5266,
      "Ġblok": 5267,
      "ias": 5268,
      "onj": 5269,
      "Ġnga": 5270,
      "Ġkontrov": 5271,
      "rit": 5272,
      "Ġdulu": 5273,
      "idaknya": 5274,
      "Ġ32": 5275,
      "Ġkebenaran": 5276,
      "Ġukraina": 5277,
      "Ġtembok": 5278,
      "benar": 5279,
      "contoh": 5280,
      "etakan": 5281,
      "Ġgod": 5282,
      "indung": 5283,
      "Ġdipindahkan": 5284,
      "Ġmenghindari": 5285,
      "Ġmenyebar": 5286,
      "Ġdokumen": 5287,
      "Ġizin": 5288,
      "Ġpersetujuan": 5289,
      "pd": 5290,
      "resi": 5291,
      "Ġsap": 5292,
      "Ġfase": 5293,
      "okerto": 5294,
      "odo": 5295,
      "Ġsemesta": 5296,
      "alifah": 5297,
      "Ġmemerlukan": 5298,
      "esmikan": 5299,
      "Ġmengalir": 5300,
      "Ġmakhluk": 5301,
      "hiri": 5302,
      "perang": 5303,
      "ott": 5304,
      "otik": 5305,
      "otlandia": 5306,
      "igur": 5307,
      "Ġkesenian": 5308,
      "inginkan": 5309,
      "Ġkalimat": 5310,
      "keh": 5311,
      "Ġdll": 5312,
      "Ġkred": 5313,
      "Ġdimaksud": 5314,
      "Ġmurni": 5315,
      "banyak": 5316,
      "salah": 5317,
      "ward": 5318,
      "Ġdimasuk": 5319,
      "Ġlawan": 5320,
      "Ġgej": 5321,
      "edisi": 5322,
      "Ġkontrak": 5323,
      "Ġutsmaniyah": 5324,
      "85": 5325,
      "umpul": 5326,
      "2003": 5327,
      "Ġmayor": 5328,
      "Ġsaw": 5329,
      "atis": 5330,
      "Ġprinc": 5331,
      "entangan": 5332,
      "Ġkonvensi": 5333,
      "ering": 5334,
      "Ġsyarat": 5335,
      "els": 5336,
      "Ġren": 5337,
      "Ġnorth": 5338,
      "Ġwon": 5339,
      "Ġpendudukan": 5340,
      "Ġtakh": 5341,
      "rahim": 5342,
      "Ġgaram": 5343,
      "Ġrichard": 5344,
      "gal": 5345,
      "kari": 5346,
      "ake": 5347,
      "oklam": 5348,
      "Ġmenghancurkan": 5349,
      "Ġmazhab": 5350,
      "Ġkonsili": 5351,
      "Ġmembuatnya": 5352,
      "Ġmengakhiri": 5353,
      "presiden": 5354,
      "Ġdiselenggarakan": 5355,
      "Ġgeorgia": 5356,
      "Ġriau": 5357,
      "Ġfokus": 5358,
      "Ġ1966": 5359,
      "Ġmodal": 5360,
      "Ġlatar": 5361,
      "Ġboy": 5362,
      "Ġdias": 5363,
      "its": 5364,
      "iaan": 5365,
      "Ġselandia": 5366,
      "Ġkemajuan": 5367,
      "Ġpersegi": 5368,
      "ground": 5369,
      "Ġlemah": 5370,
      "Ġpenyelengg": 5371,
      "Ġhektar": 5372,
      "bur": 5373,
      "ions": 5374,
      "Ġkre": 5375,
      "Ġrekaman": 5376,
      "Ġelektronik": 5377,
      "Ġmemanfaatkan": 5378,
      "ck": 5379,
      "Ġmengund": 5380,
      "sigen": 5381,
      "perk": 5382,
      "gunung": 5383,
      "Ġpakistan": 5384,
      "amad": 5385,
      "eling": 5386,
      "esua": 5387,
      "apak": 5388,
      "Ġcel": 5389,
      "Ġalas": 5390,
      "icu": 5391,
      "gunaan": 5392,
      "Ġpendirian": 5393,
      "Ġkapten": 5394,
      "Ġkeluarganya": 5395,
      "band": 5396,
      "pes": 5397,
      "intesis": 5398,
      "Ġkepolisian": 5399,
      "Ġisa": 5400,
      "Ġibadah": 5401,
      "Ġinteg": 5402,
      "www": 5403,
      "Ġcitra": 5404,
      "cm": 5405,
      "garia": 5406,
      "Ġisi": 5407,
      "Ġmich": 5408,
      "Ġpew": 5409,
      "Ġmengut": 5410,
      "ipan": 5411,
      "Ġsepeda": 5412,
      "Ġsurakarta": 5413,
      "66": 5414,
      "Ġkus": 5415,
      "Ġprix": 5416,
      "Ġpenulisan": 5417,
      "asifikasi": 5418,
      "Ġmengacu": 5419,
      "Ġwa": 5420,
      "Ġ1920": 5421,
      "Ġbertujuan": 5422,
      "Ġmalaka": 5423,
      "suf": 5424,
      "gin": 5425,
      "lakukan": 5426,
      "rom": 5427,
      "Ġbung": 5428,
      "itungan": 5429,
      "Ġunik": 5430,
      "Ġformal": 5431,
      "des": 5432,
      "anggu": 5433,
      "Ġskotlandia": 5434,
      "Ġrisiko": 5435,
      "amatkan": 5436,
      "Ġwest": 5437,
      "oka": 5438,
      "Ġsmk": 5439,
      "Ġsahabat": 5440,
      "Ġdef": 5441,
      "urna": 5442,
      "Ġdirancang": 5443,
      "bl": 5444,
      "Ġjati": 5445,
      "Ġhamb": 5446,
      "Ġgangguan": 5447,
      "Ġfe": 5448,
      "ormati": 5449,
      "Ġmau": 5450,
      "Ġ1940": 5451,
      "2001": 5452,
      "Ġpolitikus": 5453,
      "Ġsukar": 5454,
      "Ġchampions": 5455,
      "hid": 5456,
      "ÙĪ": 5457,
      "Ġbekasi": 5458,
      "epakatan": 5459,
      "ektorat": 5460,
      "Ġkasih": 5461,
      "Ġmencetak": 5462,
      "Ġkerusakan": 5463,
      "ukim": 5464,
      "itr": 5465,
      "ikanan": 5466,
      "Ġterkemuka": 5467,
      "Ġperkota": 5468,
      "baru": 5469,
      "pal": 5470,
      "ŃĲ": 5471,
      "Ġlev": 5472,
      "Ġmenempatkan": 5473,
      "ammad": 5474,
      "abeth": 5475,
      "pus": 5476,
      "sterdam": 5477,
      "Ġdamai": 5478,
      "Ġkup": 5479,
      "eman": 5480,
      "ekaran": 5481,
      "ety": 5482,
      "Ġsetidaknya": 5483,
      "Ġlemak": 5484,
      "Ġistrinya": 5485,
      "Ġdayak": 5486,
      "zz": 5487,
      "uskup": 5488,
      "Ġkart": 5489,
      "Ġkedudukan": 5490,
      "Ġfrekuensi": 5491,
      "urne": 5492,
      "Ġrasio": 5493,
      "rep": 5494,
      "Ġtoy": 5495,
      "Ġarist": 5496,
      "cht": 5497,
      "ugerah": 5498,
      "Ġpenyer": 5499,
      "Ġ1964": 5500,
      "imbang": 5501,
      "Ġmenetap": 5502,
      "Ġtakhta": 5503,
      "para": 5504,
      "Ġanal": 5505,
      "Ġgre": 5506,
      "Ġdiduga": 5507,
      "Ġibrani": 5508,
      "rosoft": 5509,
      "uaran": 5510,
      "Ġ#": 5511,
      "Ġsetuju": 5512,
      "ultur": 5513,
      "Ġbatal": 5514,
      "angkabau": 5515,
      "Ġdiciptakan": 5516,
      "Ġpegawai": 5517,
      "71": 5518,
      "Ġyear": 5519,
      "ebihan": 5520,
      "ijen": 5521,
      "Ġ1955": 5522,
      "Ġkejahatan": 5523,
      "ertian": 5524,
      "Ġidentitas": 5525,
      "Ġperkotaan": 5526,
      "cs": 5527,
      "dik": 5528,
      "dia": 5529,
      "ms": 5530,
      "ĠØ": 5531,
      "Ġmelah": 5532,
      "akm": 5533,
      "adari": 5534,
      "Ġpasca": 5535,
      "Ġkekayaan": 5536,
      "Ġprofes": 5537,
      "Ġstudio": 5538,
      "Ġwebsite": 5539,
      "atar": 5540,
      "adaban": 5541,
      "istilah": 5542,
      "Ġgerbang": 5543,
      "Ġdikelola": 5544,
      "Ġdiatur": 5545,
      "Ġdiganti": 5546,
      "Ġwajib": 5547,
      "Ġzh": 5548,
      "Ġbertambah": 5549,
      "Ġ1977": 5550,
      "Ġoksigen": 5551,
      "Ġsatunya": 5552,
      "Ġinstitute": 5553,
      "88": 5554,
      "Ġtitan": 5555,
      "Ġberas": 5556,
      "Ġgitar": 5557,
      "sifat": 5558,
      "antin": 5559,
      "Ġbatak": 5560,
      "astikan": 5561,
      "Ġbukanlah": 5562,
      "ãĥ": 5563,
      "Ġban": 5564,
      "Ġselamat": 5565,
      "Ġparah": 5566,
      "Ġairways": 5567,
      "Ġsingle": 5568,
      "...": 5569,
      "100": 5570,
      "pet": 5571,
      "sari": 5572,
      "Ġrit": 5573,
      "Ġrest": 5574,
      "isma": 5575,
      "ahter": 5576,
      "Ġberukuran": 5577,
      "Ġcarl": 5578,
      "Ġberpengaruh": 5579,
      "faat": 5580,
      "mata": 5581,
      "Ġbengk": 5582,
      "Ġ1958": 5583,
      "Ġpeter": 5584,
      "Ġhidupnya": 5585,
      "Ġstatistik": 5586,
      "Ø§ÙĦ": 5587,
      "Ġpy": 5588,
      "Ġpikiran": 5589,
      "Ġsuka": 5590,
      "eluk": 5591,
      "uaca": 5592,
      "2006": 5593,
      "bachev": 5594,
      "universitas": 5595,
      "59": 5596,
      "Ġmemengaruhi": 5597,
      "Ġmenyerahkan": 5598,
      "bentuk": 5599,
      "bab": 5600,
      "Ġdipandang": 5601,
      "ontalo": 5602,
      "Ġtelur": 5603,
      "Ġkolonel": 5604,
      "Ġlingkaran": 5605,
      "Ġmengundurkan": 5606,
      "etika": 5607,
      "iana": 5608,
      "egor": 5609,
      "Ġalk": 5610,
      "Ġkhalifah": 5611,
      "Ġhakim": 5612,
      "Ġangel": 5613,
      "kt": 5614,
      "sd": 5615,
      "Ġdolar": 5616,
      "Ġribu": 5617,
      "ektif": 5618,
      "Ġarch": 5619,
      "Ġminangkabau": 5620,
      "Ġarjuna": 5621,
      "Ġgempa": 5622,
      "sc": 5623,
      "Ġbulu": 5624,
      "Ġhil": 5625,
      "agi": 5626,
      "Ġpesat": 5627,
      "Ġeliz": 5628,
      "Ġ1972": 5629,
      "Ġ150": 5630,
      "oid": 5631,
      "rib": 5632,
      "atik": 5633,
      "Ġaktiv": 5634,
      "Ġbrun": 5635,
      "Ġseniman": 5636,
      "uck": 5637,
      "Ġangkutan": 5638,
      "1998": 5639,
      "bourne": 5640,
      "Ġmenjalani": 5641,
      "beda": 5642,
      "out": 5643,
      "Ġmusic": 5644,
      "obi": 5645,
      "Ġkesepakatan": 5646,
      "Ġberlanjut": 5647,
      "Ġmahkota": 5648,
      "Ġdikarenakan": 5649,
      "inah": 5650,
      "ukota": 5651,
      "Ġperilaku": 5652,
      "ider": 5653,
      "Ġmengajukan": 5654,
      "Ġpri": 5655,
      "igran": 5656,
      "Ġ1956": 5657,
      "astruktur": 5658,
      "Ġgugur": 5659,
      "Ġmamalia": 5660,
      "mah": 5661,
      "Ġkid": 5662,
      "isinya": 5663,
      "Ġliter": 5664,
      "Ġlulus": 5665,
      "ajarkan": 5666,
      "radara": 5667,
      "Ġmelahirkan": 5668,
      "74": 5669,
      "ster": 5670,
      "Ġsawah": 5671,
      "Ġpendeta": 5672,
      "ova": 5673,
      "chen": 5674,
      "Ġbersatu": 5675,
      "Ġpoin": 5676,
      "Ġdhar": 5677,
      "unyi": 5678,
      "ilikan": 5679,
      "Ġplat": 5680,
      "Ġmakassar": 5681,
      "Ġuap": 5682,
      "kelompok": 5683,
      "Ġmartin": 5684,
      "Ġpangg": 5685,
      "perangan": 5686,
      "Ġsaud": 5687,
      "politikus": 5688,
      "Ġdimasukkan": 5689,
      "300": 5690,
      "uz": 5691,
      "Ġdampak": 5692,
      "Ġlim": 5693,
      "agian": 5694,
      "oyo": 5695,
      "lukkan": 5696,
      "aitkan": 5697,
      "Ġtum": 5698,
      "Ġfitur": 5699,
      "Ġditutup": 5700,
      "Ġuefa": 5701,
      "Ġcompany": 5702,
      "Ġling": 5703,
      "ilangkan": 5704,
      "Ġperikanan": 5705,
      "Ġgil": 5706,
      "Ġpengalaman": 5707,
      "Ġminuman": 5708,
      "Ġbinatang": 5709,
      "Ġperlawanan": 5710,
      "tain": 5711,
      "Ġvit": 5712,
      "Ġmenceritakan": 5713,
      "Ġpandawa": 5714,
      "Ġrekor": 5715,
      "hur": 5716,
      "weg": 5717,
      "Ġky": 5718,
      "Ġsegi": 5719,
      "Ġaug": 5720,
      "agar": 5721,
      "Ġkartu": 5722,
      "Ġ36": 5723,
      "akses": 5724,
      "sekolah": 5725,
      "ĠâĢĺ": 5726,
      "onan": 5727,
      "Ġjac": 5728,
      "odin": 5729,
      "Ġpengusaha": 5730,
      "2010": 5731,
      "Ġdidominasi": 5732,
      "Ġibrahim": 5733,
      "unjungan": 5734,
      "gas": 5735,
      "Ġpemas": 5736,
      "indak": 5737,
      "Ġakibatnya": 5738,
      "Ġpagi": 5739,
      "terdapat": 5740,
      "Ġlouis": 5741,
      "vd": 5742,
      "Ġamp": 5743,
      "Ġkaw": 5744,
      "Ġjantung": 5745,
      "Ġwin": 5746,
      "embalikan": 5747,
      "ihkan": 5748,
      "Ġfrancis": 5749,
      "Ġpribumi": 5750,
      "Ġditandai": 5751,
      "tal": 5752,
      "kantor": 5753,
      "Ġserangkaian": 5754,
      "anggal": 5755,
      "ipa": 5756,
      "Ġspesif": 5757,
      "pembagian": 5758,
      "alisasi": 5759,
      "Ġdif": 5760,
      "Ġkeg": 5761,
      "Ġfri": 5762,
      "ope": 5763,
      "Ġbelgia": 5764,
      "Ġterkadang": 5765,
      "ucing": 5766,
      "Ġsesudah": 5767,
      "Ġhasan": 5768,
      "etapan": 5769,
      "Ġsetia": 5770,
      "Ġmanch": 5771,
      "Ġinternal": 5772,
      "kerajaan": 5773,
      "uff": 5774,
      "menteri": 5775,
      "''": 5776,
      "Ġmult": 5777,
      "Ġpangan": 5778,
      "Ġbasis": 5779,
      "Ġmelarikan": 5780,
      "Ġpesepak": 5781,
      "Ġkomposisi": 5782,
      "Ġdinamai": 5783,
      "\").": 5784,
      "05": 5785,
      "bandar": 5786,
      "esaan": 5787,
      "ekor": 5788,
      "Ġmeluncurkan": 5789,
      "Ġkekh": 5790,
      "Ġspir": 5791,
      "Ġobl": 5792,
      "Ġsusu": 5793,
      "akmuran": 5794,
      "buku": 5795,
      "pt": 5796,
      "ÙĨ": 5797,
      "ahaman": 5798,
      "agen": 5799,
      "Ġbersejarah": 5800,
      "Ġinfr": 5801,
      "Ġberpindah": 5802,
      "jam": 5803,
      "ere": 5804,
      "Ġsans": 5805,
      "Ġdilantik": 5806,
      "Ġefisi": 5807,
      "Ġpendekatan": 5808,
      "Ġriset": 5809,
      "Ġcip": 5810,
      "osok": 5811,
      "Ġmineral": 5812,
      "Ġprefektur": 5813,
      "Ġtoko": 5814,
      "olaan": 5815,
      "Ġpeninggalan": 5816,
      "ustru": 5817,
      "Ġbulgaria": 5818,
      "Ġmicrosoft": 5819,
      "kripsi": 5820,
      "Ġroket": 5821,
      "osen": 5822,
      "Ġamsterdam": 5823,
      "Ġmendes": 5824,
      "Ġmagnet": 5825,
      "Ġkamar": 5826,
      "Ġpembagian": 5827,
      "Ġgorbachev": 5828,
      "Ġjoseph": 5829,
      "Ġroyal": 5830,
      "\"),": 5831,
      "58": 5832,
      "oe": 5833,
      "Ġkim": 5834,
      "Ġdidapat": 5835,
      "2002": 5836,
      "Ġhistoris": 5837,
      "Ġbatalyon": 5838,
      "uai": 5839,
      "Ġsari": 5840,
      "Ġsambil": 5841,
      "Ġbill": 5842,
      "Ġlos": 5843,
      "Ġjustru": 5844,
      "Ġnan": 5845,
      "Ġpeman": 5846,
      "Ġkediri": 5847,
      "Ġteknis": 5848,
      "Ġ1957": 5849,
      "Ġgaruda": 5850,
      "Ġlubang": 5851,
      "72": 5852,
      "Ġmula": 5853,
      "atikan": 5854,
      "Ġisland": 5855,
      "Ġdisingkat": 5856,
      "Ġpersamaan": 5857,
      "Ġnusa": 5858,
      "Ġcuaca": 5859,
      "Ġmemuat": 5860,
      "antian": 5861,
      "Ġpetrus": 5862,
      "namun": 5863,
      "aptasi": 5864,
      "Ġmitologi": 5865,
      "oja": 5866,
      "Ġliv": 5867,
      "Ġlaks": 5868,
      "enting": 5869,
      "Ġvariasi": 5870,
      "Ġanc": 5871,
      "Ġdisk": 5872,
      "Ġkandungan": 5873,
      "98": 5874,
      "Ġkeyak": 5875,
      "Ġrangka": 5876,
      "Ġgat": 5877,
      "Ġfoto": 5878,
      "ambahan": 5879,
      "Ġsejenis": 5880,
      "Ġmendengar": 5881,
      "Ġkonsentrasi": 5882,
      "harata": 5883,
      "Ġsiapa": 5884,
      "Ġdagang": 5885,
      "Ġhiburan": 5886,
      "be": 5887,
      "Ġom": 5888,
      "Ġdam": 5889,
      "Ġgreen": 5890,
      "umpai": 5891,
      "Ġberhar": 5892,
      "Ġ1947": 5893,
      "Ġmahk": 5894,
      "ankan": 5895,
      "Ġmant": 5896,
      "Ġrap": 5897,
      "Ġperadaban": 5898,
      "umni": 5899,
      "Ġwas": 5900,
      "Ġvo": 5901,
      "Ġkedatangan": 5902,
      "Ġcairan": 5903,
      "Ġkudeta": 5904,
      "omosikan": 5905,
      "Ġjagung": 5906,
      "Ġelizabeth": 5907,
      "sor": 5908,
      "tak": 5909,
      "Ġungg": 5910,
      "Ġsidang": 5911,
      "cher": 5912,
      "Ġwisatawan": 5913,
      "Ġjabatannya": 5914,
      "rama": 5915,
      "ty": 5916,
      "Ðµ": 5917,
      "Ġtud": 5918,
      "Ġmengizinkan": 5919,
      "Ġadam": 5920,
      "pers": 5921,
      "Ġmelintasi": 5922,
      "Ġmembedakan": 5923,
      "Ġgelap": 5924,
      "Ġmonumen": 5925,
      "Ġditerapkan": 5926,
      "Ġkonstruksi": 5927,
      "Ġlumpur": 5928,
      "Ġmenutup": 5929,
      "olos": 5930,
      "Ġasy": 5931,
      "guna": 5932,
      "ovasi": 5933,
      "lahirkan": 5934,
      "stein": 5935,
      "Ġanggaran": 5936,
      "Ġartis": 5937,
      "ediaan": 5938,
      "Ġakuntansi": 5939,
      "ois": 5940,
      "Ġrs": 5941,
      "Ġpros": 5942,
      "Ġmembayar": 5943,
      "Ġpeperangan": 5944,
      "Ġgorontalo": 5945,
      ",\"": 5946,
      "cus": 5947,
      "Ġdetik": 5948,
      "ores": 5949,
      "Ġberganti": 5950,
      "Ġteror": 5951,
      "over": 5952,
      "Ġhalnya": 5953,
      "Ġmenganut": 5954,
      "Ġpencipta": 5955,
      "Ġbayi": 5956,
      "budaya": 5957,
      "Ġjambi": 5958,
      "Ġdiplomat": 5959,
      "Ġcadangan": 5960,
      "gar": 5961,
      "iarkan": 5962,
      "med": 5963,
      "Ġpit": 5964,
      "Ġsunan": 5965,
      "Ġbub": 5966,
      "sion": 5967,
      "Ġmelaporkan": 5968,
      "ucapkan": 5969,
      "Ġajang": 5970,
      "Ġmenjelang": 5971,
      "73": 5972,
      "sing": 5973,
      "erg": 5974,
      "emui": 5975,
      "Ġ(,": 5976,
      "Ġtimbul": 5977,
      "roit": 5978,
      "Ġbersih": 5979,
      "Ġfederasi": 5980,
      "lak": 5981,
      "Ġdinding": 5982,
      "Ġlis": 5983,
      "abah": 5984,
      "Ġsemangat": 5985,
      "Ġteater": 5986,
      "Ġnews": 5987,
      "Ġdasarnya": 5988,
      "versi": 5989,
      "âŃĲ": 5990,
      "ectr": 5991,
      "Ġumur": 5992,
      "Ġdipercaya": 5993,
      "sekitar": 5994,
      "Ġformula": 5995,
      "Ø§Ø": 5996,
      "Ġperawatan": 5997,
      "Ġche": 5998,
      "Ġditempatkan": 5999,
      "Ġamat": 6000,
      "Ġmenderita": 6001,
      "Ġkesalahan": 6002,
      "Ġmenghar": 6003,
      "Ġkebangk": 6004,
      "Ġorde": 6005,
      "Ġkalau": 6006,
      "ekatan": 6007,
      "baiki": 6008,
      "Ġtime": 6009,
      "Ġpemerintahannya": 6010,
      "Ġwafat": 6011,
      "baan": 6012,
      "presi": 6013,
      "Ġsentr": 6014,
      "Ġrezim": 6015,
      "kapal": 6016,
      "Ġbencana": 6017,
      "Ġdiyakini": 6018,
      "utasi": 6019,
      "utuan": 6020,
      "Ġrangkaian": 6021,
      "awali": 6022,
      "termasuk": 6023,
      "Ġpemekaran": 6024,
      "Ġterbit": 6025,
      "Ġtertulis": 6026,
      "Ġguna": 6027,
      "Ġmenerapkan": 6028,
      "Ġmarkas": 6029,
      "Ġassoci": 6030,
      "Ġmendekati": 6031,
      "Ġmoskwa": 6032,
      "Ġmemakan": 6033,
      "Ġanim": 6034,
      "Ġkro": 6035,
      "Ġpersek": 6036,
      "orial": 6037,
      "Ġ1941": 6038,
      "Ġmiskin": 6039,
      "Ġrektor": 6040,
      "Ġara": 6041,
      "Ġisma": 6042,
      "Ġbanyaknya": 6043,
      "Ġibukota": 6044,
      "Ġmuara": 6045,
      "rumah": 6046,
      "Ġgejala": 6047,
      "Ġbom": 6048,
      "Ġdilahirkan": 6049,
      "Ġmenemb": 6050,
      "abiskan": 6051,
      "egan": 6052,
      "agan": 6053,
      "antren": 6054,
      "Ġakar": 6055,
      "Ġ300": 6056,
      "Ġberdirinya": 6057,
      "Ġkembar": 6058,
      "ograman": 6059,
      "Ġdrama": 6060,
      "Ġlandasan": 6061,
      "kek": 6062,
      "our": 6063,
      "Ġbob": 6064,
      "Ġcik": 6065,
      "Ġmengoperasikan": 6066,
      "Ġpenya": 6067,
      "Ġumar": 6068,
      "Ġdilarang": 6069,
      "Ġkebun": 6070,
      "Ġribuan": 6071,
      "Ġkacang": 6072,
      "53": 6073,
      "emar": 6074,
      "ahana": 6075,
      "ucapan": 6076,
      "Ġkuant": 6077,
      "Ġlee": 6078,
      "Ġpenerima": 6079,
      "Ġratusan": 6080,
      "Ġdiharapkan": 6081,
      "olehkan": 6082,
      "Ġpengamatan": 6083,
      "Ġdikuasai": 6084,
      "Ġmilan": 6085,
      "1997": 6086,
      "Ġmulia": 6087,
      "Ġnitrogen": 6088,
      "06": 6089,
      "fak": 6090,
      "Ġkunci": 6091,
      "Ġnu": 6092,
      "ebat": 6093,
      "imologi": 6094,
      "iano": 6095,
      "Ġmelbourne": 6096,
      "ips": 6097,
      "Ġtabel": 6098,
      "misalnya": 6099,
      "Ġpelatihan": 6100,
      "saan": 6101,
      "Ġlor": 6102,
      "Ġlihat": 6103,
      "Ġrh": 6104,
      "Ġdituturkan": 6105,
      "kerta": 6106,
      "ikasikan": 6107,
      "Ġjah": 6108,
      "ulitan": 6109,
      "Ġpemak": 6110,
      "Ġpemukiman": 6111,
      "Ġsetara": 6112,
      "Ġkontrol": 6113,
      "dewan": 6114,
      "nes": 6115,
      "Ġmenangani": 6116,
      "Ġnya": 6117,
      "Ġcok": 6118,
      "peri": 6119,
      "entar": 6120,
      "Ġpengertian": 6121,
      "Ġberkurang": 6122,
      "Ġresp": 6123,
      "Ġistan": 6124,
      "Ġ1942": 6125,
      "2009": 6126,
      "Ġsiap": 6127,
      "Ġreligi": 6128,
      "Ġsutradara": 6129,
      "Ġfenomena": 6130,
      "Ġkara": 6131,
      "onc": 6132,
      "uruk": 6133,
      "Ġapapun": 6134,
      "Ġorganik": 6135,
      "ked": 6136,
      "Ġbug": 6137,
      "Ġrena": 6138,
      "Ġmengungkapkan": 6139,
      "Ġprogr": 6140,
      "Ġbiografi": 6141,
      "Ġsuriah": 6142,
      "etakkan": 6143,
      "Ġminoritas": 6144,
      "Ġdihuni": 6145,
      "Ġpinggiran": 6146,
      "Ġmenekankan": 6147,
      "Ġkeyakinan": 6148,
      "Ġsand": 6149,
      "Ġtaw": 6150,
      "Ġyou": 6151,
      "apus": 6152,
      "osh": 6153,
      "Ġbiji": 6154,
      "Ġinteraksi": 6155,
      "Ġfranc": 6156,
      "Ġteor": 6157,
      "2007": 6158,
      "Ġpenghasil": 6159,
      "Ġclub": 6160,
      "namen": 6161,
      "Ġmengirimkan": 6162,
      "Ġpengelolaan": 6163,
      "Ġngawi": 6164,
      "karier": 6165,
      "mod": 6166,
      "Ġmenambah": 6167,
      "Ġjena": 6168,
      "Ġmengumpulkan": 6169,
      "Ġwis": 6170,
      "Ġpenutur": 6171,
      "osit": 6172,
      "icial": 6173,
      "Ġmedis": 6174,
      "Ġsinyal": 6175,
      "Ġkarakteristik": 6176,
      "Ġhatta": 6177,
      "Ġalgorit": 6178,
      "Ġmahkamah": 6179,
      "ciri": 6180,
      "zar": 6181,
      "inea": 6182,
      "Ġtuk": 6183,
      "elop": 6184,
      "onik": 6185,
      "Ġjl": 6186,
      "olahan": 6187,
      "Ġasosiasi": 6188,
      "Ġ1953": 6189,
      "ombia": 6190,
      "uskupan": 6191,
      "57": 6192,
      "89": 6193,
      "eal": 6194,
      "Ġmangk": 6195,
      "Ġsib": 6196,
      "alik": 6197,
      "Ġlong": 6198,
      "Ġnyata": 6199,
      "Ġgi": 6200,
      "ataan": 6201,
      "ambu": 6202,
      "Ġarke": 6203,
      "ilmu": 6204,
      "Ġrekan": 6205,
      "Ġtersendiri": 6206,
      "Ġpemberian": 6207,
      "Ġkepemilikan": 6208,
      "ĊĠĊ": 6209,
      "Ġdioperasikan": 6210,
      "orer": 6211,
      "Ġinsp": 6212,
      "Ġrantai": 6213,
      "sebagian": 6214,
      "anggar": 6215,
      "program": 6216,
      "Ġperkiraan": 6217,
      "Ġmunculnya": 6218,
      "Ġpenyebaran": 6219,
      "Ġrecord": 6220,
      "hard": 6221,
      "Ġkena": 6222,
      "utr": 6223,
      "Ġhaw": 6224,
      "uduh": 6225,
      "oso": 6226,
      "ops": 6227,
      "Ġvon": 6228,
      "ambar": 6229,
      "Ġdibutuhkan": 6230,
      "Ġdarurat": 6231,
      "Ġitulah": 6232,
      "surat": 6233,
      "Ġderajat": 6234,
      "51": 6235,
      "dana": 6236,
      "hel": 6237,
      "anon": 6238,
      "amu": 6239,
      "Ġhiv": 6240,
      "etis": 6241,
      "Ġmengenal": 6242,
      "Ġberpusat": 6243,
      "Ġradiasi": 6244,
      "encanaan": 6245,
      "Ġprodusen": 6246,
      "Ġtidur": 6247,
      "Ġvictor": 6248,
      "uit": 6249,
      "ãĤ": 6250,
      "ange": 6251,
      "Ġbac": 6252,
      "Ġhut": 6253,
      "udakan": 6254,
      "oki": 6255,
      "Ġpengend": 6256,
      "Ġterbukti": 6257,
      "ecah": 6258,
      "Ġsurah": 6259,
      "Ġ1952": 6260,
      "Ġuu": 6261,
      "urunkan": 6262,
      "Ġmemisahkan": 6263,
      "Ġsehar": 6264,
      "Ġperbudakan": 6265,
      "Ġliberal": 6266,
      "Ġkeselamatan": 6267,
      "01": 6268,
      "ewa": 6269,
      "Ġmd": 6270,
      "emia": 6271,
      "esel": 6272,
      "Ġrapat": 6273,
      "Ġmemaksa": 6274,
      "anyaan": 6275,
      "Ġmembahas": 6276,
      "Ġradar": 6277,
      "Ġinfrastruktur": 6278,
      "Î¿": 6279,
      "Ġsyah": 6280,
      "Ġbot": 6281,
      "Ġwib": 6282,
      "Ġbagus": 6283,
      "Ġbro": 6284,
      "Ġdiresmikan": 6285,
      "03": 6286,
      "amika": 6287,
      "ister": 6288,
      "uktor": 6289,
      "Ġmelepaskan": 6290,
      "Ġkaryanya": 6291,
      "Ġpaskah": 6292,
      "Ġcha": 6293,
      "Ġinstitusi": 6294,
      "Ġpejuang": 6295,
      "Ġmenjadikannya": 6296,
      "jasama": 6297,
      "mak": 6298,
      "uss": 6299,
      "Ġhany": 6300,
      "Ġmendarat": 6301,
      "ungguhnya": 6302,
      "Ġtvri": 6303,
      "Ġcocok": 6304,
      "bahan": 6305,
      "linya": 6306,
      "Ġpersa": 6307,
      "Ġpengganti": 6308,
      "Ġmenyampaikan": 6309,
      "Ġkomet": 6310,
      "Ġkhat": 6311,
      "Ġbatuan": 6312,
      "Ġnav": 6313,
      "Ġmagn": 6314,
      "Ġfakta": 6315,
      "Ġmunisip": 6316,
      ";\"|": 6317,
      "dy": 6318,
      "eet": 6319,
      "Ġmada": 6320,
      "Ġdiman": 6321,
      "Ġhay": 6322,
      "Ġagen": 6323,
      "Ġkedaul": 6324,
      "2014": 6325,
      "Ġdemak": 6326,
      "Ġformat": 6327,
      "Ġkedaulatan": 6328,
      "atalkan": 6329,
      "Ġprabu": 6330,
      "rac": 6331,
      "Ġagak": 6332,
      "Ġtechn": 6333,
      "Ġdetroit": 6334,
      "Ġsn": 6335,
      "Ġbaja": 6336,
      "alb": 6337,
      "Ġmenambahkan": 6338,
      "Ġhom": 6339,
      "Ġgir": 6340,
      "Ġmengganti": 6341,
      "Ġkelak": 6342,
      "Ġputaran": 6343,
      "Ġsupaya": 6344,
      "Ġintelijen": 6345,
      "Ġnormal": 6346,
      "',": 6347,
      "emuk": 6348,
      "Ġyug": 6349,
      "ury": 6350,
      "Ġhand": 6351,
      "Ġberkeb": 6352,
      "Ġkrim": 6353,
      "artikel": 6354,
      "Ġkorupsi": 6355,
      "hai": 6356,
      "ky": 6357,
      "Ġkucing": 6358,
      "Ġrac": 6359,
      "Ġfi": 6360,
      "Ġkemir": 6361,
      "Ġditurunkan": 6362,
      "Ġsmith": 6363,
      "Ġpandang": 6364,
      "ajiban": 6365,
      "Ġjemaat": 6366,
      "kehidupan": 6367,
      "Ġjenazah": 6368,
      "rot": 6369,
      "Ġtes": 6370,
      "ikh": 6371,
      "ukses": 6372,
      "Ġhij": 6373,
      "Ġnig": 6374,
      "Ġmengin": 6375,
      "ancar": 6376,
      "Ġkoleksi": 6377,
      "Ġduta": 6378,
      "Ġpangkat": 6379,
      "elaskan": 6380,
      "Ġget": 6381,
      "Ġmelarang": 6382,
      "Ġkesulitan": 6383,
      "Ġpenyimp": 6384,
      "aksana": 6385,
      "Ġgeom": 6386,
      "Ġpemrograman": 6387,
      "Ġbritish": 6388,
      "Ġancaman": 6389,
      "52": 6390,
      "for": 6391,
      "lasi": 6392,
      "Ġkunjungan": 6393,
      "Ġlintang": 6394,
      "Ġcend": 6395,
      "Ġterbaru": 6396,
      "Ġpeserta": 6397,
      "Ġlegenda": 6398,
      "Ġekspor": 6399,
      "mana": 6400,
      "Ġmid": 6401,
      "ild": 6402,
      "ape": 6403,
      "Ġkeinginan": 6404,
      "siapkan": 6405,
      "Ġstan": 6406,
      "ujian": 6407,
      "Ġanat": 6408,
      "Ġpresid": 6409,
      "kuit": 6410,
      "04": 6411,
      "bas": 6412,
      "lap": 6413,
      "Ġsent": 6414,
      "Ġtul": 6415,
      "ubarkan": 6416,
      "oden": 6417,
      "Ġmenyimpan": 6418,
      "ecil": 6419,
      "Ġpolri": 6420,
      "Ġkekalahan": 6421,
      "2008": 6422,
      "meninggal": 6423,
      "87": 6424,
      "hukum": 6425,
      "san": 6426,
      "amar": 6427,
      "isisi": 6428,
      "Ġsejauh": 6429,
      "iksa": 6430,
      "Ġpred": 6431,
      "osp": 6432,
      "Ġaslinya": 6433,
      "Ġbertindak": 6434,
      "ucu": 6435,
      "ru": 6436,
      "ogh": 6437,
      "Ġori": 6438,
      "hadiran": 6439,
      "Ġbalai": 6440,
      "Ġserial": 6441,
      "Ġkongo": 6442,
      "Ġbasket": 6443,
      "Ġalexander": 6444,
      "Ġhenry": 6445,
      "Ġdoa": 6446,
      "Ġsor": 6447,
      "Ġmenuntut": 6448,
      "Ġnasionalis": 6449,
      "Ġditerjemahkan": 6450,
      "Ġfilsuf": 6451,
      "Ġinvasi": 6452,
      "Ġmemasukkan": 6453,
      "Ġekspedisi": 6454,
      "Ġkoordin": 6455,
      "lang": 6456,
      "sub": 6457,
      "yid": 6458,
      "ayangan": 6459,
      "ancur": 6460,
      "Ġberkat": 6461,
      "Ġtransm": 6462,
      "Ġmempengaruhi": 6463,
      "1995": 6464,
      "thag": 6465,
      "Ġtarget": 6466,
      "Ġlempeng": 6467,
      "Ġpki": 6468,
      "otanya": 6469,
      "Ġditujukan": 6470,
      "Ġpalembang": 6471,
      "Ġmaori": 6472,
      "Ġbelakangan": 6473,
      "Ġchristian": 6474,
      "sik": 6475,
      "Î±": 6476,
      "Î¹": 6477,
      "Ġbangka": 6478,
      "Ġpenangk": 6479,
      "Ġindo": 6480,
      "Ġusul": 6481,
      "Ġtour": 6482,
      "Ġdoktrin": 6483,
      "Ġmenyelenggarakan": 6484,
      "Ġtambang": 6485,
      "ventus": 6486,
      "ies": 6487,
      "len": 6488,
      "Ġnir": 6489,
      "Ġcib": 6490,
      "Ġgul": 6491,
      "Ġgib": 6492,
      "Ġdikaitkan": 6493,
      "Ġperbuatan": 6494,
      "dir": 6495,
      "vo": 6496,
      "work": 6497,
      "Ġperencanaan": 6498,
      "edak": 6499,
      "angkutan": 6500,
      "Ġuniversal": 6501,
      "Ġmahal": 6502,
      "Ġkuba": 6503,
      "erjakan": 6504,
      "anam": 6505,
      "Ġduduk": 6506,
      "Ġtib": 6507,
      "asemen": 6508,
      "Ġkeuskupan": 6509,
      "Ġhuman": 6510,
      "Ġpemegang": 6511,
      "Ġmass": 6512,
      "masin": 6513,
      "Ġpelajar": 6514,
      "Ġblack": 6515,
      "cobaan": 6516,
      "besaran": 6517,
      "dua": 6518,
      "kk": 6519,
      "tengah": 6520,
      "Ġpont": 6521,
      "Ġmemandang": 6522,
      "opter": 6523,
      "incin": 6524,
      "rahman": 6525,
      "Ġkotanya": 6526,
      "Ñģ": 6527,
      "Ġkain": 6528,
      "inir": 6529,
      "Ġlove": 6530,
      "Ġ(),": 6531,
      "Ġgrav": 6532,
      "omen": 6533,
      "atanya": 6534,
      "Ġox": 6535,
      "Ġkerjasama": 6536,
      "Ġsalib": 6537,
      "Ġkaryawan": 6538,
      "Ġdoktor": 6539,
      "alifikasi": 6540,
      "Ġkutub": 6541,
      "Ġkepadanya": 6542,
      "fiah": 6543,
      "ml": 6544,
      "rab": 6545,
      "sinya": 6546,
      "Ġtahanan": 6547,
      "awak": 6548,
      "Ġdisusun": 6549,
      "Ġbudi": 6550,
      "oyang": 6551,
      "Ġgenetik": 6552,
      "Ġotonom": 6553,
      "Ġpenjelasan": 6554,
      "Ġsenior": 6555,
      "Ġmemperkuat": 6556,
      "Ġkutai": 6557,
      "background": 6558,
      "jumlah": 6559,
      "pusat": 6560,
      "Ġline": 6561,
      "Ġdimak": 6562,
      "Ġberlin": 6563,
      "Ġtema": 6564,
      "kemudian": 6565,
      "Ġpdb": 6566,
      "galeri": 6567,
      "cia": 6568,
      "wangi": 6569,
      "emas": 6570,
      "Ġlit": 6571,
      "usa": 6572,
      "Ġkehadiran": 6573,
      "ayar": 6574,
      "masalah": 6575,
      "Ġbij": 6576,
      "Ġ400": 6577,
      "Ġmoz": 6578,
      "67": 6579,
      "pang": 6580,
      "sep": 6581,
      "Ġbuj": 6582,
      "Ġjari": 6583,
      "ario": 6584,
      "Ġmemindahkan": 6585,
      "angkit": 6586,
      "Ġparu": 6587,
      "Ġpelatih": 6588,
      "egaraan": 6589,
      "Ġpedesaan": 6590,
      "Ġsociety": 6591,
      "Ġkenaikan": 6592,
      "pasar": 6593,
      "Ġbambang": 6594,
      "Ġpemeran": 6595,
      "Ġmenyumb": 6596,
      "Ġkaz": 6597,
      "Ġimun": 6598,
      "Ġdistribusi": 6599,
      "Ġmikro": 6600,
      "Ġsekelompok": 6601,
      "Ġpersekutuan": 6602,
      "83": 6603,
      "ĠĠĊ": 6604,
      "Ġdec": 6605,
      "Ġberangkat": 6606,
      "Ġfam": 6607,
      "ativ": 6608,
      "maskapai": 6609,
      "Ġbiologi": 6610,
      "Ġberlokasi": 6611,
      "kritik": 6612,
      "Ġbulat": 6613,
      "ject": 6614,
      "sed": 6615,
      "erat": 6616,
      "opia": 6617,
      "Ġout": 6618,
      "rium": 6619,
      "Ġmaur": 6620,
      "Ġotak": 6621,
      "Ġmoj": 6622,
      "Ġsisanya": 6623,
      "Ġstrategi": 6624,
      "Ġmenurunkan": 6625,
      "ermin": 6626,
      "arm": 6627,
      "Ġrw": 6628,
      "tawan": 6629,
      "Ġmengingat": 6630,
      "osaan": 6631,
      "integ": 6632,
      "Ġasisten": 6633,
      "onald": 6634,
      "Ġmenghabiskan": 6635,
      "Ġdijelaskan": 6636,
      "Ġpenganut": 6637,
      "Ġmohammad": 6638,
      "hasilan": 6639,
      "kg": 6640,
      "Ġkajian": 6641,
      "Ġtw": 6642,
      "Ġlanjutan": 6643,
      "Ġjej": 6644,
      "ote": 6645,
      "uaya": 6646,
      "Ġmenyusun": 6647,
      "provinsi": 6648,
      "Ġpembukaan": 6649,
      "Ġberturut": 6650,
      "Ġfrance": 6651,
      "Ġmakin": 6652,
      "Ġpecah": 6653,
      "oleon": 6654,
      "wegia": 6655,
      "Ġkroasia": 6656,
      "Ġistanbul": 6657,
      "ls": 6658,
      "Ġmaksud": 6659,
      "Ġcac": 6660,
      "ede": 6661,
      "Ġkarb": 6662,
      "Ġalaska": 6663,
      "Ġtuduhan": 6664,
      "panjang": 6665,
      "ÑĢ": 6666,
      "Ġpasi": 6667,
      "Ġbbc": 6668,
      "Ġtarik": 6669,
      "ily": 6670,
      "Ġhimpunan": 6671,
      "Ġci": 6672,
      "upiter": 6673,
      "oku": 6674,
      "Ġmenyemb": 6675,
      "Ġairbus": 6676,
      "turut": 6677,
      "Ġotonomi": 6678,
      "Ġprofesor": 6679,
      "Ġbrunei": 6680,
      "54": 6681,
      "rak": 6682,
      "Ġgan": 6683,
      "Ġmengej": 6684,
      "ujung": 6685,
      "Ġdilaporkan": 6686,
      "Ġbait": 6687,
      "ns": 6688,
      "vir": 6689,
      "Ġud": 6690,
      "Ġtunt": 6691,
      "Ġjack": 6692,
      "Ġmary": 6693,
      "Ġawak": 6694,
      "Ġpekan": 6695,
      "Ġconc": 6696,
      "Ġperhitungan": 6697,
      "92": 6698,
      "wat": 6699,
      "Ð½": 6700,
      "Ġbra": 6701,
      "Ġbima": 6702,
      "ahulu": 6703,
      "ilo": 6704,
      "Ġhow": 6705,
      "Ġritual": 6706,
      "Ġnada": 6707,
      "ection": 6708,
      "ensif": 6709,
      "2011": 6710,
      "Ġmulti": 6711,
      "omotif": 6712,
      "Ġnukle": 6713,
      "Ġatlantik": 6714,
      "Ġadipati": 6715,
      "Ġfisiologi": 6716,
      "Ġkebangkitan": 6717,
      "Ġdvd": 6718,
      "Ġpita": 6719,
      "umas": 6720,
      "Ġmengajar": 6721,
      "Ġmeluas": 6722,
      "Ġkomod": 6723,
      "Ġkeset": 6724,
      "Ġ1954": 6725,
      "Ġdijalan": 6726,
      "1990": 6727,
      "Ġtersisa": 6728,
      "Ġdominan": 6729,
      "Ġlife": 6730,
      "hip": 6731,
      "sol": 6732,
      "usak": 6733,
      "Ġnic": 6734,
      "ido": 6735,
      "Ġpengobatan": 6736,
      "Ġmenyimp": 6737,
      "Ġdirek": 6738,
      "Ġshang": 6739,
      "Ġthat": 6740,
      "Ġdatar": 6741,
      "Ġ1939": 6742,
      "Ġdelta": 6743,
      "Ġkhalid": 6744,
      "eam": 6745,
      "alisi": 6746,
      "aklukan": 6747,
      "Ġyon": 6748,
      "idik": 6749,
      "Ġtetangga": 6750,
      "imbangkan": 6751,
      "1994": 6752,
      "elihara": 6753,
      "Ġsentral": 6754,
      "Ġpemakaman": 6755,
      "Ġlaju": 6756,
      "utaan": 6757,
      "Ġrancangan": 6758,
      "Ġmemastikan": 6759,
      "ewaskan": 6760,
      "Ġ34": 6761,
      "Ġkekurangan": 6762,
      "aft": 6763,
      "Ġnewton": 6764,
      "Ġkamu": 6765,
      "Ġpilot": 6766,
      "Ġperumahan": 6767,
      "nilai": 6768,
      "Ġpunya": 6769,
      "Ġbara": 6770,
      "Ġtarian": 6771,
      "Ġmemahami": 6772,
      "Ġadik": 6773,
      "Ġshah": 6774,
      "Ġpetern": 6775,
      "Ġfosil": 6776,
      "jad": 6777,
      "Ä±": 6778,
      "à¸": 6779,
      "Ġdius": 6780,
      "aduk": 6781,
      "Ġhik": 6782,
      "Ġrambut": 6783,
      "Ġsaid": 6784,
      "Ġdisimpan": 6785,
      "Ġmemperluas": 6786,
      "Ġmonarki": 6787,
      "Ġalgoritme": 6788,
      "ãģ": 6789,
      "Ġic": 6790,
      "Ġtong": 6791,
      "Ġmenewaskan": 6792,
      "Ġnen": 6793,
      "Ġnug": 6794,
      "upaya": 6795,
      "Ġkomb": 6796,
      "Ġlatihan": 6797,
      "Ġlogika": 6798,
      "Ġkematiannya": 6799,
      "Ġvisual": 6800,
      "Ġdusun": 6801,
      "Ġmuk": 6802,
      "ilia": 6803,
      "irman": 6804,
      "oslavia": 6805,
      "masalahan": 6806,
      "Ġterkena": 6807,
      "Ġsaleh": 6808,
      "Ġbunyi": 6809,
      "hatikan": 6810,
      "Ġmap": 6811,
      "Ġtahunnya": 6812,
      "Ġkesej": 6813,
      "Ġmenghentikan": 6814,
      "Ġterlebih": 6815,
      "Ġroman": 6816,
      "Ġliar": 6817,
      "Ġtegal": 6818,
      "Ġpenyelenggaraan": 6819,
      "Ġsanskerta": 6820,
      "bak": 6821,
      "oul": 6822,
      "Ġtomb": 6823,
      "alib": 6824,
      "Ġberw": 6825,
      "Ġwik": 6826,
      "Ġ1918": 6827,
      "epal": 6828,
      "Ġ33": 6829,
      "Ġmanado": 6830,
      "Ġ1938": 6831,
      "Ġboj": 6832,
      "Ġguinea": 6833,
      "Ġkonteks": 6834,
      "Ġsirkuit": 6835,
      "antau": 6836,
      "ĠĊĠĊĠĊĠĊĠĊĠĊĠĊĠĊ": 6837,
      "Ġscience": 6838,
      "Ġaktivis": 6839,
      "jadi": 6840,
      "oi": 6841,
      "asakan": 6842,
      "gaya": 6843,
      "Ġjen": 6844,
      "Ġnah": 6845,
      "Ġpembebasan": 6846,
      "Ġdidefinisikan": 6847,
      "Ġfrasa": 6848,
      "Ġtertutup": 6849,
      "Ġdijumpai": 6850,
      "penghargaan": 6851,
      "board": 6852,
      "Ġyusuf": 6853,
      "Ġpythag": 6854,
      ":#": 6855,
      "center": 6856,
      "van": 6857,
      "Ġ×": 6858,
      "erre": 6859,
      "Ġbed": 6860,
      "Ġles": 6861,
      "Ġcam": 6862,
      "Ġpeneliti": 6863,
      "trad": 6864,
      "Ġ1944": 6865,
      "Ġterpaksa": 6866,
      "Ġsubjek": 6867,
      "02": 6868,
      "81": 6869,
      "yangkan": 6870,
      "Ġ<": 6871,
      "Ġemb": 6872,
      "Ġrun": 6873,
      "Ġperman": 6874,
      "iru": 6875,
      "Ġcamb": 6876,
      "Ġmenggabungkan": 6877,
      "okol": 6878,
      "perb": 6879,
      "ajang": 6880,
      "Ġstud": 6881,
      "Ġ747": 6882,
      "Ġteologi": 6883,
      "umbu": 6884,
      "Ġkue": 6885,
      "Ġsubur": 6886,
      "âĢĿ.": 6887,
      "Ġcair": 6888,
      "Ġepis": 6889,
      "Ġmandiri": 6890,
      "Ġnapoleon": 6891,
      "Ġkamboja": 6892,
      "uistik": 6893,
      "vel": 6894,
      "ahap": 6895,
      "Ġmenya": 6896,
      "Ġjet": 6897,
      "edar": 6898,
      "otop": 6899,
      "Ġjuventus": 6900,
      "mann": 6901,
      "Ġekonom": 6902,
      "Ġdrs": 6903,
      "Ġjohann": 6904,
      "Ġcalvin": 6905,
      "Ġdimanfaatkan": 6906,
      "asus": 6907,
      "Ġjay": 6908,
      "Ġinc": 6909,
      "ids": 6910,
      "Ġkabel": 6911,
      "Ġdimensi": 6912,
      "ondo": 6913,
      "Ġdicapai": 6914,
      "Ġkonstantin": 6915,
      "Ġputranya": 6916,
      "65": 6917,
      "pak": 6918,
      "Ġpercobaan": 6919,
      "ingrat": 6920,
      "ago": 6921,
      "Ġdiserahkan": 6922,
      "aksikan": 6923,
      "Ġtransisi": 6924,
      "uliah": 6925,
      "Ġsesungguhnya": 6926,
      "Ġcorpor": 6927,
      "ontrol": 6928,
      "Ġmaksimum": 6929,
      "jan": 6930,
      "rujukan": 6931,
      "eni": 6932,
      "Ġberumur": 6933,
      "Ġcd": 6934,
      "Ġpenonton": 6935,
      "Ġmelebih": 6936,
      "Ġdipegang": 6937,
      "82": 6938,
      "distrik": 6939,
      "kul": 6940,
      "Ġsayang": 6941,
      "esik": 6942,
      "Ġmemicu": 6943,
      "Ġpertanyaan": 6944,
      "ilikon": 6945,
      "Ġkolombia": 6946,
      "Ġxi": 6947,
      "Ġleon": 6948,
      "raham": 6949,
      "gagalan": 6950,
      "Ġengk": 6951,
      "enangkan": 6952,
      "ated": 6953,
      "Ġkib": 6954,
      "Ġbid": 6955,
      "Ġpersonel": 6956,
      "onso": 6957,
      "Ġgeneral": 6958,
      "Ġkewajiban": 6959,
      "ography": 6960,
      "Ġassociation": 6961,
      "lib": 6962,
      "pura": 6963,
      "yur": 6964,
      "Ġyord": 6965,
      "Ġruangan": 6966,
      "ekh": 6967,
      "ude": 6968,
      "Ġ250": 6969,
      "Ġpengolahan": 6970,
      "2012": 6971,
      "Ġpost": 6972,
      "Ġpotensial": 6973,
      "Ġnorwegia": 6974,
      "84": 6975,
      "jar": 6976,
      "jakarta": 6977,
      "Ġoman": 6978,
      "Ġtu": 6979,
      "Ġdihad": 6980,
      "Ġlambat": 6981,
      "Ġmena": 6982,
      "Ġjupiter": 6983,
      "Ġberapi": 6984,
      "Ġrub": 6985,
      "Ġterit": 6986,
      "ekomunikasi": 6987,
      "etimologi": 6988,
      "Ġpemul": 6989,
      "Ġandr": 6990,
      "Ġ1933": 6991,
      "Ġinvest": 6992,
      "Ġpurworejo": 6993,
      "Ġjulukan": 6994,
      "Ġjas": 6995,
      "Ġrup": 6996,
      "Ġriv": 6997,
      "Ġterendah": 6998,
      "Ġgurun": 6999,
      "tipe": 7000,
      "ampur": 7001,
      "Ġerat": 7002,
      "1996": 7003,
      "Ġketerangan": 7004,
      "Ġambon": 7005,
      "Ġmenegaskan": 7006,
      "Ġtoyota": 7007,
      "Ġobligasi": 7008,
      "97": 7009,
      "led": 7010,
      "zeg": 7011,
      "Ġdeg": 7012,
      "Ġsop": 7013,
      "Ġkapan": 7014,
      "isahan": 7015,
      "Ġfas": 7016,
      "ambung": 7017,
      "Ġkerap": 7018,
      "Ġstock": 7019,
      "Ġkompas": 7020,
      "Ġanaknya": 7021,
      "Ġmiss": 7022,
      "satuan": 7023,
      "Ġmengelola": 7024,
      "Ġpembawa": 7025,
      "Ġterhubung": 7026,
      "ben": 7027,
      "td": 7028,
      "ĠØ§ÙĦ": 7029,
      "anz": 7030,
      "Ġkaca": 7031,
      "inum": 7032,
      "Ġrunt": 7033,
      "Ġrupa": 7034,
      "Ġroda": 7035,
      "Ġcincin": 7036,
      "Ġpengawasan": 7037,
      "evolusi": 7038,
      "Ġdirencanakan": 7039,
      "ofi": 7040,
      "Ġberjarak": 7041,
      "Ġbanjir": 7042,
      "Ġbanjarmasin": 7043,
      "sungai": 7044,
      "Ġsempurna": 7045,
      "onjol": 7046,
      "well": 7047,
      "erai": 7048,
      "iawan": 7049,
      "irat": 7050,
      "Ġvarian": 7051,
      "Ġdibawah": 7052,
      "Ġmadinah": 7053,
      "Ġoposisi": 7054,
      "penduduk": 7055,
      "injaman": 7056,
      "mp": 7057,
      "Ġsad": 7058,
      "Ġbint": 7059,
      "olasi": 7060,
      "Ġret": 7061,
      "etus": 7062,
      "edral": 7063,
      "Ġmenyetujui": 7064,
      "Ġutang": 7065,
      "1992": 7066,
      "Ġremaja": 7067,
      "Ġmunisipalitas": 7068,
      "07": 7069,
      "nologi": 7070,
      "Ġkah": 7071,
      "Ġsewaktu": 7072,
      "Ġmenjawab": 7073,
      "Ġbelerang": 7074,
      "under": 7075,
      "tarik": 7076,
      "Ġmanchester": 7077,
      "album": 7078,
      "Ġpermanen": 7079,
      "bulan": 7080,
      "ball": 7081,
      "iasaan": 7082,
      "Ø±": 7083,
      "enia": 7084,
      "Ġmandar": 7085,
      "Ġkeenam": 7086,
      "Ġhigh": 7087,
      "Ġindeks": 7088,
      "Ġkarl": 7089,
      "Ġrevolusioner": 7090,
      "Ġleluhur": 7091,
      "bolehkan": 7092,
      "mit": 7093,
      "rut": 7094,
      "orf": 7095,
      "otesis": 7096,
      "Ġpengunjung": 7097,
      "Ġbaris": 7098,
      "Ġkomik": 7099,
      "Ġharta": 7100,
      "Ġfront": 7101,
      "Ġ...": 7102,
      "Ġberperang": 7103,
      "gam": 7104,
      "log": 7105,
      "pah": 7106,
      "wana": 7107,
      "Ġperahu": 7108,
      "Ġpengeb": 7109,
      "Ġalian": 7110,
      "ovina": 7111,
      "ĠĠĠ": 7112,
      "Ġbalap": 7113,
      "Ġmengenakan": 7114,
      "Ġaji": 7115,
      "Ġletkol": 7116,
      "Ġvitamin": 7117,
      "Ġoxford": 7118,
      "elapan": 7119,
      "esco": 7120,
      "Ġfort": 7121,
      "entasikan": 7122,
      "Ġmusisi": 7123,
      "Ġsosi": 7124,
      "Ġsumur": 7125,
      "Ġone": 7126,
      "Ġmadrid": 7127,
      "Ġuji": 7128,
      "Ġevolusi": 7129,
      "Ġvirgin": 7130,
      "Ġbelahan": 7131,
      "Ġspesifik": 7132,
      "idi": 7133,
      "oskop": 7134,
      "Ġpengukuran": 7135,
      "Ġmembatasi": 7136,
      "asila": 7137,
      "Ġmaroko": 7138,
      "Ġdipisahkan": 7139,
      "Ġhalus": 7140,
      "artisipasi": 7141,
      "lihatkan": 7142,
      "Ġobser": 7143,
      "Ġsiklus": 7144,
      "Ġjose": 7145,
      "erkosaan": 7146,
      "Ġrumpun": 7147,
      "fo": 7148,
      "mil": 7149,
      "Ġ*": 7150,
      "Ġpanggung": 7151,
      "aro": 7152,
      "Ġtj": 7153,
      "Ġtra": 7154,
      "Ġintr": 7155,
      "Ġner": 7156,
      "Ġnel": 7157,
      "Ġpemahaman": 7158,
      "Ġsemula": 7159,
      "Ġdaud": 7160,
      "Ġpesantren": 7161,
      "Ġhasilnya": 7162,
      "Ġpatr": 7163,
      "yanmar": 7164,
      "Ġmelebihi": 7165,
      "gasi": 7166,
      "Ġsug": 7167,
      "arch": 7168,
      "Ġyeh": 7169,
      "Ġmengisi": 7170,
      "Ġfiksi": 7171,
      "Ġmete": 7172,
      "1993": 7173,
      "ques": 7174,
      "Ġserius": 7175,
      "Ġyugoslavia": 7176,
      "Ġberkebangsaan": 7177,
      "bintang": 7178,
      "lish": 7179,
      "pat": 7180,
      "pariwisata": 7181,
      "Ġmach": 7182,
      "Ġpakar": 7183,
      "arn": 7184,
      "Ġmenangkap": 7185,
      "Ġjombang": 7186,
      "Ġaut": 7187,
      "opedia": 7188,
      "Ġmenyerah": 7189,
      "Ġdikalahkan": 7190,
      "ivia": 7191,
      "2019": 7192,
      "Ġdimainkan": 7193,
      "Ġbaga": 7194,
      "Ġ737": 7195,
      "Ġ1951": 7196,
      "Ġforum": 7197,
      "Ġriwayat": 7198,
      "ahteraan": 7199,
      "basi": 7200,
      "wara": 7201,
      "inaan": 7202,
      "inasikan": 7203,
      "ikatan": 7204,
      "Ġnatur": 7205,
      "trop": 7206,
      "Ġstand": 7207,
      "Ġelectr": 7208,
      "Ġenzim": 7209,
      "Ġsusunan": 7210,
      "Ġwales": 7211,
      "pemerintah": 7212,
      "Ġkerusuhan": 7213,
      "Ġski": 7214,
      "Ġbuaya": 7215,
      "Ġkeadilan": 7216,
      "Ġaud": 7217,
      "sih": 7218,
      "Ġprom": 7219,
      "Ġserver": 7220,
      "Ġmaster": 7221,
      "Ġkomis": 7222,
      "Ġdibatasi": 7223,
      "Ġdrum": 7224,
      "Ġpaksa": 7225,
      "Ġdikelilingi": 7226,
      "Ġkaribia": 7227,
      "Ġoperasional": 7228,
      "Ġrowspan": 7229,
      "Ġhendak": 7230,
      "bs": 7231,
      "masi": 7232,
      "Ġmain": 7233,
      "alisme": 7234,
      "Ġluka": 7235,
      "orogo": 7236,
      "Ġperbaikan": 7237,
      "ebra": 7238,
      "Ġmembuktikan": 7239,
      "ipp": 7240,
      "empah": 7241,
      "2015": 7242,
      "Ġtanggung": 7243,
      "onda": 7244,
      "Ġpenjajahan": 7245,
      "juga": 7246,
      "Ġofficial": 7247,
      "esuaikan": 7248,
      "93": 7249,
      "Ġklaim": 7250,
      "Ġbapa": 7251,
      "Ġbadai": 7252,
      "Ġraf": 7253,
      "Ġfal": 7254,
      "Ġpembantu": 7255,
      "Ġawan": 7256,
      "Ġmahab": 7257,
      "rann": 7258,
      "ridge": 7259,
      "barang": 7260,
      "arahan": 7261,
      "Ġlantai": 7262,
      "Ġkegagalan": 7263,
      "uro": 7264,
      "utkan": 7265,
      "Ġtertarik": 7266,
      "Ġaleks": 7267,
      "intis": 7268,
      "itiga": 7269,
      "Ġbursa": 7270,
      "Ġperiod": 7271,
      "Ġpanggilan": 7272,
      "Ġdijalankan": 7273,
      "64": 7274,
      "fe": 7275,
      "tanda": 7276,
      "Ġmenonjol": 7277,
      "Ġray": 7278,
      "okimia": 7279,
      "opel": 7280,
      "stasiun": 7281,
      "Ġpelajaran": 7282,
      "Ġapost": 7283,
      "Ġminum": 7284,
      "etail": 7285,
      "Ġberpartisipasi": 7286,
      "Ġkoalisi": 7287,
      "Ġabdur": 7288,
      "Ġmanajer": 7289,
      "omatis": 7290,
      "iel": 7291,
      "reg": 7292,
      "Ġdor": 7293,
      "Ġbec": 7294,
      "Ġseekor": 7295,
      "Ġlum": 7296,
      "ilya": 7297,
      "orsi": 7298,
      "Ġpram": 7299,
      "Ġabraham": 7300,
      "Ġgerak": 7301,
      "Ġmurah": 7302,
      "Ġmoral": 7303,
      "Ġtergolong": 7304,
      "Ġpemberontak": 7305,
      "Ġtamu": 7306,
      "Ġpidato": 7307,
      "republik": 7308,
      "Ġbum": 7309,
      "Ġlampu": 7310,
      "ulat": 7311,
      "Ġcorn": 7312,
      "Ġadapun": 7313,
      "ose": 7314,
      "Ġpasc": 7315,
      "Ġchar": 7316,
      "Ġsurga": 7317,
      "Ġradikal": 7318,
      "lembaga": 7319,
      "Ġletnan": 7320,
      "'.": 7321,
      "kej": 7322,
      "yaran": 7323,
      "Ġpia": 7324,
      "Ġpower": 7325,
      "Ġtant": 7326,
      "ibus": 7327,
      "Ġ2023": 7328,
      "Ġditambahkan": 7329,
      "Ġterdekat": 7330,
      "Ġdilanjutkan": 7331,
      "Ġdirektorat": 7332,
      "iji": 7333,
      "Ġletusan": 7334,
      "sementara": 7335,
      "Ġpek": 7336,
      "itat": 7337,
      "ilitas": 7338,
      "Ġrc": 7339,
      "Ġditolak": 7340,
      "Ġath": 7341,
      "Ġpembel": 7342,
      "Ġacadem": 7343,
      "Ġmembagi": 7344,
      "Ġotot": 7345,
      "field": 7346,
      "Ġlarangan": 7347,
      "Ġcolumb": 7348,
      "Ġnetral": 7349,
      "Ġinsiden": 7350,
      "Ġpasien": 7351,
      "Ġnenek": 7352,
      "satu": 7353,
      "Ġmek": 7354,
      "Ġwujud": 7355,
      "Ġfon": 7356,
      "Ġprim": 7357,
      "Ġpertambangan": 7358,
      "Ġsehat": 7359,
      "Ġtelekomunikasi": 7360,
      "astik": 7361,
      "Ġular": 7362,
      "Ġbasah": 7363,
      "zegovina": 7364,
      "fir": 7365,
      "Ġmpr": 7366,
      "ush": 7367,
      "embahan": 7368,
      "Ġkaret": 7369,
      "Ġmassal": 7370,
      "Ġketat": 7371,
      "Ġpembuat": 7372,
      "Ġkedalaman": 7373,
      "status": 7374,
      "Ġdiperd": 7375,
      "lav": 7376,
      "Ġinfant": 7377,
      "Ġsiang": 7378,
      "Ġmenandai": 7379,
      "Ġmengusulkan": 7380,
      "Ġkombinasi": 7381,
      "Ġkesejahteraan": 7382,
      "ĪĴ": 7383,
      "Ġtas": 7384,
      "Ġlamp": 7385,
      "Ġlolos": 7386,
      "Ġ(;": 7387,
      "Ġ1928": 7388,
      "Ġserang": 7389,
      "Ġkerangka": 7390,
      "Ġpelunc": 7391,
      "Ġpesta": 7392,
      "Ġmemperbaiki": 7393,
      "engka": 7394,
      "Ġimper": 7395,
      "Ġimigran": 7396,
      "Ġpenerbit": 7397,
      "Ġpelayaran": 7398,
      "Ġnatal": 7399,
      "Ġrohani": 7400,
      "91": 7401,
      "gu": 7402,
      "Ġshe": 7403,
      "Ġberguna": 7404,
      "uluki": 7405,
      "Ġpermasalahan": 7406,
      "Ġwajah": 7407,
      "ative": 7408,
      "Ġmenyadari": 7409,
      "aktik": 7410,
      "Ġkebakaran": 7411,
      "Ġintelek": 7412,
      "oklamasi": 7413,
      "Ġdimakamkan": 7414,
      "anga": 7415,
      "Ġbeng": 7416,
      "Ġbil": 7417,
      "Ġlan": 7418,
      "Ġlimb": 7419,
      "Ġjal": 7420,
      "ody": 7421,
      "Ġditemp": 7422,
      "Ġutusan": 7423,
      "Ġlazim": 7424,
      "Ġmedali": 7425,
      "Ġturunan": 7426,
      "ross": 7427,
      "larasi": 7428,
      "Ġkai": 7429,
      "Ġler": 7430,
      "Ġlomba": 7431,
      "Ġberulang": 7432,
      "Ġinst": 7433,
      "Ġterang": 7434,
      "Ġpenangg": 7435,
      "abol": 7436,
      "Ġbiz": 7437,
      "Ġlautan": 7438,
      "2020": 7439,
      "grup": 7440,
      "Ġmetro": 7441,
      "Ġplas": 7442,
      "Ġcontr": 7443,
      "Ġpelanggaran": 7444,
      "94": 7445,
      "raj": 7446,
      "ville": 7447,
      "Ġmala": 7448,
      "assi": 7449,
      "aden": 7450,
      "ikoden": 7451,
      "Ġjean": 7452,
      "Ġcup": 7453,
      "ejaan": 7454,
      "Ġtex": 7455,
      "Ġsegitiga": 7456,
      "Ġeksper": 7457,
      "Ġhabib": 7458,
      "Ġgame": 7459,
      "Ġkin": 7460,
      "ahl": 7461,
      "Ġreferensi": 7462,
      "Ġrabi": 7463,
      "ingati": 7464,
      "Ġvulkan": 7465,
      "Ġbarisan": 7466,
      "Ġkepres": 7467,
      "Ġdibebaskan": 7468,
      "ecual": 7469,
      "ific": 7470,
      "ardo": 7471,
      "Ġstate": 7472,
      "Ġhidayat": 7473,
      "Ġmemperkirakan": 7474,
      "kesmas": 7475,
      "igurasi": 7476,
      "Ġaliansi": 7477,
      "his": 7478,
      "kor": 7479,
      "sl": 7480,
      "tin": 7481,
      "Ġmig": 7482,
      "Ġkw": 7483,
      "esp": 7484,
      "Ġjantan": 7485,
      "ando": 7486,
      "Ġalf": 7487,
      "Ġkarangan": 7488,
      "Ġtimes": 7489,
      "afs": 7490,
      "Ġkonsumen": 7491,
      "Ġ1943": 7492,
      "Ġsaturn": 7493,
      "pener": 7494,
      "adewa": 7495,
      "Ġrusak": 7496,
      "Ġvalent": 7497,
      "Ġhilir": 7498,
      "jika": 7499,
      "Ġdibedakan": 7500,
      "Ġhaiti": 7501,
      "Ġlibr": 7502,
      "elajah": 7503,
      "Ġrestoran": 7504,
      "Ġbugis": 7505,
      "Ġkomoditas": 7506,
      "ausan": 7507,
      "rejo": 7508,
      "Ġmalah": 7509,
      "Ġbit": 7510,
      "Ġhill": 7511,
      "olakan": 7512,
      "Ġterikat": 7513,
      "Ġmengendalikan": 7514,
      "prof": 7515,
      "Ġchris": 7516,
      "2013": 7517,
      "ardi": 7518,
      "Ġturnamen": 7519,
      "Ġdepok": 7520,
      "Ġsubsp": 7521,
      "Ġmempromosikan": 7522,
      "Ġdisertai": 7523,
      "Ġpeternakan": 7524,
      "sb": 7525,
      "áĨ": 7526,
      "Ġdebut": 7527,
      "Ġdiumumkan": 7528,
      "onim": 7529,
      "oras": 7530,
      "Ġhancur": 7531,
      "ebatan": 7532,
      "Ġtahan": 7533,
      "ogle": 7534,
      "erson": 7535,
      "Ġkhan": 7536,
      "Ġpanen": 7537,
      "Ġ65": 7538,
      "Ġterpenting": 7539,
      "gabungan": 7540,
      "Ġsriwijaya": 7541,
      "Ġholland": 7542,
      "Ġbrigjen": 7543,
      "Ġcommun": 7544,
      "Ġkredit": 7545,
      "Ġdang": 7546,
      "Ġpis": 7547,
      "atukan": 7548,
      "Ġkuliah": 7549,
      "Ġketi": 7550,
      "Ġperanan": 7551,
      "Ġpenasihat": 7552,
      "Ġmerc": 7553,
      "ohol": 7554,
      "Ġwartawan": 7555,
      "Ġpetr": 7556,
      "Ġprofil": 7557,
      "Ġdomin": 7558,
      "Ġopen": 7559,
      "Ġtegangan": 7560,
      "Ġmekanisme": 7561,
      "Ġsomalia": 7562,
      "pesawat": 7563,
      "eente": 7564,
      "nov": 7565,
      "arg": 7566,
      "Ġbaptis": 7567,
      "amis": 7568,
      "itia": 7569,
      "ulingkan": 7570,
      "iannya": 7571,
      "Ġwater": 7572,
      "awasi": 7573,
      "osistem": 7574,
      "Ġmembentang": 7575,
      "Ġtiang": 7576,
      "Ġberbahaya": 7577,
      "artikan": 7578,
      "Ġtemper": 7579,
      "Ġkontak": 7580,
      "Ġbetina": 7581,
      "hungaria": 7582,
      "Ðº": 7583,
      "amati": 7584,
      "amana": 7585,
      "adaran": 7586,
      "Ġjab": 7587,
      "Ġroll": 7588,
      "ulusan": 7589,
      "Ġpenambahan": 7590,
      "indo": 7591,
      "Ġberkumpul": 7592,
      "este": 7593,
      "Ġmenghormati": 7594,
      "Ġorder": 7595,
      "Ġkorps": 7596,
      "Ġ1937": 7597,
      "Ġmulanya": 7598,
      "Ġpembayaran": 7599,
      "Ġkakek": 7600,
      "rowspan": 7601,
      "Ġpublic": 7602,
      "hubungan": 7603,
      "wood": 7604,
      "Ġppi": 7605,
      "Ġbasil": 7606,
      "olok": 7607,
      "osta": 7608,
      "Ġkelamin": 7609,
      "unduran": 7610,
      "Ġkebiasaan": 7611,
      "Ġjumlahnya": 7612,
      "Ġfilos": 7613,
      "Ġkanal": 7614,
      "Ġbiro": 7615,
      "ristenan": 7616,
      "emukakan": 7617,
      "62": 7618,
      "68": 7619,
      "luan": 7620,
      "samp": 7621,
      "Ġuran": 7622,
      "aruan": 7623,
      "Ġtut": 7624,
      "urch": 7625,
      "Ġmengadopsi": 7626,
      "okar": 7627,
      "Ġvinc": 7628,
      "Ġketujuh": 7629,
      "Ġisu": 7630,
      "Ġmarga": 7631,
      "undam": 7632,
      "onsumsi": 7633,
      "Ġklasifikasi": 7634,
      "Ġlebanon": 7635,
      "Ġpersiapan": 7636,
      "Ġyordania": 7637,
      "wati": 7638,
      "Ġpinjaman": 7639,
      "ull": 7640,
      "ianus": 7641,
      "tiwa": 7642,
      "able": 7643,
      "Ġ37": 7644,
      "ugaskan": 7645,
      "Ġsengaja": 7646,
      "Ġpancasila": 7647,
      "likan": 7648,
      "Ġsastr": 7649,
      "Ġledakan": 7650,
      "Ġjuru": 7651,
      "Ġvert": 7652,
      "anyikan": 7653,
      "Ġatap": 7654,
      "ector": 7655,
      "Ġpolimer": 7656,
      "Ġirian": 7657,
      "Ġmenikmati": 7658,
      "Ġtyrann": 7659,
      "Ġpenyimpanan": 7660,
      ";\"": 7661,
      "cam": 7662,
      "Ġsint": 7663,
      "aritas": 7664,
      "Ġladang": 7665,
      "Ġpenetapan": 7666,
      "ayasa": 7667,
      "Ġdibantu": 7668,
      "Ġkres": 7669,
      "Ġkritis": 7670,
      "akau": 7671,
      "Ġbertentangan": 7672,
      "Ġdides": 7673,
      "Ġ98": 7674,
      "Ġpenerapan": 7675,
      "Ġmenghadiri": 7676,
      "Ġtipis": 7677,
      "Ġintelektual": 7678,
      "iy": 7679,
      "kri": 7680,
      "Ġmyanmar": 7681,
      "Ġsilikon": 7682,
      "adip": 7683,
      "Ġ75": 7684,
      "Ġedward": 7685,
      "ng": 7686,
      "wanya": 7687,
      "Ġkasar": 7688,
      "utra": 7689,
      "iriman": 7690,
      "Ġwork": 7691,
      "ague": 7692,
      "Ġakh": 7693,
      "Ġkepausan": 7694,
      "Ġpembakaran": 7695,
      "Ġrumania": 7696,
      "1991": 7697,
      "kepala": 7698,
      "Ġtangerang": 7699,
      "Ġponorogo": 7700,
      "Ġpenyair": 7701,
      "asana": 7702,
      "Ġberalih": 7703,
      "Ġdisetujui": 7704,
      "station": 7705,
      "Ġspec": 7706,
      "Ġanggur": 7707,
      "artika": 7708,
      "idae": 7709,
      "Ġhamil": 7710,
      "akna": 7711,
      "Ġseper": 7712,
      "Ġprimer": 7713,
      "Ġdipanggil": 7714,
      "Ġairport": 7715,
      "Ġpelindung": 7716,
      "Ġmenghilangkan": 7717,
      "onder": 7718,
      "Ġkualifikasi": 7719,
      "Ġproject": 7720,
      "Ġkeperluan": 7721,
      "Ġpraktis": 7722,
      "semb": 7723,
      "Ġmade": 7724,
      "ako": 7725,
      "eteksi": 7726,
      "Ġprov": 7727,
      "edo": 7728,
      "arankan": 7729,
      "Ġsuami": 7730,
      "Ġeksk": 7731,
      "Ġspektr": 7732,
      "Ġperbandingan": 7733,
      "Ġmagelang": 7734,
      "Ġmenyelamatkan": 7735,
      "Ġseharusnya": 7736,
      "Ġpersaingan": 7737,
      "Ġbujur": 7738,
      "Ġtuntutan": 7739,
      "bat": 7740,
      "rt": 7741,
      "Ġpic": 7742,
      "atom": 7743,
      "alon": 7744,
      "ison": 7745,
      "arag": 7746,
      "Ġ120": 7747,
      "ianya": 7748,
      "otensi": 7749,
      "Ġpemerik": 7750,
      "Ġkargo": 7751,
      "Ġkonon": 7752,
      "Ġdipasang": 7753,
      "Ġbertahap": 7754,
      "Ġkristal": 7755,
      "Ġurban": 7756,
      "1988": 7757,
      "Ġpenghubung": 7758,
      "uwangi": 7759,
      "Ġsemenjak": 7760,
      "encycl": 7761,
      "Ġhanyalah": 7762,
      "Ġpenangkapan": 7763,
      "valu": 7764,
      "xi": 7765,
      "Ġtand": 7766,
      "Ġcons": 7767,
      "Ġproklamasi": 7768,
      "Ġ1917": 7769,
      "prinsip": 7770,
      "Ġmendominasi": 7771,
      "Ġkolam": 7772,
      "Ġkoperasi": 7773,
      "Ġdomain": 7774,
      "Ġosaka": 7775,
      "Ġmenandakan": 7776,
      "Ġternak": 7777,
      "Ġeconom": 7778,
      "Ġtajam": 7779,
      "Ġkomisaris": 7780,
      "Ġmahabharata": 7781,
      "bangan": 7782,
      "ken": 7783,
      "lek": 7784,
      "new": 7785,
      "pop": 7786,
      "Ġhim": 7787,
      "eti": 7788,
      "idasi": 7789,
      "ianak": 7790,
      "Ġwahana": 7791,
      "Ġadv": 7792,
      "ihatan": 7793,
      "Ġpemerkosaan": 7794,
      "angkal": 7795,
      "Ġkonsumsi": 7796,
      "anka": 7797,
      "Ġpermukiman": 7798,
      "1989": 7799,
      "Ġkeberhasilan": 7800,
      "Ġrefer": 7801,
      "%).": 7802,
      "Ġá": 7803,
      "Ġjama": 7804,
      "Ġhebat": 7805,
      "Ġpenutup": 7806,
      "Ġamir": 7807,
      "ecahkan": 7808,
      "Ġanggotanya": 7809,
      "Ġberhak": 7810,
      "Ġpenerbitan": 7811,
      "Ġsamar": 7812,
      "Ġpemandangan": 7813,
      "buc": 7814,
      "juk": 7815,
      "tulis": 7816,
      "akia": 7817,
      "Ġnil": 7818,
      "baya": 7819,
      "Ġdisediakan": 7820,
      "Ġpelukis": 7821,
      "Ġlaos": 7822,
      "Ġgresik": 7823,
      "ograd": 7824,
      "Ġdihitung": 7825,
      "Ġkadar": 7826,
      "fl": 7827,
      "lebih": 7828,
      "yd": 7829,
      "Ġmini": 7830,
      "ited": 7831,
      "Ġpenjaga": 7832,
      "awin": 7833,
      "Ġpengas": 7834,
      "Ġantoni": 7835,
      "yaratan": 7836,
      "Ġotomatis": 7837,
      "Ġbukunya": 7838,
      "Ġperluasan": 7839,
      "kepulauan": 7840,
      "Ġservice": 7841,
      "Ġpsikologi": 7842,
      "Ġhektare": 7843,
      "ous": 7844,
      "shev": 7845,
      "Ġencycl": 7846,
      "Ġlurus": 7847,
      "imaan": 7848,
      "Ġmemori": 7849,
      "Ġmerayakan": 7850,
      "ederasi": 7851,
      "empurn": 7852,
      "Ġann": 7853,
      "Ġpembangkit": 7854,
      "Ġtrin": 7855,
      "Ġ38": 7856,
      "ulistiwa": 7857,
      "Ġkoran": 7858,
      "Ġtransfer": 7859,
      "Ġbermakna": 7860,
      "Ġelektrom": 7861,
      "Ġmenghadap": 7862,
      "Ġarsitek": 7863,
      "Ġwahid": 7864,
      "Ġhipotesis": 7865,
      "Ġdharma": 7866,
      "Ġcorporation": 7867,
      "Ġengkau": 7868,
      "langga": 7869,
      "zon": 7870,
      "Ġdki": 7871,
      "Ġpn": 7872,
      "Ġtugu": 7873,
      "aparan": 7874,
      "Ġrawa": 7875,
      "Ġgud": 7876,
      "Ġ1929": 7877,
      "Ġpengaw": 7878,
      "Ġalbert": 7879,
      "ancuran": 7880,
      "obo": 7881,
      "ecahan": 7882,
      "Ġharun": 7883,
      "2018": 7884,
      "Ġpuskesmas": 7885,
      "iliasi": 7886,
      "Ġdihancurkan": 7887,
      "Ġsiprus": 7888,
      "Ġlabel": 7889,
      "Ġastronom": 7890,
      "Ġfrancisco": 7891,
      "Ġlereng": 7892,
      "may": 7893,
      "tanggal": 7894,
      "Ġpati": 7895,
      "Ġbambu": 7896,
      "ador": 7897,
      "Ġlive": 7898,
      "Ġberencana": 7899,
      "Ġmengembalikan": 7900,
      "ters": 7901,
      "Ġgerilya": 7902,
      "Ġgram": 7903,
      "untungkan": 7904,
      "Ġklan": 7905,
      "Ġpluto": 7906,
      "Ġ1932": 7907,
      "Ġskor": 7908,
      "Ġpatri": 7909,
      "Ġdianut": 7910,
      "dut": 7911,
      "Ġsq": 7912,
      "Ġson": 7913,
      "aring": 7914,
      "ahal": 7915,
      "iku": 7916,
      "Ġindones": 7917,
      "Ġpengiriman": 7918,
      "Ġkaren": 7919,
      "Ġvik": 7920,
      "Ġash": 7921,
      "anja": 7922,
      "uransi": 7923,
      "Ġnominasi": 7924,
      "Ġdenominasi": 7925,
      "antium": 7926,
      "uksesan": 7927,
      "61": 7928,
      "bin": 7929,
      "sul": 7930,
      "Ġå": 7931,
      "enh": 7932,
      "aha": 7933,
      "asian": 7934,
      "Ġserat": 7935,
      "aktur": 7936,
      "Ġberpikir": 7937,
      "Ġalbania": 7938,
      "Ġpedalaman": 7939,
      "Ġreform": 7940,
      "Ġkonserv": 7941,
      "Ġastronomi": 7942,
      "mud": 7943,
      "Ġdak": 7944,
      "Ġdiakses": 7945,
      "irik": 7946,
      "tag": 7947,
      "Ġmenger": 7948,
      "ituania": 7949,
      "Ġpendatang": 7950,
      "Ġatlet": 7951,
      "Ġparuh": 7952,
      "Ġzur": 7953,
      "penulis": 7954,
      "astis": 7955,
      "urnalis": 7956,
      "Ġkekuasaannya": 7957,
      "Ġmengelilingi": 7958,
      "infeksi": 7959,
      "itim": 7960,
      "Ġjapan": 7961,
      "Ġhangat": 7962,
      "Ġcia": 7963,
      "Ġpenaklukan": 7964,
      "okrasi": 7965,
      "into": 7966,
      "Ġmenyusul": 7967,
      "Ġditinggal": 7968,
      "Ġketentuan": 7969,
      "Ġanime": 7970,
      "Ġhall": 7971,
      "Ġterkecil": 7972,
      "Ġsunni": 7973,
      "Ġditandatangani": 7974,
      "Ġdevelop": 7975,
      "ĠÂ±": 7976,
      "Ġmenaklukkan": 7977,
      "Ġdieks": 7978,
      "amida": 7979,
      "esti": 7980,
      "Ġjurnal": 7981,
      "arau": 7982,
      "iani": 7983,
      "Ġprestasi": 7984,
      "Ġmanis": 7985,
      "Ġhard": 7986,
      "Ġgran": 7987,
      "ello": 7988,
      "Ġgold": 7989,
      "Ġgemeente": 7990,
      "jer": 7991,
      "kn": 7992,
      "kod": 7993,
      "Ġdeng": 7994,
      "Ġdri": 7995,
      "Ġsosok": 7996,
      "Ġrut": 7997,
      "Ġcont": 7998,
      "Ġges": 7999,
      "Ġsalju": 8000,
      "Ġpencarian": 8001,
      "Ġpaduan": 8002,
      "Ġtabung": 8003,
      "Ġmikr": 8004,
      "Ġkariernya": 8005,
      "Ġpublish": 8006,
      "Ġdiplomatik": 8007,
      "periode": 8008,
      "Ġgravitasi": 8009,
      "Ġkonstantinopel": 8010,
      "eropa": 8011,
      "iness": 8012,
      "esus": 8013,
      "Ġran": 8014,
      "umbai": 8015,
      "Ġgard": 8016,
      "Ġach": 8017,
      "Ġpertimbangan": 8018,
      "eve": 8019,
      "Ġtekst": 8020,
      "Ġturk": 8021,
      "Ġprotes": 8022,
      "Ġkoin": 8023,
      "vei": 8024,
      "Ġlarutan": 8025,
      "Ġgadis": 8026,
      "800": 8027,
      "lok": 8028,
      "rir": 8029,
      "sam": 8030,
      "enep": 8031,
      "Ġpapan": 8032,
      "Ġkans": 8033,
      "Ġhok": 8034,
      "Ġ().": 8035,
      "Ġbesarnya": 8036,
      "Ġterbunuh": 8037,
      "Ġberked": 8038,
      "Ġchurch": 8039,
      "Ġterlepas": 8040,
      "Ġtentu": 8041,
      "Ġdijuluki": 8042,
      "Ġproton": 8043,
      "Ġmulut": 8044,
      "annel": 8045,
      "kini": 8046,
      "Ð²": 8047,
      "umber": 8048,
      "ekiawan": 8049,
      "Ġwit": 8050,
      "ajikan": 8051,
      "ophy": 8052,
      "uard": 8053,
      "Ġmarah": 8054,
      "ensial": 8055,
      "Ġ1936": 8056,
      "Ġherzegovina": 8057,
      "Ġideologi": 8058,
      "Ġpameran": 8059,
      "reditasi": 8060,
      "Ġluther": 8061,
      "))": 8062,
      "jikan": 8063,
      "Ġdosa": 8064,
      "eno": 8065,
      "uny": 8066,
      "ele": 8067,
      "Ġgn": 8068,
      "ihir": 8069,
      "entase": 8070,
      "Ġmanag": 8071,
      "faeb": 8072,
      "Ġtembaga": 8073,
      "Ġpedang": 8074,
      "Ġnatrium": 8075,
      "Ġgugus": 8076,
      "celona": 8077,
      "Ġdimaksudkan": 8078,
      "Ġpontianak": 8079,
      "Ġstandard": 8080,
      "Ġapostolik": 8081,
      "09": 8082,
      "du": 8083,
      "Ġ),": 8084,
      "Ġsula": 8085,
      "inga": 8086,
      "Ġjuan": 8087,
      "olo": 8088,
      "endam": 8089,
      "Ġoc": 8090,
      "Ġmenyukai": 8091,
      "Ġsao": 8092,
      "Ġmarinir": 8093,
      "Ġinflasi": 8094,
      "Ġalamat": 8095,
      "illes": 8096,
      "struktur": 8097,
      "asifikasikan": 8098,
      "iskinan": 8099,
      "Ġhambatan": 8100,
      "lor": 8101,
      "pm": 8102,
      "Ġpari": 8103,
      "Ġtat": 8104,
      "Ġtap": 8105,
      "apuskan": 8106,
      "bay": 8107,
      "awinan": 8108,
      "wait": 8109,
      "otor": 8110,
      "Ġkemarau": 8111,
      "Ġsejati": 8112,
      "Ġkesadaran": 8113,
      "Ġpersem": 8114,
      "Ġkapuas": 8115,
      "Ġsyarif": 8116,
      "Ġiklan": 8117,
      "Ġgoogle": 8118,
      "earch": 8119,
      "ladesh": 8120,
      "Ġbengkulu": 8121,
      "badan": 8122,
      "oo": 8123,
      "oya": 8124,
      "isaran": 8125,
      "Ġmenahan": 8126,
      "Ġjin": 8127,
      "Ġwalau": 8128,
      "Ġditampilkan": 8129,
      "igan": 8130,
      "Ġbau": 8131,
      "Ġberlawanan": 8132,
      "Ġberpeng": 8133,
      "Ġstreet": 8134,
      "Ġperlahan": 8135,
      "Ġdprd": 8136,
      "Ġberkelanjutan": 8137,
      "Ġrcti": 8138,
      "Ġtemperatur": 8139,
      "Ġkresna": 8140,
      "furt": 8141,
      "rap": 8142,
      "Ġpup": 8143,
      "alumni": 8144,
      "Ġjurnalis": 8145,
      "Ġruk": 8146,
      "Ġmengidentifikasi": 8147,
      "okrat": 8148,
      "Ġparal": 8149,
      "Ġmarsh": 8150,
      "Ġpelaku": 8151,
      "Ġberbagi": 8152,
      "Ġlensa": 8153,
      "Ġfound": 8154,
      "Ġopera": 8155,
      "Ġhouse": 8156,
      "Ġpolitisi": 8157,
      "Ġkhatulistiwa": 8158,
      "benda": 8159,
      "hum": 8160,
      "jembatan": 8161,
      "lasifikasikan": 8162,
      "sil": 8163,
      "walaupun": 8164,
      "ask": 8165,
      "unus": 8166,
      "orra": 8167,
      "Ġmenjalin": 8168,
      "odon": 8169,
      "Ġmelancarkan": 8170,
      "Ġkerabat": 8171,
      "Ġkeraton": 8172,
      "Ġdinosaurus": 8173,
      "Ġdihukum": 8174,
      "1986": 8175,
      "situs": 8176,
      "Ġsanta": 8177,
      "sinyur": 8178,
      "Ġmongolia": 8179,
      "Ġkontroversi": 8180,
      "Ġkupang": 8181,
      "iaran": 8182,
      "kamp": 8183,
      "Ġsadar": 8184,
      "Ġkri": 8185,
      "Ġkuasa": 8186,
      "Ġkiner": 8187,
      "Ġbabi": 8188,
      "Ġjus": 8189,
      "Ġhon": 8190,
      "Ġcy": 8191,
      "iant": 8192,
      "Ġwaduk": 8193,
      "Ġseberang": 8194,
      "Ġkarna": 8195,
      "2016": 8196,
      "Ġ42": 8197,
      "Ġibn": 8198,
      "Ġsumenep": 8199,
      "Ġgenus": 8200,
      "Ġ1934": 8201,
      "Ġkepresidenan": 8202,
      "don": 8203,
      "ref": 8204,
      "Ġeb": 8205,
      "Ġsarah": 8206,
      "Ġkuta": 8207,
      "asy": 8208,
      "Ġlomb": 8209,
      "apar": 8210,
      "utus": 8211,
      "Ġgp": 8212,
      "Ġgemb": 8213,
      "udo": 8214,
      "andra": 8215,
      "Ġ1900": 8216,
      "ajinan": 8217,
      "ewi": 8218,
      "inder": 8219,
      "Ġsport": 8220,
      "Ġrepubl": 8221,
      "Ġdeklarasi": 8222,
      "ungguh": 8223,
      "Ġtuban": 8224,
      "Ġmenyebutnya": 8225,
      "Ġritus": 8226,
      "Ġliteratur": 8227,
      "erminkan": 8228,
      "08": 8229,
      "69": 8230,
      "mun": 8231,
      "inang": 8232,
      "inis": 8233,
      "Ġhor": 8234,
      "Ġgogh": 8235,
      "antang": 8236,
      "Ġpengajaran": 8237,
      "Ġpenggabungan": 8238,
      "Ġvii": 8239,
      "Ġ55": 8240,
      "Ġkatedral": 8241,
      "Ġemma": 8242,
      "Ġjohor": 8243,
      "Ġlibya": 8244,
      "klub": 8245,
      "Ġrumput": 8246,
      "Ġbersaudara": 8247,
      "Ġshanghai": 8248,
      "shevik": 8249,
      "enuhi": 8250,
      "Ġpay": 8251,
      "ulaan": 8252,
      "Ġcre": 8253,
      "abar": 8254,
      "Ġ1919": 8255,
      "edes": 8256,
      "Ġpengaturan": 8257,
      "Ġmendefinisikan": 8258,
      "Ġisotop": 8259,
      "Ġharfiah": 8260,
      "uci": 8261,
      "Ġberjuang": 8262,
      "Ġroad": 8263,
      "Ġhelik": 8264,
      "Ġbanyuwangi": 8265,
      "Ġpeluncuran": 8266,
      "bol": 8267,
      "seri": 8268,
      "enon": 8269,
      "ink": 8270,
      "Ġbasi": 8271,
      "unga": 8272,
      "Ġfem": 8273,
      "Ġdibubarkan": 8274,
      "Ġlayak": 8275,
      "Ġproperti": 8276,
      "Ġtopik": 8277,
      "Ġchiang": 8278,
      "agnetik": 8279,
      "Ġangeles": 8280,
      "Ġberharga": 8281,
      "Ġpythagoras": 8282,
      "bank": 8283,
      "tem": 8284,
      "Ġkaf": 8285,
      "Ġtingkatan": 8286,
      "alek": 8287,
      "Ġmenangg": 8288,
      "Ġreb": 8289,
      "Ġcetak": 8290,
      "Ġwijaya": 8291,
      "oke": 8292,
      "Ġvari": 8293,
      "anjangan": 8294,
      "Ġsuikoden": 8295,
      "Ġmenghitung": 8296,
      "oyan": 8297,
      "Ġmeyakini": 8298,
      "Ġkosong": 8299,
      "Ġsutra": 8300,
      "Ġproduser": 8301,
      "Ġinformation": 8302,
      "Ġgreat": 8303,
      "Ġefisien": 8304,
      "Ġtechnology": 8305,
      "Ġpersemakmuran": 8306,
      "roduksi": 8307,
      "Ġenter": 8308,
      "Ġkum": 8309,
      "Ġyu": 8310,
      "urai": 8311,
      "Ġberangg": 8312,
      "Ġberedar": 8313,
      "Ġ1914": 8314,
      "Ġvampir": 8315,
      "Ġbeban": 8316,
      "Ġresearch": 8317,
      "Ġsampah": 8318,
      "eau": 8319,
      "imanapun": 8320,
      "Ġsulfat": 8321,
      "ohonan": 8322,
      "right": 8323,
      "small": 8324,
      "Ġbersaing": 8325,
      "Ġvictoria": 8326,
      "bucks": 8327,
      "ces": 8328,
      "Ġpungg": 8329,
      "Ġsank": 8330,
      "intern": 8331,
      "Ġmenampung": 8332,
      "Ġunesco": 8333,
      "ents": 8334,
      "Ġdikunjungi": 8335,
      "pret": 8336,
      "Ġdisajikan": 8337,
      "Ġkesuksesan": 8338,
      "Ġkekristenan": 8339,
      "Ġkapital": 8340,
      "Ġdemonstr": 8341,
      "Ġkuningan": 8342,
      "Ġkanon": 8343,
      "Ġtarekat": 8344,
      "Ġnetwork": 8345,
      "Ġfried": 8346,
      "kb": 8347,
      "taman": 8348,
      "Ġ1927": 8349,
      "Ġ1926": 8350,
      "odes": 8351,
      "awancara": 8352,
      "Ġteles": 8353,
      "Ġserie": 8354,
      "Ġpurba": 8355,
      "Ġdemokratis": 8356,
      "omosom": 8357,
      "amadya": 8358,
      "Ġabdurrahman": 8359,
      "Ġsaturnus": 8360,
      "Ġlibrary": 8361,
      "Ġtyrannosaurus": 8362,
      "63": 8363,
      "jend": 8364,
      "Ġpla": 8365,
      "allah": 8366,
      "Ġdiesel": 8367,
      "Ġlanka": 8368,
      "uris": 8369,
      "ule": 8370,
      "Ġmenguntungkan": 8371,
      "Ġwood": 8372,
      "oph": 8373,
      "Ġdisahkan": 8374,
      "ancam": 8375,
      "Ġgregor": 8376,
      "Ġrumit": 8377,
      "âĢĿ,": 8378,
      "Ġsamudera": 8379,
      "Ġgandum": 8380,
      "can": 8381,
      "yod": 8382,
      "Ġmuka": 8383,
      "Ġpiano": 8384,
      "Ġtb": 8385,
      "amina": 8386,
      "Ġcn": 8387,
      "Ġmenginginkan": 8388,
      "Ġmengajarkan": 8389,
      "upan": 8390,
      "Ġwall": 8391,
      "Ġmerusak": 8392,
      "Ġsemasa": 8393,
      "ugian": 8394,
      "Ġgratis": 8395,
      "Ġandre": 8396,
      "uction": 8397,
      "Ġtoba": 8398,
      "Ġsky": 8399,
      "Ġangola": 8400,
      "Ġgading": 8401,
      "Ġtebal": 8402,
      "Ġkonservatif": 8403,
      "pad": 8404,
      "saya": 8405,
      "Ġsesi": 8406,
      "estr": 8407,
      "Ġlont": 8408,
      "Ġhot": 8409,
      "imat": 8410,
      "taf": 8411,
      "Ġway": 8412,
      "Ġformasi": 8413,
      "Ġanark": 8414,
      "Ġparam": 8415,
      "obud": 8416,
      "Ġairlangga": 8417,
      "arth": 8418,
      "Ġoksid": 8419,
      "astian": 8420,
      "Ġunion": 8421,
      "Ġdiselesaikan": 8422,
      "Ġcambridge": 8423,
      "Ġepisode": 8424,
      "Ġdevelopment": 8425,
      "Ġberkedudukan": 8426,
      "cle": 8427,
      "elektr": 8428,
      "Ġyos": 8429,
      "Ġyaman": 8430,
      "Ġvisi": 8431,
      "oharjo": 8432,
      "uarga": 8433,
      "obatkan": 8434,
      "Ġmars": 8435,
      "Ġterdaftar": 8436,
      "ever": 8437,
      "unting": 8438,
      "Ġperdebatan": 8439,
      "Ġkorawa": 8440,
      "ujudkan": 8441,
      "Ġrobin": 8442,
      "Ġacademy": 8443,
      "kos": 8444,
      "Ġdal": 8445,
      "Ġkok": 8446,
      "ingen": 8447,
      "idat": 8448,
      "Ġcas": 8449,
      "Ġgur": 8450,
      "Ġdengannya": 8451,
      "abut": 8452,
      "Ġtidaklah": 8453,
      "Ġmembela": 8454,
      "ambilan": 8455,
      "Ġ48": 8456,
      "lie": 8457,
      "aksara": 8458,
      "Ġperkawinan": 8459,
      "Ġkonfigurasi": 8460,
      "Ġfinis": 8461,
      "Ġbakal": 8462,
      "onstruksi": 8463,
      "av": 8464,
      "jawa": 8465,
      "Ġdulunya": 8466,
      "Ġmoyang": 8467,
      "Ġtasik": 8468,
      "adaptasi": 8469,
      "ingatkan": 8470,
      "bawa": 8471,
      "Ġselam": 8472,
      "Ġmasakan": 8473,
      "press": 8474,
      "Ġkedi": 8475,
      "Ġzebra": 8476,
      "Ġbiara": 8477,
      "Ġpersyaratan": 8478,
      "ofis": 8479,
      "Ġpasukannya": 8480,
      "Ġ1935": 8481,
      "Ġsamuel": 8482,
      "Ġsilat": 8483,
      "Ġglobalisasi": 8484,
      "Ġdubai": 8485,
      "Ġfisikawan": 8486,
      "Ġmekanika": 8487,
      "cepat": 8488,
      "penc": 8489,
      "ray": 8490,
      "Î½": 8491,
      "ÑĤ": 8492,
      "alun": 8493,
      "ady": 8494,
      "islam": 8495,
      "ike": 8496,
      "iai": 8497,
      "Ġrug": 8498,
      "Ġselaku": 8499,
      "Ġmelanggar": 8500,
      "opoli": 8501,
      "Ġalonso": 8502,
      "Ġkemiskinan": 8503,
      "Ġpembinaan": 8504,
      "Ġtakut": 8505,
      "ities": 8506,
      "Ġpenggemar": 8507,
      "Ġberakhirnya": 8508,
      "Ġakademik": 8509,
      "Ġlelaki": 8510,
      "Ġinfanteri": 8511,
      "dit": 8512,
      "dom": 8513,
      "syah": 8514,
      "Ġpura": 8515,
      "Ġlituania": 8516,
      "urusan": 8517,
      "Ġced": 8518,
      "Ġgig": 8519,
      "Ġmengkritik": 8520,
      "upai": 8521,
      "agu": 8522,
      "entian": 8523,
      "otan": 8524,
      "Ġbersek": 8525,
      "Ġpunah": 8526,
      "Ġstates": 8527,
      "Ġdomba": 8528,
      "Ġkamera": 8529,
      "Ġanalog": 8530,
      "obudur": 8531,
      "Ġkediaman": 8532,
      "fungsi": 8533,
      "gel": 8534,
      "ien": 8535,
      "Ġdc": 8536,
      "Ġpaten": 8537,
      "Ġjumat": 8538,
      "Ġnaf": 8539,
      "Ġcode": 8540,
      "egahan": 8541,
      "Ġtahta": 8542,
      "entik": 8543,
      "Ġsenilai": 8544,
      "uncak": 8545,
      "Ġgeologi": 8546,
      "Ġpenerimaan": 8547,
      "Ġkodam": 8548,
      "Ġinstruksi": 8549,
      "Ġgeometri": 8550,
      "Ġinvestor": 8551,
      "bangunan": 8552,
      "Ġdaw": 8553,
      "Ġmov": 8554,
      "Ġkli": 8555,
      "Ġtin": 8556,
      "ilid": 8557,
      "Ġcent": 8558,
      "Ġsaf": 8559,
      "objek": 8560,
      "Ġeku": 8561,
      "Ġsound": 8562,
      "Ġpersentase": 8563,
      "ungkapan": 8564,
      "Ġberlebihan": 8565,
      "Ġkurun": 8566,
      "Ġroti": 8567,
      "antaian": 8568,
      "Ġeuro": 8569,
      "Ġsasaran": 8570,
      "Ġsaraf": 8571,
      "odinamika": 8572,
      "Ġpemeriksaan": 8573,
      "600": 8574,
      "jaya": 8575,
      "ane": 8576,
      "alth": 8577,
      "Ġdiizinkan": 8578,
      "emba": 8579,
      "isia": 8580,
      "esidenan": 8581,
      "Ġlot": 8582,
      "Ġmengatasi": 8583,
      "Ġmengangkut": 8584,
      "egasi": 8585,
      "Ġpemisahan": 8586,
      "Ġkelaparan": 8587,
      "Ġmencerminkan": 8588,
      "Ġsoep": 8589,
      "Ġsenat": 8590,
      "Ġresiden": 8591,
      "unculan": 8592,
      "Ġnaga": 8593,
      "Ġprotokol": 8594,
      "Ġuud": 8595,
      "Ġcoun": 8596,
      "Ġpuncaknya": 8597,
      "kripsikan": 8598,
      "ecualian": 8599,
      "Ġkarenanya": 8600,
      "Ġdiajukan": 8601,
      "amik": 8602,
      "Ġrune": 8603,
      "Ġteratur": 8604,
      "Ġmemeluk": 8605,
      "abe": 8606,
      "perm": 8607,
      "epsi": 8608,
      "ewon": 8609,
      "Ġditemui": 8610,
      "Ġabadi": 8611,
      "Ġharv": 8612,
      "Ġminahasa": 8613,
      "Ġbangladesh": 8614,
      "Ġmemberit": 8615,
      "angkau": 8616,
      "Ġdicatat": 8617,
      "ware": 8618,
      "Ġsimon": 8619,
      "Ġpuluhan": 8620,
      "Ġletaknya": 8621,
      "ss": 8622,
      "sya": 8623,
      "erahan": 8624,
      "Ġskand": 8625,
      "Ġdiukur": 8626,
      "Ġrenang": 8627,
      "Ġrentang": 8628,
      "eth": 8629,
      "Ġkeman": 8630,
      "Ġsoed": 8631,
      "ingkatkan": 8632,
      "afr": 8633,
      "Ġgambaran": 8634,
      "ajibkan": 8635,
      "Ġmalaikat": 8636,
      "formasi": 8637,
      "sang": 8638,
      "Ġbp": 8639,
      "alanya": 8640,
      "Ġhub": 8641,
      "Ġpengurus": 8642,
      "opo": 8643,
      "Ġseribu": 8644,
      "lands": 8645,
      "Ġafgan": 8646,
      "Ġmengganggu": 8647,
      "Ġtikus": 8648,
      "Ġinstrumen": 8649,
      "Ġplaystation": 8650,
      "Ġzeus": 8651,
      "Ġlinguistik": 8652,
      "Ġarkeologi": 8653,
      "Ġkinerja": 8654,
      ",,": 8655,
      "data": 8656,
      "ning": 8657,
      "Ð»": 8658,
      "Ġdong": 8659,
      "Ġdosen": 8660,
      "Ġmegal": 8661,
      "Ġsingkatan": 8662,
      "atuhkan": 8663,
      "Ġbunuh": 8664,
      "alas": 8665,
      "isida": 8666,
      "app": 8667,
      "Ġinsinyur": 8668,
      "eto": 8669,
      "Ġwes": 8670,
      "Ġfit": 8671,
      "perg": 8672,
      "Ġpemalang": 8673,
      "Ġpengambilan": 8674,
      "Ġmembebaskan": 8675,
      "Ġbarcelona": 8676,
      "Ġakbar": 8677,
      "Ġpenderita": 8678,
      "Ġkerajinan": 8679,
      "uja": 8680,
      "industri": 8681,
      "Ġamino": 8682,
      "Ġmendi": 8683,
      "Ġchannel": 8684,
      "usiaan": 8685,
      "2021": 8686,
      "owongan": 8687,
      "Ġdipergunakan": 8688,
      "Ġpanitia": 8689,
      "Ġdimakan": 8690,
      "Ġdinilai": 8691,
      "Ġedition": 8692,
      "Ġbook": 8693,
      "Ġdeli": 8694,
      "Ġkotak": 8695,
      "semua": 8696,
      "Ġengine": 8697,
      "Ġditayangkan": 8698,
      "Ġkuantum": 8699,
      "Ġhelikopter": 8700,
      "kala": 8701,
      "rek": 8702,
      "Ø¯": 8703,
      "Ġpaman": 8704,
      "Ġdiadopsi": 8705,
      "ikt": 8706,
      "Ġcim": 8707,
      "Ġmengukur": 8708,
      "Ġindian": 8709,
      "Ġantartika": 8710,
      "Ġbell": 8711,
      "Ġsetelahnya": 8712,
      "Ġmanfaat": 8713,
      "Ġmaharaja": 8714,
      "Ġperbuk": 8715,
      "Ġkuwait": 8716,
      "Ġsulf": 8717,
      "pembalap": 8718,
      "Ġoffice": 8719,
      "Ġasetat": 8720,
      "color": 8721,
      "Ġcentral": 8722,
      "Ġkontroversial": 8723,
      "Ġkemiringan": 8724,
      "adipaten": 8725,
      "ritik": 8726,
      "Ġpaj": 8727,
      "Ġlinc": 8728,
      "Ġjun": 8729,
      "Ġhir": 8730,
      "Ġpertuk": 8731,
      "idaya": 8732,
      "agaman": 8733,
      "Ġvill": 8734,
      "Ġkerugian": 8735,
      "Ġkru": 8736,
      "Ġspons": 8737,
      "Ġeast": 8738,
      "Ġgeografi": 8739,
      "Ġmeningkatnya": 8740,
      "1987": 8741,
      "Ġkonfederasi": 8742,
      "dinal": 8743,
      "mentasi": 8744,
      "ekanan": 8745,
      "malaya": 8746,
      "Ġbangkok": 8747,
      "Ġkazakh": 8748,
      "Ġperiodik": 8749,
      "neg": 8750,
      "sida": 8751,
      "ĠÃ": 8752,
      "Ġkubah": 8753,
      "Ġseleksi": 8754,
      "Ġkerinci": 8755,
      "Ġberkas": 8756,
      "Ġekosistem": 8757,
      "Ġemirat": 8758,
      "yakinkan": 8759,
      "Ġhidangan": 8760,
      "alifahan": 8761,
      "Ġkandidat": 8762,
      "disebut": 8763,
      "Ġbolivia": 8764,
      "Ġdiskusi": 8765,
      "Ġvincent": 8766,
      "]]": 8767,
      "uba": 8768,
      "Ġung": 8769,
      "Ġsolusi": 8770,
      "Ġdisip": 8771,
      "Ġdiartikan": 8772,
      "onaris": 8773,
      "Ġfu": 8774,
      "egon": 8775,
      "perdana": 8776,
      "otek": 8777,
      "Ġmembran": 8778,
      "Ġdiponegoro": 8779,
      "Ġchili": 8780,
      "Ġresolusi": 8781,
      "Ġmemperlihatkan": 8782,
      "erbu": 8783,
      "ompokkan": 8784,
      "iliun": 8785,
      "Ġblu": 8786,
      "penggunaan": 8787,
      "Ġekspansi": 8788,
      "Ġhabis": 8789,
      "Ġenglish": 8790,
      "Ġborobudur": 8791,
      "perkembangan": 8792,
      "Ġperbukitan": 8793,
      "eur": 8794,
      "eaksi": 8795,
      "papan": 8796,
      "yub": 8797,
      "Ġimb": 8798,
      "enalan": 8799,
      "Ġmangg": 8800,
      "Ġpaku": 8801,
      "atika": 8802,
      "Ġtig": 8803,
      "elat": 8804,
      "Ġragam": 8805,
      "ebalan": 8806,
      "omend": 8807,
      "Ġ1923": 8808,
      "awati": 8809,
      "Ġdisampaikan": 8810,
      "Ġdipaksa": 8811,
      "Ġdipahami": 8812,
      "Ġperselis": 8813,
      "Ġmetabol": 8814,
      "Ġsalomo": 8815,
      "Ġpaket": 8816,
      "Ġkontemp": 8817,
      "Ġkonstitusional": 8818,
      "Ġhijri": 8819,
      "sampai": 8820,
      "mula": 8821,
      "akata": 8822,
      "ella": 8823,
      "Ġjangan": 8824,
      "Ġover": 8825,
      "Ġpendak": 8826,
      "Ġditemb": 8827,
      "Ġzi": 8828,
      "Ġterjual": 8829,
      "Ġberlayar": 8830,
      "Ġdihubungkan": 8831,
      "pemimpin": 8832,
      "ensus": 8833,
      "Ġjunior": 8834,
      "Ġhamka": 8835,
      "Ġkotamadya": 8836,
      "bilitas": 8837,
      "Ġmenikahi": 8838,
      "Ġmenempuh": 8839,
      "awarsa": 8840,
      "Ġrenault": 8841,
      "graf": 8842,
      "rang": 8843,
      "silah": 8844,
      "tet": 8845,
      "zena": 8846,
      "erba": 8847,
      "arnya": 8848,
      "ashi": 8849,
      "Ġdiucapkan": 8850,
      "ische": 8851,
      "olia": 8852,
      "ulihkan": 8853,
      "Ġgall": 8854,
      "agara": 8855,
      "awijaya": 8856,
      "Ġakurat": 8857,
      "impah": 8858,
      "Ġkromosom": 8859,
      "Ġresimen": 8860,
      "engkapan": 8861,
      "Ġblitar": 8862,
      "Ġmengancam": 8863,
      "Ġstudies": 8864,
      "tanah": 8865,
      "Ġstarbucks": 8866,
      "Ġpidana": 8867,
      "Ġcentre": 8868,
      "fakultas": 8869,
      "Ġbizantium": 8870,
      "Ġelektromagnetik": 8871,
      "ble": 8872,
      "best": 8873,
      "eed": 8874,
      "ged": 8875,
      "Ġogan": 8876,
      "Ġrt": 8877,
      "Ġcond": 8878,
      "edonia": 8879,
      "Ġasuransi": 8880,
      "Ġsemin": 8881,
      "Ġ600": 8882,
      "iteria": 8883,
      "meny": 8884,
      "Ġpetugas": 8885,
      "Ġdiceritakan": 8886,
      "Ġpotter": 8887,
      "komun": 8888,
      "belanda": 8889,
      "Ġsakti": 8890,
      "Ġphilos": 8891,
      "olongkan": 8892,
      "Ġvenez": 8893,
      "Ġpiramida": 8894,
      "Ġanimasi": 8895,
      "Ġcendekiawan": 8896,
      "far": 8897,
      "Ġulu": 8898,
      "Ġyan": 8899,
      "Ġhum": 8900,
      "olan": 8901,
      "Ġgov": 8902,
      "Ġau": 8903,
      "Ġpenal": 8904,
      "try": 8905,
      "Ġditak": 8906,
      "pras": 8907,
      "Ġparas": 8908,
      "Ġmanuf": 8909,
      "untu": 8910,
      "Ġsyekh": 8911,
      "Ġdokum": 8912,
      "Ġkosm": 8913,
      "Ġterbentuknya": 8914,
      "Ġjournal": 8915,
      "Ġbendungan": 8916,
      "Ġsempit": 8917,
      "Ġtangkis": 8918,
      "Ġlevel": 8919,
      "Ġmenyimpulkan": 8920,
      "'t": 8921,
      "aut": 8922,
      "lahan": 8923,
      "wing": 8924,
      "atria": 8925,
      "Ġkawah": 8926,
      "aminya": 8927,
      "ikawan": 8928,
      "olongan": 8929,
      "Ġperform": 8930,
      "Ġmengikat": 8931,
      "Ġ1912": 8932,
      "Ġpembuangan": 8933,
      "Ġterbakar": 8934,
      "Ġsurvei": 8935,
      "Ġmao": 8936,
      "Ġminor": 8937,
      "Ġsyari": 8938,
      "1982": 8939,
      "Ġhier": 8940,
      "seni": 8941,
      "Ġever": 8942,
      "Ġrossa": 8943,
      "Ġpengeluaran": 8944,
      "anggotaan": 8945,
      "Ġrudal": 8946,
      "Ġbagaimanapun": 8947,
      "Ġdisiplin": 8948,
      "ech": 8949,
      "kun": 8950,
      "roy": 8951,
      "uela": 8952,
      "Ġejaan": 8953,
      "orin": 8954,
      "olet": 8955,
      "olution": 8956,
      "Ġperu": 8957,
      "Ġcop": 8958,
      "Ġmengab": 8959,
      "terutama": 8960,
      "ture": 8961,
      "Ġbatara": 8962,
      "Ġdrag": 8963,
      "Ġmoneter": 8964,
      "ertakan": 8965,
      "Ġujian": 8966,
      "Ġmitra": 8967,
      "Ġtempo": 8968,
      "Ġpenyelidikan": 8969,
      "Ġbangkit": 8970,
      "Ġimpor": 8971,
      "Ġkoordinasi": 8972,
      "Ġpelanggan": 8973,
      "bekas": 8974,
      "ugerahi": 8975,
      "Ġobserv": 8976,
      "aq": 8977,
      "gl": 8978,
      "Ġsai": 8979,
      "Ġkadipaten": 8980,
      "Ġtump": 8981,
      "asaki": 8982,
      "akiman": 8983,
      "Ġmenunggu": 8984,
      "Ġinisi": 8985,
      "Ġrer": 8986,
      "Ġwho": 8987,
      "Ġpriv": 8988,
      "oshi": 8989,
      "Ġagr": 8990,
      "Ġzain": 8991,
      "Ġpeluru": 8992,
      "spirasi": 8993,
      "Ġmaha": 8994,
      "Ġposisinya": 8995,
      "Ġceko": 8996,
      "non": 8997,
      "oz": 8998,
      "Ġany": 8999,
      "Ġspr": 9000,
      "ines": 9001,
      "Ġjad": 9002,
      "Ġrid": 9003,
      "Ġaudi": 9004,
      "icago": 9005,
      "Ġditahan": 9006,
      "ching": 9007,
      "Ġberkontr": 9008,
      "Ġpenyiaran": 9009,
      "Ġbertahun": 9010,
      "oyono": 9011,
      "Ġminat": 9012,
      "reasi": 9013,
      "ekerjakan": 9014,
      "Ġsctv": 9015,
      "ights": 9016,
      "Ġhabitat": 9017,
      "oteles": 9018,
      "Ġdoug": 9019,
      "Ġkewenangan": 9020,
      "Ġsocial": 9021,
      "Ġlutheran": 9022,
[...]
