{
  "version": "1.0",
  "truncation": null,
  "padding": null,
  "added_tokens": [
    {
      "id": 0,
      "content": "<unk>",
      "single_word": false,
      "lstrip": false,
      "rstrip": false,
      "normalized": false,
      "special": true
    },
    {
      "id": 1,
      "content": "<s>",
      "single_word": false,
      "lstrip": false,
      "rstrip": false,
      "normalized": false,
      "special": true
    },
    {
      "id": 2,
      "content": "</s>",
      "single_word": false,
      "lstrip": false,
      "rstrip": false,
      "normalized": false,
      "special": true
    },
    {
      "id": 3,
      "content": "<pad>",
      "single_word": false,
      "lstrip": false,
      "rstrip": false,
      "normalized": false,
      "special": true
    },
    {
      "id": 4,
      "content": "<|im_start|>",
      "single_word": false,
      "lstrip": false,
      "rstrip": false,
      "normalized": false,
      "special": true
    },
    {
      "id": 5,
      "content": "<|im_end|>",
      "single_word": false,
      "lstrip": false,
      "rstrip": false,
      "normalized": false,
      "special": true
    },
    {
      "id": 6,
      "content": "<|endoftext|>",
      "single_word": false,
      "lstrip": false,
      "rstrip": false,
      "normalized": false,
      "special": true
    },
    {
      "id": 7,
      "content": "<fim_prefix>",
      "single_word": false,
      "lstrip": false,
      "rstrip": false,
      "normalized": false,
      "special": true
    },
    {
      "id": 8,
      "content": "<fim_middle>",
      "single_word": false,
      "lstrip": false,
      "rstrip": false,
      "normalized": false,
      "special": true
    },
    {
      "id": 9,
      "content": "<fim_suffix>",
      "single_word": false,
      "lstrip": false,
      "rstrip": false,
      "normalized": false,
      "special": true
    },
    {
      "id": 10,
      "content": "<fim_pad>",
      "single_word": false,
      "lstrip": false,
      "rstrip": false,
      "normalized": false,
      "special": true
    },
    {
      "id": 11,
      "content": "<filename>",
      "single_word": false,
      "lstrip": false,
      "rstrip": false,
      "normalized": false,
      "special": true
    },
    {
      "id": 12,
      "content": "<gh_stars>",
      "single_word": false,
      "lstrip": false,
      "rstrip": false,
      "normalized": false,
      "special": true
    },
    {
      "id": 13,
      "content": "<issue_start>",
      "single_word": false,
      "lstrip": false,
      "rstrip": false,
      "normalized": false,
      "special": true
    },
    {
      "id": 14,
      "content": "<issue_comment>",
      "single_word": false,
      "lstrip": false,
      "rstrip": false,
      "normalized": false,
      "special": true
    },
    {
      "id": 15,
      "content": "<issue_closed>",
      "single_word": false,
      "lstrip": false,
      "rstrip": false,
      "normalized": false,
      "special": true
    },
    {
      "id": 16,
      "content": "<jupyter_start>",
      "single_word": false,
      "lstrip": false,
      "rstrip": false,
      "normalized": false,
      "special": true
    },
    {
      "id": 17,
      "content": "<jupyter_text>",
      "single_word": false,
      "lstrip": false,
      "rstrip": false,
      "normalized": false,
      "special": true
    },
    {
      "id": 18,
      "content": "<jupyter_code>",
      "single_word": false,
      "lstrip": false,
      "rstrip": false,
      "normalized": false,
      "special": true
    },
    {
      "id": 19,
      "content": "<jupyter_output>",
      "single_word": false,
      "lstrip": false,
      "rstrip": false,
      "normalized": false,
      "special": true
    },
    {
      "id": 20,
      "content": "<empty_output>",
      "single_word": false,
      "lstrip": false,
      "rstrip": false,
      "normalized": false,
      "special": true
    },
    {
      "id": 21,
      "content": "<commit_before>",
      "single_word": false,
      "lstrip": false,
      "rstrip": false,
      "normalized": false,
      "special": true
    },
    {
      "id": 22,
      "content": "<commit_msg>",
      "single_word": false,
      "lstrip": false,
      "rstrip": false,
      "normalized": false,
      "special": true
    },
    {
      "id": 23,
      "content": "<commit_after>",
      "single_word": false,
      "lstrip": false,
      "rstrip": false,
      "normalized": false,
      "special": true
    },
    {
      "id": 24,
      "content": "<reponame>",
      "single_word": false,
      "lstrip": false,
      "rstrip": false,
      "normalized": false,
      "special": true
    }
  ],
  "normalizer": null,
  "pre_tokenizer": {
    "type": "Sequence",
    "pretokenizers": [
      {
        "type": "Split",
        "pattern": {
          "Regex": "(?i:'s|'t|'re|'ve|'m|'ll|'d)|[^\\r\\n\\p{L}\\p{N}]?\\p{L}+|\\p{N}{1,3}| ?[^\\s\\p{L}\\p{N}]+[\\r\\n]*|\\s*[\\r\\n]+|\\s+(?!\\S)|\\s+"
        },
        "behavior": "Removed",
        "invert": true
      },
      {
        "type": "ByteLevel",
        "add_prefix_space": false,
        "trim_offsets": true,
        "use_regex": false
      }
    ]
  },
  "post_processor": {
    "type": "ByteLevel",
    "add_prefix_space": true,
    "trim_offsets": false,
    "use_regex": true
  },
  "decoder": {
    "type": "ByteLevel",
    "add_prefix_space": true,
    "trim_offsets": true,
    "use_regex": true
  },
  "model": {
    "type": "BPE",
    "dropout": null,
    "unk_token": "<unk>",
    "continuing_subword_prefix": null,
    "end_of_word_suffix": null,
    "fuse_unk": false,
    "byte_fallback": false,
    "ignore_merges": false,
    "vocab": {
      "<unk>": 0,
      "<s>": 1,
      "</s>": 2,
      "<pad>": 3,
      "<|im_start|>": 4,
      "<|im_end|>": 5,
      "<|endoftext|>": 6,
      "<fim_prefix>": 7,
      "<fim_middle>": 8,
      "<fim_suffix>": 9,
      "<fim_pad>": 10,
      "<filename>": 11,
      "<gh_stars>": 12,
      "<issue_start>": 13,
      "<issue_comment>": 14,
      "<issue_closed>": 15,
      "<jupyter_start>": 16,
      "<jupyter_text>": 17,
      "<jupyter_code>": 18,
      "<jupyter_output>": 19,
      "<empty_output>": 20,
      "<commit_before>": 21,
      "<commit_msg>": 22,
      "<commit_after>": 23,
      "<reponame>": 24,
      "!": 25,
      "\"": 26,
      "#": 27,
      "$": 28,
      "%": 29,
      "&": 30,
      "'": 31,
      "(": 32,
      ")": 33,
      "*": 34,
      "+": 35,
      ",": 36,
      "-": 37,
      ".": 38,
      "/": 39,
      "0": 40,
      "1": 41,
      "2": 42,
      "3": 43,
      "4": 44,
      "5": 45,
      "6": 46,
      "7": 47,
      "8": 48,
      "9": 49,
      ":": 50,
      ";": 51,
      "<": 52,
      "=": 53,
      ">": 54,
      "?": 55,
      "@": 56,
      "A": 57,
      "B": 58,
      "C": 59,
      "D": 60,
      "E": 61,
      "F": 62,
      "G": 63,
      "H": 64,
      "I": 65,
      "J": 66,
      "K": 67,
      "L": 68,
      "M": 69,
      "N": 70,
      "O": 71,
      "P": 72,
      "Q": 73,
      "R": 74,
      "S": 75,
      "T": 76,
      "U": 77,
      "V": 78,
      "W": 79,
      "X": 80,
      "Y": 81,
      "Z": 82,
      "[": 83,
      "\\": 84,
      "]": 85,
      "^": 86,
      "_": 87,
      "`": 88,
      "a": 89,
      "b": 90,
      "c": 91,
      "d": 92,
      "e": 93,
      "f": 94,
      "g": 95,
      "h": 96,
      "i": 97,
      "j": 98,
      "k": 99,
      "l": 100,
      "m": 101,
      "n": 102,
      "o": 103,
      "p": 104,
      "q": 105,
      "r": 106,
      "s": 107,
      "t": 108,
      "u": 109,
      "v": 110,
      "w": 111,
      "x": 112,
      "y": 113,
      "z": 114,
      "{": 115,
      "|": 116,
      "}": 117,
      "~": 118,
      "¡": 119,
      "¢": 120,
      "£": 121,
      "¤": 122,
      "¥": 123,
      "¦": 124,
      "§": 125,
      "¨": 126,
      "©": 127,
      "ª": 128,
      "«": 129,
      "¬": 130,
      "®": 131,
      "¯": 132,
      "°": 133,
      "±": 134,
      "²": 135,
      "³": 136,
      "´": 137,
      "µ": 138,
      "¶": 139,
      "·": 140,
      "¸": 141,
      "¹": 142,
      "º": 143,
      "»": 144,
      "¼": 145,
      "½": 146,
      "¾": 147,
      "¿": 148,
      "Â": 149,
      "Ã": 150,
      "Ä": 151,
      "Å": 152,
      "Æ": 153,
      "Ç": 154,
      "È": 155,
      "É": 156,
      "Ê": 157,
      "Ë": 158,
      "Ì": 159,
      "Í": 160,
      "Î": 161,
      "Ï": 162,
      "Ð": 163,
      "Ñ": 164,
      "Ò": 165,
      "Ó": 166,
      "Ô": 167,
      "Õ": 168,
      "Ö": 169,
      "×": 170,
      "Ø": 171,
      "Ù": 172,
      "Ú": 173,
      "Û": 174,
      "Ü": 175,
      "Ý": 176,
      "Þ": 177,
      "ß": 178,
      "à": 179,
      "á": 180,
      "â": 181,
      "ã": 182,
      "ä": 183,
      "å": 184,
      "æ": 185,
      "ç": 186,
      "è": 187,
      "é": 188,
      "ê": 189,
      "ë": 190,
      "ì": 191,
      "í": 192,
      "ï": 193,
      "ð": 194,
      "ĉ": 195,
      "Ċ": 196,
      "Ġ": 197,
      "Ģ": 198,
      "ģ": 199,
      "Ĥ": 200,
      "ĥ": 201,
      "Ħ": 202,
      "ħ": 203,
      "Ĩ": 204,
      "ĩ": 205,
      "Ī": 206,
      "ī": 207,
      "Ĭ": 208,
      "ĭ": 209,
      "Į": 210,
      "į": 211,
      "İ": 212,
      "ı": 213,
      "Ĳ": 214,
      "ĳ": 215,
      "Ĵ": 216,
      "ĵ": 217,
      "Ķ": 218,
      "ķ": 219,
      "ĸ": 220,
      "Ĺ": 221,
      "ĺ": 222,
      "Ļ": 223,
      "ļ": 224,
      "Ľ": 225,
      "ľ": 226,
      "Ŀ": 227,
      "ŀ": 228,
      "Ł": 229,
      "ł": 230,
      "Ń": 231,
      "an": 232,
      "er": 233,
      "Ġd": 234,
      "en": 235,
      "ar": 236,
      "Ġm": 237,
      "at": 238,
      "ang": 239,
      "ah": 240,
      "Ġp": 241,
      "al": 242,
      "in": 243,
      "Ġs": 244,
      "as": 245,
      "Ġt": 246,
      "un": 247,
      "ak": 248,
      "Ġk": 249,
      "Ġb": 250,
      "Ġdi": 251,
      "am": 252,
      "em": 253,
      "ad": 254,
      "el": 255,
      "is": 256,
      "eng": 257,
      "ik": 258,
      "ya": 259,
      "uk": 260,
      "Ġdan": 261,
      "on": 262,
      "ĠS": 263,
      "Ġse": 264,
      "yang": 265,
      "Ġyang": 266,
      "it": 267,
      "ĠP": 268,
      "es": 269,
      "us": 270,
      "il": 271,
      "ap": 272,
      "ur": 273,
      "ĊĊ": 274,
      "or": 275,
      "ĠK": 276,
      "ga": 277,
      "ĠA": 278,
      "ut": 279,
      "Ġmen": 280,
      "ĠM": 281,
      "Ġber": 282,
      "ol": 283,
      "ĠB": 284,
      "ia": 285,
      "kan": 286,
      "Ġl": 287,
      "ada": 288,
      "et": 289,
      "ing": 290,
      "ul": 291,
      "ari": 292,
      "Ġter": 293,
      "ek": 294,
      "um": 295,
      "eb": 296,
      "ir": 297,
      "ara": 298,
      "Ġ(": 299,
      "ĠT": 300,
      "ĠI": 301,
      "nya": 302,
      "Ġper": 303,
      "ĠD": 304,
      "id": 305,
      "Ġke": 306,
      "akan": 307,
      "im": 308,
      ".ĊĊ": 309,
      "asi": 310,
      "Ġmem": 311,
      "engan": 312,
      "ung": 313,
      "ta": 314,
      "Ġin": 315,
      "Ġh": 316,
      "ba": 317,
      "Ġdari": 318,
      "om": 319,
      "Ġj": 320,
      "Ġdengan": 321,
      "ama": 322,
      "tuk": 323,
      "ud": 324,
      "ian": 325,
      "Ġmeng": 326,
      "alam": 327,
      "ab": 328,
      "up": 329,
      "19": 330,
      "ĠR": 331,
      "Ġpada": 332,
      "ĠJ": 333,
      "alah": 334,
      "Ġr": 335,
      "si": 336,
      "Ġun": 337,
      "and": 338,
      "ag": 339,
      "aw": 340,
      "ro": 341,
      "ĠC": 342,
      "ti": 343,
      "ĠN": 344,
      "atan": 345,
      "Ġpen": 346,
      "ata": 347,
      "Ġuntuk": 348,
      "ĠH": 349,
      "Ġini": 350,
      "eg": 351,
      "ĠL": 352,
      "Ġn": 353,
      "20": 354,
      "eh": 355,
      "emb": 356,
      "uh": 357,
      "Ġdalam": 358,
      "ahun": 359,
      "ih": 360,
      "ed": 361,
      "gai": 362,
      "ĠG": 363,
      "Ġad": 364,
      "ep": 365,
      "ĠIn": 366,
      "ai": 367,
      "ĠĊ": 368,
      "ok": 369,
      "ent": 370,
      "ant": 371,
      "ay": 372,
      "Ġtahun": 373,
      "Ġmer": 374,
      "adi": 375,
      "Ġadalah": 376,
      "per": 377,
      "Ġseba": 378,
      "asa": 379,
      "aj": 380,
      "ikan": 381,
      "Ġg": 382,
      "oleh": 383,
      "tr": 384,
      "ain": 385,
      "ub": 386,
      "ĠU": 387,
      "wa": 388,
      "angan": 389,
      "Ġmenj": 390,
      "Ġoleh": 391,
      "os": 392,
      "Ġsebagai": 393,
      "elah": 394,
      "itu": 395,
      "Ġbah": 396,
      "ĠF": 397,
      "Ġw": 398,
      "end": 399,
      "ota": 400,
      "bu": 401,
      "Ġc": 402,
      "aan": 403,
      "anya": 404,
      "ua": 405,
      "atu": 406,
      "ĠW": 407,
      "ahan": 408,
      "apat": 409,
      "ebut": 410,
      "ter": 411,
      "amp": 412,
      "ika": 413,
      "idak": 414,
      "ukan": 415,
      "og": 416,
      "ĠE": 417,
      "orang": 418,
      "Ġmel": 419,
      "isi": 420,
      "ali": 421,
      "ati": 422,
      "Ġf": 423,
      "Ġmenjadi": 424,
      "ĠInd": 425,
      "ot": 426,
      "Ġpem": 427,
      "angg": 428,
      "ana": 429,
      "200": 430,
      "uga": 431,
      "Ġtidak": 432,
      "Ġpeng": 433,
      "yak": 434,
      "ist": 435,
      "aya": 436,
      "atau": 437,
      "ĠPer": 438,
      "emp": 439,
      "ri": 440,
      "Ġ\"": 441,
      "sebut": 442,
      "uan": 443,
      "od": 444,
      "int": 445,
      "Ġatau": 446,
      "âĢ": 447,
      "Ġjuga": 448,
      "ong": 449,
      "ĠY": 450,
      "ch": 451,
      "ip": 452,
      "ra": 453,
      "ber": 454,
      ".Ċ": 455,
      "ĠO": 456,
      "Ġsel": 457,
      ")Ċ": 458,
      "ones": 459,
      "esar": 460,
      "Ġkar": 461,
      "Ġitu": 462,
      "onesia": 463,
      "eka": 464,
      "Ġmeny": 465,
      "ena": 466,
      "ran": 467,
      "amb": 468,
      "angk": 469,
      "ala": 470,
      "ilik": 471,
      "op": 472,
      "anj": 473,
      "ĠIndonesia": 474,
      "ingg": 475,
      "ĠĊĊ": 476,
      "gun": 477,
      "Ġkem": 478,
      "Ġpert": 479,
      "Ġsek": 480,
      "onal": 481,
      "ej": 482,
      "),": 483,
      "Ġlain": 484,
      "egara": 485,
      "ula": 486,
      "Ġ-": 487,
      "itas": 488,
      "ec": 489,
      "eri": 490,
      "ebih": 491,
      "ew": 492,
      "apa": 493,
      "aran": 494,
      "oh": 495,
      "Ġtersebut": 496,
      "Ġak": 497,
      "00": 498,
      "Ġdik": 499,
      "iri": 500,
      "Ġpro": 501,
      "ib": 502,
      "lah": 503,
      "iliki": 504,
      "upakan": 505,
      "ĠAl": 506,
      "ac": 507,
      "uj": 508,
      "uar": 509,
      "Ġmerupakan": 510,
      "he": 511,
      "ic": 512,
      "Ġlebih": 513,
      "Ġser": 514,
      "eber": 515,
      "Ġbahwa": 516,
      "Ġdit": 517,
      "Ġdapat": 518,
      "Ġkep": 519,
      "Ġo": 520,
      "Ġmemiliki": 521,
      "Ġseb": 522,
      "etap": 523,
      "Ġpend": 524,
      "ind": 525,
      "ni": 526,
      "ver": 527,
      "gunakan": 528,
      "Ġbag": 529,
      "asan": 530,
      "201": 531,
      "sa": 532,
      "Ġorang": 533,
      "Ġsatu": 534,
      "Ġmas": 535,
      "Ġmereka": 536,
      "ĠV": 537,
      "anyak": 538,
      "ingk": 539,
      "ingga": 540,
      "ungan": 541,
      "199": 542,
      "res": 543,
      "Ġket": 544,
      "Ġant": 545,
      "alan": 546,
      "ayah": 547,
      "Ġmemb": 548,
      "omp": 549,
      "ĠAn": 550,
      "Ġtelah": 551,
      "inya": 552,
      "Ġkota": 553,
      "ef": 554,
      "ons": 555,
      "âĢĵ": 556,
      "Ġseper": 557,
      "eberapa": 558,
      "aat": 559,
      "buah": 560,
      "asil": 561,
      "entuk": 562,
      "Ġsebuah": 563,
      "Ġmend": 564,
      "aman": 565,
      "erint": 566,
      "erah": 567,
      "Ġseperti": 568,
      "Ġkel": 569,
      "empat": 570,
      "Ġsem": 571,
      "Ġkarena": 572,
      "Ġia": 573,
      "ĠAm": 574,
      "Ġat": 575,
      "cara": 576,
      "ilayah": 577,
      "ĠPada": 578,
      "imp": 579,
      "Ġker": 580,
      "arat": 581,
      "18": 582,
      "Ġset": 583,
      "Ġbesar": 584,
      "Ġdip": 585,
      "Ġnegara": 586,
      "Ġsecara": 587,
      "Ġsej": 588,
      "arah": 589,
      "alu": 590,
      "Ġtetap": 591,
      "Ġdis": 592,
      "hir": 593,
      "ĠSel": 594,
      "gr": 595,
      "arta": 596,
      "unan": 597,
      "Ġakan": 598,
      "art": 599,
      "ug": 600,
      "Ġas": 601,
      "udian": 602,
      "Ġbahasa": 603,
      "asional": 604,
      "man": 605,
      "asar": 606,
      "ĠAr": 607,
      "Ġal": 608,
      "uran": 609,
      ").": 610,
      "Ġpemb": 611,
      "aru": 612,
      "ĠIs": 613,
      "aten": 614,
      "mas": 615,
      "Ġterd": 616,
      "ensi": 617,
      "Ġmenc": 618,
      "ov": 619,
      "Ġbeberapa": 620,
      "ont": 621,
      "Ġof": 622,
      "Ġkec": 623,
      "olog": 624,
      "Ġterb": 625,
      "ob": 626,
      "unia": 627,
      "Ġdil": 628,
      "Ġantara": 629,
      "Ġwilayah": 630,
      "Ġdib": 631,
      "ig": 632,
      "anda": 633,
      "le": 634,
      "uhan": 635,
      "Ġberk": 636,
      "aerah": 637,
      "Ġbanyak": 638,
      "abup": 639,
      "abupaten": 640,
      "usia": 641,
      "angkan": 642,
      "Ġkemudian": 643,
      "ja": 644,
      "eks": 645,
      "Ġpertama": 646,
      "akt": 647,
      "ĠCh": 648,
      "amatan": 649,
      "enal": 650,
      "ita": 651,
      "Ġut": 652,
      "Ġada": 653,
      "Ġsaat": 654,
      "ev": 655,
      "Ġan": 656,
      "Ġmengh": 657,
      "Ġbagian": 658,
      "orm": 659,
      "ĠSt": 660,
      "Ġv": 661,
      "af": 662,
      "iga": 663,
      "und": 664,
      "elum": 665,
      "arang": 666,
      "Ġberb": 667,
      "ember": 668,
      "Ġbers": 669,
      "aja": 670,
      "umlah": 671,
      "awa": 672,
      "ĠMar": 673,
      "ulan": 674,
      "Ġterl": 675,
      "Ġked": 676,
      "li": 677,
      "198": 678,
      "tan": 679,
      "itar": 680,
      "Ġpemerint": 681,
      "Ġkes": 682,
      "akukan": 683,
      "gi": 684,
      "Ġum": 685,
      "vers": 686,
      "imur": 687,
      "Ġsu": 688,
      "ĠPro": 689,
      "Ġya": 690,
      "inggi": 691,
      "Ġatas": 692,
      "erika": 693,
      "any": 694,
      "Ġtetapi": 695,
      "Ġmus": 696,
      "ima": 697,
      "ĠUni": 698,
      "iden": 699,
      "ilm": 700,
      "Ġyaitu": 701,
      "ingkat": 702,
      "ĠDi": 703,
      "lik": 704,
      "arak": 705,
      "ĠSer": 706,
      "ulai": 707,
      "itik": 708,
      "Ġluar": 709,
      "Pada": 710,
      "uku": 711,
      "air": 712,
      "ĠBel": 713,
      "tern": 714,
      "Ġkepada": 715,
      "uduk": 716,
      "aka": 717,
      "ĠAmerika": 718,
      "esa": 719,
      "Ġpula": 720,
      "usah": 721,
      "Ġsetelah": 722,
      "utan": 723,
      "pa": 724,
      "Ġdigunakan": 725,
      "Ġdua": 726,
      "Ġpel": 727,
      "gan": 728,
      "adap": 729,
      "Ġpara": 730,
      "awan": 731,
      "Ġbert": 732,
      "ina": 733,
      "Ġseorang": 734,
      "ologi": 735,
      "if": 736,
      "ulis": 737,
      "Ġsed": 738,
      "-k": 739,
      "uas": 740,
      "est": 741,
      "ikut": 742,
      "unya": 743,
      "Ġnama": 744,
      "buat": 745,
      "Ġst": 746,
      "ort": 747,
      "ism": 748,
      "Ġbi": 749,
      "Ġlainnya": 750,
      "angat": 751,
      "ikat": 752,
      "Ġtan": 753,
      "apan": 754,
      "onom": 755,
      "ĠAs": 756,
      "Ġdid": 757,
      "Ġdaerah": 758,
      "Ġhingga": 759,
      "ihat": 760,
      "197": 761,
      "ond": 762,
      "amun": 763,
      "Ġag": 764,
      "ĠKabupaten": 765,
      "anggal": 766,
      "unc": 767,
      "ard": 768,
      "Ġseh": 769,
      "196": 770,
      "unj": 771,
      "re": 772,
      "tar": 773,
      "Ġdiper": 774,
      "asih": 775,
      "Ġtent": 776,
      "etak": 777,
      "engah": 778,
      "Ġserta": 779,
      "ustr": 780,
      "Âł": 781,
      "Ġmemper": 782,
      "ern": 783,
      "Ġhanya": 784,
      "aks": 785,
      "15": 786,
      "ungk": 787,
      "aris": 788,
      "Ġterh": 789,
      "ump": 790,
      "Ġsalah": 791,
      "istr": 792,
      "itan": 793,
      "Ġsekitar": 794,
      "ĠBr": 795,
      "tur": 796,
      "Ġterj": 797,
      "10": 798,
      "Ġdunia": 799,
      "enc": 800,
      "Ġbaru": 801,
      "ĠZ": 802,
      "aut": 803,
      "Ġdim": 804,
      "st": 805,
      "ingan": 806,
      "Ġumum": 807,
      "Ġkek": 808,
      "Ġmenggunakan": 809,
      "na": 810,
      "Ġkeb": 811,
      "isa": 812,
      "Ġaw": 813,
      "Ġpol": 814,
      "ij": 815,
      "ĠĠ": 816,
      "Ġpeny": 817,
      "Ġsamp": 818,
      "udah": 819,
      "erb": 820,
      "residen": 821,
      "idup": 822,
      "Ġab": 823,
      "inan": 824,
      "ori": 825,
      "Ġmasa": 826,
      "Ġdisebut": 827,
      "istem": 828,
      "ow": 829,
      "ĠUnivers": 830,
      "Ġsangat": 831,
      "angs": 832,
      "ode": 833,
      "masuk": 834,
      "usi": 835,
      "iran": 836,
      "Ġtanggal": 837,
      "ĠAg": 838,
      "Ġterk": 839,
      "ĠJawa": 840,
      "Ġsep": 841,
      "duk": 842,
      "era": 843,
      "Ġman": 844,
      "to": 845,
      "Ġkemb": 846,
      "Ġakhir": 847,
      "aling": 848,
      "Ġthe": 849,
      "Ġberd": 850,
      "tor": 851,
      "Ġhar": 852,
      "ĠIa": 853,
      "usat": 854,
      "Ġpers": 855,
      "ggr": 856,
      "-s": 857,
      "ahasa": 858,
      "emen": 859,
      "Ġpas": 860,
      "esi": 861,
      "ublik": 862,
      "uc": 863,
      "ini": 864,
      "insi": 865,
      "ggris": 866,
      "anc": 867,
      "raf": 868,
      "ĠSo": 869,
      "ĠKota": 870,
      "isme": 871,
      "Ġawal": 872,
      "inggal": 873,
      "udi": 874,
      "mi": 875,
      "17": 876,
      "ilan": 877,
      "ĠThe": 878,
      "Ġterhadap": 879,
      "erd": 880,
      "Ġtert": 881,
      "Ġi": 882,
      "awah": 883,
      "ilih": 884,
      "Ġpr": 885,
      "lam": 886,
      "isasi": 887,
      "ĠInggris": 888,
      "Ġres": 889,
      "ust": 890,
      "usan": 891,
      "-b": 892,
      "anjang": 893,
      "ahkan": 894,
      "ĠBelanda": 895,
      "Ġangg": 896,
      "Ġpes": 897,
      "arkan": 898,
      "ha": 899,
      "Ġsama": 900,
      "egeri": 901,
      "ui": 902,
      "Ġhari": 903,
      "urut": 904,
      "Ġkom": 905,
      "esk": 906,
      "uruh": 907,
      "Ġkembali": 908,
      "Ġberh": 909,
      "ĠAd": 910,
      "194": 911,
      "ĠPem": 912,
      "olah": 913,
      "Ġsehingga": 914,
      "Ġar": 915,
      "ecamatan": 916,
      "ĠUt": 917,
      "eja": 918,
      "Ġpenduduk": 919,
      "aik": 920,
      "ola": 921,
      "Ġsen": 922,
      "Ġlag": 923,
      "ĠPen": 924,
      "Ġsebelum": 925,
      "erensi": 926,
      "Ġmemp": 927,
      "16": 928,
      "ĠTimur": 929,
      "gian": 930,
      "ura": 931,
      "av": 932,
      "aktu": 933,
      "Ġtempat": 934,
      "Ġtermasuk": 935,
      "ual": 936,
      "atakan": 937,
      "195": 938,
      "aki": 939,
      "iter": 940,
      "enis": 941,
      "ĠSerikat": 942,
      "ses": 943,
      "ranc": 944,
      "tif": 945,
      "ĠMal": 946,
      "upun": 947,
      "alui": 948,
      "Ġberba": 949,
      "Ġbulan": 950,
      "ani": 951,
      "Ġmember": 952,
      "-p": 953,
      "Ġselama": 954,
      "Ġand": 955,
      "anta": 956,
      "Ġkons": 957,
      "yarak": 958,
      "umb": 959,
      "Ġsampai": 960,
      "Ġmasih": 961,
      "apai": 962,
      "ĠKer": 963,
      "Ġkomp": 964,
      "oc": 965,
      "onomi": 966,
      "rist": 967,
      "ei": 968,
      "Ġberada": 969,
      "ĠBarat": 970,
      "endiri": 971,
      "Ġtinggi": 972,
      "atif": 973,
      "Ġbagi": 974,
      "imb": 975,
      "ekn": 976,
      "Ġutama": 977,
      "rans": 978,
      "yarakat": 979,
      "ĠMus": 980,
      "Ġkali": 981,
      "ibat": 982,
      "ereja": 983,
      "uka": 984,
      "Per": 985,
      "ĠSeb": 986,
      "12": 987,
      "Ġterdapat": 988,
      "Ġkh": 989,
      "entara": 990,
      "min": 991,
      "api": 992,
      "Ġabad": 993,
      "eda": 994,
      "Ġsuatu": 995,
      "Ġtentang": 996,
      "Ġpaling": 997,
      "ĠUn": 998,
      "alia": 999,
      "ajaan": 1000,
      "ĠAir": 1001,
      "ukum": 1002,
      "Ġdir": 1003,
      "Ġbawah": 1004,
      "wan": 1005,
      "Ġdikenal": 1006,
      "ĠPeng": 1007,
      "Ġpern": 1008,
      "ea": 1009,
      "rad": 1010,
      "idikan": 1011,
      "umah": 1012,
      "Ġair": 1013,
      "Ġberbagai": 1014,
      "erman": 1015,
      "Ġberp": 1016,
      "Ġmulai": 1017,
      "ĠSelatan": 1018,
      "Ġberl": 1019,
      "usahaan": 1020,
      "vinsi": 1021,
      "ĠTi": 1022,
      "Ġmelalui": 1023,
      "Ġkedua": 1024,
      "eta": 1025,
      "har": 1026,
      "uari": 1027,
      "anan": 1028,
      "Ġterjadi": 1029,
      "Ġsistem": 1030,
      "ili": 1031,
      "ĠKep": 1032,
      "uasa": 1033,
      "Ġketika": 1034,
      "Ġmembuat": 1035,
      "Ġanggota": 1036,
      "angka": 1037,
      "ranala": 1038,
      "Ġor": 1039,
      "ĠDalam": 1040,
      "Ġbel": 1041,
      "angsa": 1042,
      "eter": 1043,
      "land": 1044,
      "osi": 1045,
      "akarta": 1046,
      "ĠAp": 1047,
      "edia": 1048,
      "ĠKecamatan": 1049,
      "ĠTer": 1050,
      "Ġwaktu": 1051,
      "eferensi": 1052,
      "ilah": 1053,
      "unt": 1054,
      "etelah": 1055,
      "ĠAng": 1056,
      "Ġsendiri": 1057,
      "Ġbisa": 1058,
      "okoh": 1059,
      "-an": 1060,
      "Ġses": 1061,
      "uang": 1062,
      "Pranala": 1063,
      "Ġhal": 1064,
      "ĠPr": 1065,
      "Ġek": 1066,
      "ĠUniversitas": 1067,
      "ungai": 1068,
      "awat": 1069,
      "000": 1070,
      "Ġga": 1071,
      "Ġsejak": 1072,
      ").ĊĊ": 1073,
      "ĠBer": 1074,
      "eker": 1075,
      "Ġind": 1076,
      "14": 1077,
      "impin": 1078,
      "Ġterletak": 1079,
      "az": 1080,
      "ord": 1081,
      "udaya": 1082,
      "yah": 1083,
      "angunan": 1084,
      "asal": 1085,
      "ikasi": 1086,
      "Ġmasyarakat": 1087,
      "Ġpemerintahan": 1088,
      "13": 1089,
      "asarkan": 1090,
      "umi": 1091,
      "Ġput": 1092,
      "aftar": 1093,
      "ark": 1094,
      "Ġterp": 1095,
      "ĠSh": 1096,
      "ĠAb": 1097,
      "ĠIslam": 1098,
      "Ġanak": 1099,
      "Ġbersama": 1100,
      "ompok": 1101,
      "Ġsudah": 1102,
      ":Ċ": 1103,
      "Ġkecil": 1104,
      "Referensi": 1105,
      "ĠâĢĵ": 1106,
      "uru": 1107,
      "engg": 1108,
      "epang": 1109,
      "ropa": 1110,
      "ternasional": 1111,
      "ĠTiong": 1112,
      "ma": 1113,
      "emukan": 1114,
      "ey": 1115,
      "uni": 1116,
      "ograf": 1117,
      "uda": 1118,
      "Ġpemerintah": 1119,
      "ulau": 1120,
      "ĠII": 1121,
      "ĠJerman": 1122,
      "epublik": 1123,
      "Ġkap": 1124,
      "Ġjumlah": 1125,
      "uta": 1126,
      "Ġseluruh": 1127,
      "ewan": 1128,
      "rancis": 1129,
      "engk": 1130,
      "Ġdia": 1131,
      "ekan": 1132,
      "uat": 1133,
      "ĠKar": 1134,
      "Ġsemua": 1135,
      "Ġsebagian": 1136,
      "Ġresmi": 1137,
      "Ġterdiri": 1138,
      "opul": 1139,
      "ĠAk": 1140,
      "umber": 1141,
      "Ġperk": 1142,
      "ĠKom": 1143,
      "ĠOr": 1144,
      "ĠKem": 1145,
      "irikan": 1146,
      "-t": 1147,
      "angkat": 1148,
      "ender": 1149,
      "Ġmana": 1150,
      "202": 1151,
      "ĠJepang": 1152,
      "ĠEropa": 1153,
      "ĠNamun": 1154,
      "ĠMas": 1155,
      "fr": 1156,
      "th": 1157,
      "Ġmelakukan": 1158,
      "lin": 1159,
      "idang": 1160,
      "ĠSep": 1161,
      "aruh": 1162,
      "Ã©": 1163,
      "ation": 1164,
      "uatan": 1165,
      "artai": 1166,
      "unjuk": 1167,
      "ho": 1168,
      "angsung": 1169,
      "ĠSp": 1170,
      "Ġmod": 1171,
      "Ġdih": 1172,
      "Ġdilakukan": 1173,
      "aku": 1174,
      "Ġberj": 1175,
      "ebab": 1176,
      "akhir": 1177,
      "enteri": 1178,
      "antai": 1179,
      "Ġde": 1180,
      "Ġtiga": 1181,
      "-l": 1182,
      "Ġmengg": 1183,
      "udara": 1184,
      "itab": 1185,
      "Ġz": 1186,
      "Ġbaik": 1187,
      "Ġpolitik": 1188,
      "Ġsering": 1189,
      "Ġmanusia": 1190,
      "Ġkata": 1191,
      "ĠPresiden": 1192,
      "uli": 1193,
      "ubah": 1194,
      "Ġeks": 1195,
      "ity": 1196,
      "Ġkeh": 1197,
      "Ġkon": 1198,
      "ĠPol": 1199,
      "anggap": 1200,
      "urang": 1201,
      "ill": 1202,
      "usus": 1203,
      "ank": 1204,
      "abat": 1205,
      "ting": 1206,
      "ubungan": 1207,
      "Ġharus": 1208,
      "omb": 1209,
      "Ġmin": 1210,
      "Ġpernah": 1211,
      "ĠSM": 1212,
      "ĠUtara": 1213,
      "Ġmil": 1214,
      "ener": 1215,
      "ipun": 1216,
      "angun": 1217,
      "nama": 1218,
      "ĠSem": 1219,
      "anjut": 1220,
      "eskipun": 1221,
      "atas": 1222,
      "Ġbentuk": 1223,
      "Ġkeluar": 1224,
      "Ġmusim": 1225,
      "Ġel": 1226,
      "iv": 1227,
      "Ġberasal": 1228,
      "amm": 1229,
      "Ġdin": 1230,
      "asanya": 1231,
      "ĠMan": 1232,
      "ida": 1233,
      "ungkin": 1234,
      "ĠJakarta": 1235,
      "yat": 1236,
      "itus": 1237,
      "urat": 1238,
      "antan": 1239,
      "Ġma": 1240,
      "Ġhidup": 1241,
      "unung": 1242,
      "alami": 1243,
      "ayu": 1244,
      "annya": 1245,
      "\",": 1246,
      "askan": 1247,
      "ĠKet": 1248,
      "ell": 1249,
      "duksi": 1250,
      "ĠRom": 1251,
      ")ĊĊ": 1252,
      "ens": 1253,
      "truk": 1254,
      "ĠPrancis": 1255,
      "asikan": 1256,
      "alis": 1257,
      "Ġperusahaan": 1258,
      "Ġsp": 1259,
      "ĠBand": 1260,
      "fat": 1261,
      "ĠMer": 1262,
      "Ġdem": 1263,
      "Ġdiri": 1264,
      "oy": 1265,
      "Ġdij": 1266,
      "ton": 1267,
      "iwa": 1268,
      "ĠMen": 1269,
      "ĠRepublik": 1270,
      "ulu": 1271,
      "alnya": 1272,
      "Ġpusat": 1273,
      "ĠSek": 1274,
      "Ġterbesar": 1275,
      "30": 1276,
      "etah": 1277,
      "ex": 1278,
      "Ġmendapat": 1279,
      "Ġrumah": 1280,
      "ekat": 1281,
      "ĠNew": 1282,
      "epat": 1283,
      "Ġgel": 1284,
      "ĠMenteri": 1285,
      "form": 1286,
      "ĠKel": 1287,
      "Ġtak": 1288,
      "Ġpos": 1289,
      "atur": 1290,
      "tiv": 1291,
      "Ġperm": 1292,
      "all": 1293,
      "Ġlaut": 1294,
      "ejarah": 1295,
      "ci": 1296,
      "Ġtel": 1297,
      "ultan": 1298,
      "ĠMel": 1299,
      "uah": 1300,
      "Ġjenis": 1301,
      "awasan": 1302,
      "ast": 1303,
      "ungg": 1304,
      "193": 1305,
      "embangan": 1306,
      "Ġpopul": 1307,
      "25": 1308,
      "âĢĶ": 1309,
      "Ġtanah": 1310,
      "aksi": 1311,
      "ĠDes": 1312,
      "Ġ|": 1313,
      "Ġkl": 1314,
      "Ġters": 1315,
      "ĠKrist": 1316,
      "Ġwar": 1317,
      "Ġdiber": 1318,
      "atang": 1319,
      "ografi": 1320,
      "Ġilm": 1321,
      "ebabkan": 1322,
      "ĠPulau": 1323,
      "Ġagama": 1324,
      "urkan": 1325,
      "ca": 1326,
      "tiap": 1327,
      "ambil": 1328,
      "ers": 1329,
      "lim": 1330,
      "adang": 1331,
      ":ĊĊ": 1332,
      "Ġberhasil": 1333,
      "arl": 1334,
      "kok": 1335,
      "Ġhukum": 1336,
      "11": 1337,
      "Ġlagi": 1338,
      "Ġpun": 1339,
      "gram": 1340,
      "Ġmemba": 1341,
      "Ġmemberikan": 1342,
      "ami": 1343,
      "Ġkal": 1344,
      "ĠNasional": 1345,
      "Ġmengen": 1346,
      "Ġluas": 1347,
      "asilkan": 1348,
      "ingin": 1349,
      "ĠPend": 1350,
      "ĠNegeri": 1351,
      "ue": 1352,
      "asis": 1353,
      "Ġorgan": 1354,
      "ask": 1355,
      "uti": 1356,
      "ĠJan": 1357,
      "ustri": 1358,
      "eran": 1359,
      "Ġpenting": 1360,
      "iman": 1361,
      "Ġsetiap": 1362,
      "Ġmencapai": 1363,
      "Ġdig": 1364,
      "iz": 1365,
      "Ġbarat": 1366,
      "Ġpulau": 1367,
      "ĠTiongkok": 1368,
      "ban": 1369,
      "Ġjiwa": 1370,
      "isata": 1371,
      "Ġist": 1372,
      "Ġekonomi": 1373,
      "Ġmeninggal": 1374,
      "ira": 1375,
      "ĠIt": 1376,
      "embang": 1377,
      "ril": 1378,
      "Ġsejarah": 1379,
      "Ġbernama": 1380,
      "Ġperang": 1381,
      "nis": 1382,
      "ĠGereja": 1383,
      "ĠPert": 1384,
      "Ġberbeda": 1385,
      "uangan": 1386,
      "ide": 1387,
      "iti": 1388,
      "Ġmener": 1389,
      "ĠPerang": 1390,
      "ĠDunia": 1391,
      "ĠOk": 1392,
      "Ġtrans": 1393,
      "Ġkecamatan": 1394,
      "rat": 1395,
      "ujuan": 1396,
      "radisi": 1397,
      "Ġkhusus": 1398,
      "Ġfilm": 1399,
      "akyat": 1400,
      "Ġap": 1401,
      "ĠMah": 1402,
      "ĠEn": 1403,
      "Ġnasional": 1404,
      "emba": 1405,
      "hi": 1406,
      "ulang": 1407,
      "akar": 1408,
      "Lihat": 1409,
      "Ġperj": 1410,
      "uara": 1411,
      "ĠGr": 1412,
      "urun": 1413,
      "192": 1414,
      "Ġselatan": 1415,
      "iet": 1416,
      "ĠĊĠĊ": 1417,
      "ĠSetelah": 1418,
      "\".": 1419,
      "Ġperb": 1420,
      "ila": 1421,
      "Ġbiasanya": 1422,
      "Ġperd": 1423,
      "ĠHind": 1424,
      "Ġmaupun": 1425,
      "Ġkelompok": 1426,
      "Ġberm": 1427,
      "Ġutara": 1428,
      "upa": 1429,
      "Ġpesawat": 1430,
      "awi": 1431,
      "ĠHal": 1432,
      "enar": 1433,
      "tas": 1434,
      "ilai": 1435,
      "sia": 1436,
      "ĠTengah": 1437,
      "Ġjuta": 1438,
      "sk": 1439,
      "urn": 1440,
      "aga": 1441,
      "utama": 1442,
      "perasi": 1443,
      "intang": 1444,
      "ekerja": 1445,
      "Ġjalan": 1446,
      "ĠKed": 1447,
      "Ġberikut": 1448,
      "Ġtim": 1449,
      "-m": 1450,
      "ĠX": 1451,
      "tober": 1452,
      "Ġmiliter": 1453,
      "uncul": 1454,
      "Ġdianggap": 1455,
      "gab": 1456,
      "ukung": 1457,
      "udd": 1458,
      "-r": 1459,
      "ĠSum": 1460,
      "istrik": 1461,
      "Ġakhirnya": 1462,
      "Ġmenunjuk": 1463,
      "Ġlok": 1464,
      "ĠKat": 1465,
      "sp": 1466,
      "lu": 1467,
      "inasi": 1468,
      "ff": 1469,
      "ĠAustr": 1470,
      "Ġkr": 1471,
      "isan": 1472,
      "ĠRusia": 1473,
      "Ġtimur": 1474,
      "Ġdiba": 1475,
      "urahan": 1476,
      "Ġantar": 1477,
      "apkan": 1478,
      "Ġpasukan": 1479,
      "Ġmet": 1480,
      "ĠSelain": 1481,
      "ĠTh": 1482,
      "arti": 1483,
      "ĠKal": 1484,
      "Ġmaka": 1485,
      "atian": 1486,
      "Ġibu": 1487,
      "enter": 1488,
      "Ġtekn": 1489,
      "inta": 1490,
      "ĠDesember": 1491,
      "ĠNegara": 1492,
      "km": 1493,
      "ustus": 1494,
      "ich": 1495,
      "Ġmat": 1496,
      "ungsi": 1497,
      "ĠQ": 1498,
      "ger": 1499,
      "ĠDesa": 1500,
      "Ġditer": 1501,
      "eksi": 1502,
      "ĠPa": 1503,
      "enj": 1504,
      "ĠKh": 1505,
      "In": 1506,
      "Ġhasil": 1507,
      "unyai": 1508,
      "Ġmengalami": 1509,
      "ontoh": 1510,
      "Ġmengan": 1511,
      "isti": 1512,
      "Ġmusik": 1513,
      "alur": 1514,
      "ĠNov": 1515,
      "Ġmembentuk": 1516,
      "usaha": 1517,
      "tember": 1518,
      "ade": 1519,
      "Ġnamun": 1520,
      "ĠOktober": 1521,
      "Ġdic": 1522,
      "ĠArab": 1523,
      "ĠHar": 1524,
      "ork": 1525,
      "endah": 1526,
      "adan": 1527,
      "auh": 1528,
      "Ġtradisi": 1529,
      "Ġmempunyai": 1530,
      "Di": 1531,
      "Ġsuku": 1532,
      "Ġbin": 1533,
      "Ġka": 1534,
      "rop": 1535,
      "Ġpenj": 1536,
      "ĠSur": 1537,
      "Ġditemukan": 1538,
      "-orang": 1539,
      "Ġbidang": 1540,
      "amanya": 1541,
      "Ġsekarang": 1542,
      "Ġberdasarkan": 1543,
      "ĠJuli": 1544,
      "ine": 1545,
      "Ġ'": 1546,
      "bum": 1547,
      "Ġyak": 1548,
      "ĠMuh": 1549,
      "te": 1550,
      "erintah": 1551,
      "ebr": 1552,
      "imia": 1553,
      "Ġte": 1554,
      "ektr": 1555,
      "Ġsekali": 1556,
      "Ġmengenai": 1557,
      "Ġmuncul": 1558,
      "191": 1559,
      "Ġsementara": 1560,
      "ĠKes": 1561,
      "Ġkarya": 1562,
      "ĠJanuari": 1563,
      "ĠSeptember": 1564,
      "Ġilmu": 1565,
      "Ġterkenal": 1566,
      "Ġbola": 1567,
      "Ġlalu": 1568,
      "ĠAgustus": 1569,
      "ĠAsia": 1570,
      "Ġbukan": 1571,
      "ĠMei": 1572,
      "di": 1573,
      "ĠAc": 1574,
      "gen": 1575,
      "Ġbahan": 1576,
      "uskan": 1577,
      "Ġproses": 1578,
      "ĠApril": 1579,
      "ulkan": 1580,
      "truktur": 1581,
      "ĠKor": 1582,
      "ou": 1583,
      "ĠAngk": 1584,
      "-n": 1585,
      "Ġdasar": 1586,
      "Ġsosi": 1587,
      "asiun": 1588,
      "entukan": 1589,
      "ĠMaret": 1590,
      "Ġterutama": 1591,
      "ulauan": 1592,
      "Ġ,": 1593,
      "teri": 1594,
      "Ġdesa": 1595,
      "Ġtingkat": 1596,
      "Ġmenyatakan": 1597,
      "ampir": 1598,
      "lan": 1599,
      "adaan": 1600,
      "Ġmasuk": 1601,
      "Ġmakan": 1602,
      "ĠLe": 1603,
      "Ġsebelumnya": 1604,
      "ait": 1605,
      "erbangan": 1606,
      "ukup": 1607,
      "ongan": 1608,
      "anding": 1609,
      "ĠKerajaan": 1610,
      "Ġkapal": 1611,
      "atuan": 1612,
      "Ġmeningkat": 1613,
      "ĠRaya": 1614,
      "sur": 1615,
      "Ġsumber": 1616,
      "ĠBahasa": 1617,
      "ĠIndia": 1618,
      "ihak": 1619,
      "amat": 1620,
      "da": 1621,
      "ĠMa": 1622,
      "olik": 1623,
      "ki": 1624,
      "ĠKristen": 1625,
      "oni": 1626,
      "Ġlap": 1627,
      "Ġsebelah": 1628,
      "ĠBo": 1629,
      "Ġpan": 1630,
      "Ġberarti": 1631,
      "esin": 1632,
      "ry": 1633,
      "atasan": 1634,
      "Ġnegeri": 1635,
      "versi": 1636,
      "ĠKe": 1637,
      "Ġpendidikan": 1638,
      "rib": 1639,
      "war": 1640,
      "ĠSa": 1641,
      "Ġlangsung": 1642,
      "ator": 1643,
      "ĠTahun": 1644,
      "ĠPemb": 1645,
      "egi": 1646,
      "Ġpanjang": 1647,
      "elit": 1648,
      "ĠJuni": 1649,
      "Ġseg": 1650,
      "isalnya": 1651,
      "Ġkol": 1652,
      "ĠSy": 1653,
      "oks": 1654,
      "gabung": 1655,
      "ajar": 1656,
      "Ġmenunjukkan": 1657,
      "ass": 1658,
      "asti": 1659,
      "Ġbudaya": 1660,
      "acara": 1661,
      "Ġinternasional": 1662,
      "Ġa": 1663,
      "Ġtanpa": 1664,
      "Ġsesu": 1665,
      "Ġyakni": 1666,
      "50": 1667,
      "ĠDia": 1668,
      "|-": 1669,
      "Ġsedangkan": 1670,
      "Ġalam": 1671,
      "entu": 1672,
      "Ġlingk": 1673,
      "uju": 1674,
      "Ġkawasan": 1675,
      "ite": 1676,
      "Ġempat": 1677,
      "ĠMuhamm": 1678,
      "Ġprovinsi": 1679,
      "frika": 1680,
      "andar": 1681,
      "Ġagar": 1682,
      "24": 1683,
      "ational": 1684,
      "Ġsebanyak": 1685,
      "Ġhak": 1686,
      "-h": 1687,
      "angga": 1688,
      "ubahan": 1689,
      "Ġmungkin": 1690,
      "Ġterakhir": 1691,
      "ĠIr": 1692,
      "oll": 1693,
      "Ġmenyebabkan": 1694,
      "Ġcukup": 1695,
      "ukaan": 1696,
      "Ġsejumlah": 1697,
      "ish": 1698,
      "Ġsekolah": 1699,
      "olusi": 1700,
      "Âłkm": 1701,
      "Ġperi": 1702,
      "Ġkomun": 1703,
      "ĠâĢ": 1704,
      "tra": 1705,
      "Ġsebesar": 1706,
      "ĠNovember": 1707,
      "ĠUm": 1708,
      "gunaan": 1709,
      "dang": 1710,
      "Ġrel": 1711,
      "ĠRaja": 1712,
      "-d": 1713,
      "ilihan": 1714,
      "uasaan": 1715,
      "pada": 1716,
      "Ġmenghasilkan": 1717,
      "Ġdidirikan": 1718,
      "antu": 1719,
      "abatan": 1720,
      "caya": 1721,
      "ektur": 1722,
      "23": 1723,
      "Ġob": 1724,
      "Ġlagu": 1725,
      "NI": 1726,
      "agai": 1727,
      "Ġdekat": 1728,
      "adikan": 1729,
      "ugas": 1730,
      "ĠItalia": 1731,
      "omor": 1732,
      "men": 1733,
      "urunan": 1734,
      "ĠPers": 1735,
      "uf": 1736,
      "erita": 1737,
      "ĠDr": 1738,
      "Dalam": 1739,
      "ĠIl": 1740,
      "abi": 1741,
      "Ġot": 1742,
      "Ġcara": 1743,
      "uter": 1744,
      "Pem": 1745,
      "Ġbangsa": 1746,
      "Ġpenc": 1747,
      "Ġindustri": 1748,
      "ĠJoh": 1749,
      "Ġtertentu": 1750,
      "istiwa": 1751,
      "itania": 1752,
      "ĠAfrika": 1753,
      "Ġumumnya": 1754,
      "idupan": 1755,
      "of": 1756,
      "Ġ||": 1757,
      "Ġudara": 1758,
      "21": 1759,
      "ĠKons": 1760,
      "andi": 1761,
      "ĠProvinsi": 1762,
      "ayat": 1763,
      "formasi": 1764,
      "ikian": 1765,
      "ĠPi": 1766,
      "Ġhubungan": 1767,
      "ampung": 1768,
      "anjian": 1769,
      "Ġger": 1770,
      "RI": 1771,
      "ĠIb": 1772,
      "ĠGe": 1773,
      "isah": 1774,
      "Äģ": 1775,
      "ĠEk": 1776,
      "ĠMat": 1777,
      "ĠTr": 1778,
      "ĠSungai": 1779,
      "oran": 1780,
      "ĠKeb": 1781,
      "ĠPut": 1782,
      "Ġsub": 1783,
      "Ġlama": 1784,
      "ĠSam": 1785,
      "akai": 1786,
      "An": 1787,
      "akin": 1788,
      "ge": 1789,
      "ĠKa": 1790,
      "ĠMo": 1791,
      "agian": 1792,
      "aria": 1793,
      "ikuti": 1794,
      "orn": 1795,
      "port": 1796,
      "ono": 1797,
      "ĠSal": 1798,
      "Ġkej": 1799,
      "uri": 1800,
      "Ġmenurut": 1801,
      "Ġjika": 1802,
      "embaga": 1803,
      "Ġkeluarga": 1804,
      "ayanan": 1805,
      "Ġre": 1806,
      "Ġdep": 1807,
      "Ġkerajaan": 1808,
      "co": 1809,
      "antikan": 1810,
      "Ġup": 1811,
      "ĠDengan": 1812,
      "ĠCo": 1813,
      "ĠOl": 1814,
      "ĠĠĠĠ": 1815,
      "ewa": 1816,
      "uanya": 1817,
      "ĠFebr": 1818,
      "ĠAS": 1819,
      "Sejarah": 1820,
      "ĠBat": 1821,
      "ĠTel": 1822,
      "enda": 1823,
      "etahui": 1824,
      "eli": 1825,
      "-mas": 1826,
      "la": 1827,
      "akh": 1828,
      "Ġberkembang": 1829,
      "40": 1830,
      "Ġet": 1831,
      "ral": 1832,
      "Ġasal": 1833,
      "Ġsungai": 1834,
      "erang": 1835,
      "ĠPas": 1836,
      "erta": 1837,
      "ĠGunung": 1838,
      "engaruh": 1839,
      "ĠYes": 1840,
      "Ġlog": 1841,
      "Ġsaja": 1842,
      "22": 1843,
      "ahir": 1844,
      "eder": 1845,
      "umen": 1846,
      "edi": 1847,
      "ĠLaut": 1848,
      "atus": 1849,
      "obil": 1850,
      "ĠBaru": 1851,
      "-B": 1852,
      "isar": 1853,
      "'s": 1854,
      "Ġkurang": 1855,
      "Ġraja": 1856,
      "empuan": 1857,
      "ĠAbd": 1858,
      "ĠMereka": 1859,
      "ĠFebruari": 1860,
      "=\"": 1861,
      "jo": 1862,
      "ĠPartai": 1863,
      "ulit": 1864,
      "arian": 1865,
      "Ġkab": 1866,
      "ht": 1867,
      "inc": 1868,
      "Ġrendah": 1869,
      "27": 1870,
      "istik": 1871,
      "ejak": 1872,
      "Ġbekerja": 1873,
      "190": 1874,
      "Ġsosial": 1875,
      "oritas": 1876,
      "ĠMaj": 1877,
      "baik": 1878,
      "landia": 1879,
      "ĠBritania": 1880,
      ".\"": 1881,
      "ajaran": 1882,
      "ĠYah": 1883,
      "oviet": 1884,
      "ministr": 1885,
      "embangkan": 1886,
      "osa": 1887,
      "akil": 1888,
      "Ġperiode": 1889,
      "Ġtinggal": 1890,
      "100": 1891,
      "Ġ&": 1892,
      "ĠDaerah": 1893,
      "enderal": 1894,
      "Ġelektr": 1895,
      "atatan": 1896,
      "ĠAllah": 1897,
      "umbuhan": 1898,
      "rasi": 1899,
      "oro": 1900,
      "Ġpengh": 1901,
      "arik": 1902,
      "alif": 1903,
      "anyol": 1904,
      "Ġterus": 1905,
      "ĠRo": 1906,
      "Ġdaripada": 1907,
      "Ġpenerbangan": 1908,
      "au": 1909,
      "eum": 1910,
      "|-Ċ": 1911,
      "Ġpet": 1912,
      "-S": 1913,
      "ehatan": 1914,
      "ebar": 1915,
      "Â°": 1916,
      "ess": 1917,
      "yakit": 1918,
      "Ġpihak": 1919,
      "ĠPl": 1920,
      "ĠIsra": 1921,
      "enang": 1922,
      "Ġsi": 1923,
      "ĠTim": 1924,
      "Ġmendapatkan": 1925,
      "ihan": 1926,
      "ĠBl": 1927,
      "ĠBar": 1928,
      "ĠSing": 1929,
      "Ġ.": 1930,
      "Ġjauh": 1931,
      "Ġkekuasaan": 1932,
      "son": 1933,
      "Ġart": 1934,
      "Ġsedang": 1935,
      "ĠUd": 1936,
      "Al": 1937,
      "Ġtengah": 1938,
      "ikit": 1939,
      "iah": 1940,
      "adakan": 1941,
      "uhkan": 1942,
      "Ġti": 1943,
      "aksan": 1944,
      "encana": 1945,
      "bit": 1946,
      "ampak": 1947,
      "ubern": 1948,
      "Ġtokoh": 1949,
      "ĠSoviet": 1950,
      "Ġem": 1951,
      "Ġsepanjang": 1952,
      "ĠPerd": 1953,
      "unuh": 1954,
      "Ġhampir": 1955,
      "Ġmodern": 1956,
      "II": 1957,
      "Ġdibuat": 1958,
      "Ġakibat": 1959,
      "enggara": 1960,
      "yata": 1961,
      "Seb": 1962,
      "Ġdata": 1963,
      "ĠPel": 1964,
      "ilis": 1965,
      "erdek": 1966,
      "Ġmenerima": 1967,
      "ĠKatolik": 1968,
      "emuan": 1969,
      "alik": 1970,
      "Ġzaman": 1971,
      "rah": 1972,
      "Ġbuku": 1973,
      "ubung": 1974,
      "ubuh": 1975,
      "gaan": 1976,
      "Ġmenyebut": 1977,
      "inal": 1978,
      "uman": 1979,
      "ĠSpanyol": 1980,
      "Ġsuara": 1981,
      "28": 1982,
      "antung": 1983,
      "rom": 1984,
      "ĠMelayu": 1985,
      "ĠSitus": 1986,
      "ĠTur": 1987,
      "unda": 1988,
      "-masing": 1989,
      "ĠEd": 1990,
      "ĠAt": 1991,
      "26": 1992,
      "Ġpresiden": 1993,
      "Ġsal": 1994,
      "ĠMin": 1995,
      "jek": 1996,
      "Ġistilah": 1997,
      "ubernur": 1998,
      "Ġposisi": 1999,
      "mu": 2000,
      "ona": 2001,
      "ampu": 2002,
      "ĠMad": 2003,
      "Ġjam": 2004,
      "erdekaan": 2005,
      "isaran": 2006,
      "ĠBeberapa": 2007,
      "âĢĿ": 2008,
      "uno": 2009,
      "ĠPang": 2010,
      "ore": 2011,
      "ĠDaftar": 2012,
      "Ġkerja": 2013,
      "ĠEl": 2014,
      "han": 2015,
      "Ġbahkan": 2016,
      "ck": 2017,
      "Ġsedikit": 2018,
      "Ġen": 2019,
      "entang": 2020,
      "ĠPal": 2021,
      "olak": 2022,
      "Ġdibangun": 2023,
      "arn": 2024,
      "ĠInternasional": 2025,
      "ujan": 2026,
      "evisi": 2027,
      "Ġlima": 2028,
      "andang": 2029,
      "ĠDem": 2030,
      "ĠYork": 2031,
      "Ġmeskipun": 2032,
      "Ġgr": 2033,
      "Ġ=": 2034,
      "ase": 2035,
      "ĠSw": 2036,
      "ĠNo": 2037,
      "ikel": 2038,
      "isik": 2039,
      "anita": 2040,
      "Ġmesin": 2041,
      "Ġmelawan": 2042,
      "Ġprogram": 2043,
      "Ġmenyel": 2044,
      "ĠAnd": 2045,
      "impinan": 2046,
      "Kota": 2047,
      "Tokoh": 2048,
      "Ġdemikian": 2049,
      "agangan": 2050,
      "ĠUdara": 2051,
      "Ġkereta": 2052,
      "ĠSen": 2053,
      "ost": 2054,
      "Ġlahir": 2055,
      "Ġadanya": 2056,
      "ĠYesus": 2057,
      "ĠBe": 2058,
      "ĠIsrael": 2059,
      "ĠSe": 2060,
      "ĠKu": 2061,
      "Ġgelar": 2062,
      ").Ċ": 2063,
      "Ġbelum": 2064,
      "jid": 2065,
      "aringan": 2066,
      "Ġgen": 2067,
      "Sel": 2068,
      "Ġbumi": 2069,
      "evolusi": 2070,
      "ith": 2071,
      "qu": 2072,
      "ĠTan": 2073,
      "Ġmasing": 2074,
      "Ġketiga": 2075,
      "Un": 2076,
      "eluar": 2077,
      "Ġalbum": 2078,
      "ĠSch": 2079,
      "ret": 2080,
      "Ġpemain": 2081,
      "atin": 2082,
      "Ġperubahan": 2083,
      "Ġ/": 2084,
      "Ġkepala": 2085,
      "Ġapi": 2086,
      "Ġkabupaten": 2087,
      "Ġmemen": 2088,
      "Ġsepak": 2089,
      "ĠYahudi": 2090,
      "unani": 2091,
      "Ġperempuan": 2092,
      "iputi": 2093,
      "ĠMak": 2094,
      "ahanan": 2095,
      "Ġkont": 2096,
      "bon": 2097,
      "ukuran": 2098,
      "Ġjabatan": 2099,
      "ĠWil": 2100,
      "Ġdimulai": 2101,
      "Ġmakanan": 2102,
      "etik": 2103,
      "de": 2104,
      "Ġrek": 2105,
      "Ġpermukaan": 2106,
      "ĠAngkatan": 2107,
      "ate": 2108,
      "ĠAw": 2109,
      "Ġdiperk": 2110,
      "ĠDep": 2111,
      "Ġpopulasi": 2112,
      "una": 2113,
      "ĠPort": 2114,
      "aysia": 2115,
      "Ġseni": 2116,
      "Ġbiasa": 2117,
      "Ġik": 2118,
      "Ġangk": 2119,
      "Ġ()": 2120,
      "ĠTekn": 2121,
      "Ġlingkungan": 2122,
      "alaman": 2123,
      "ĠPemerintah": 2124,
      "Ġjalur": 2125,
      "Ġorganisasi": 2126,
      "Ġsah": 2127,
      "Ġwarga": 2128,
      "Ġef": 2129,
      "irkan": 2130,
      "amaan": 2131,
      "PR": 2132,
      "oto": 2133,
      "akul": 2134,
      "Ġbersi": 2135,
      "Ġlistrik": 2136,
      "ijakan": 2137,
      "ce": 2138,
      "Ġdaya": 2139,
      "Ġkimia": 2140,
      "ock": 2141,
      "Ġmenuju": 2142,
      "ungi": 2143,
      "Ġmeliputi": 2144,
      "Ġsesuai": 2145,
      "fer": 2146,
      "Ġpemimpin": 2147,
      "Ġmasalah": 2148,
      "-A": 2149,
      "ĠSultan": 2150,
      "etapkan": 2151,
      "iss": 2152,
      "yakarta": 2153,
      "anyi": 2154,
      "Ġkor": 2155,
      "ogyakarta": 2156,
      "rik": 2157,
      "ĠKepulauan": 2158,
      "ekaisaran": 2159,
      "Ġberupa": 2160,
      "Ġproduksi": 2161,
      "Ġped": 2162,
      "ĠDewan": 2163,
      "Ġkehidupan": 2164,
      "ĠYunani": 2165,
      "Ġmengambil": 2166,
      "ĠMes": 2167,
      "uw": 2168,
      "Ġsurat": 2169,
      "ĠIntern": 2170,
      "Ġmenulis": 2171,
      "Ġperl": 2172,
      "stit": 2173,
      "atat": 2174,
      "ambang": 2175,
      "ĠIm": 2176,
      "uth": 2177,
      "uluh": 2178,
      "takan": 2179,
      "Ġtubuh": 2180,
      "Ġkond": 2181,
      "ĠEm": 2182,
      "yo": 2183,
      "Ġmah": 2184,
      "ĠMed": 2185,
      "hargaan": 2186,
      "awab": 2187,
      "ibatkan": 2188,
      "Ã¡": 2189,
      "urg": 2190,
      "ĠKan": 2191,
      "ĠRes": 2192,
      "elas": 2193,
      "anjung": 2194,
      "ukti": 2195,
      "umpang": 2196,
      "Ġsemakin": 2197,
      "ĠJalan": 2198,
      "Ġpember": 2199,
      "anggung": 2200,
      "ecara": 2201,
      "Ġto": 2202,
      "urus": 2203,
      "Ġfor": 2204,
      "acam": 2205,
      "Ġbeb": 2206,
      "Pen": 2207,
      "ris": 2208,
      "Ġkas": 2209,
      "energi": 2210,
      "ne": 2211,
      "ler": 2212,
      "Ġkaum": 2213,
      "Ġbelak": 2214,
      "ĠRomawi": 2215,
      "ĠSumat": 2216,
      "29": 2217,
      "Ġbur": 2218,
      "isk": 2219,
      "ĠMuhammad": 2220,
      "ji": 2221,
      "ash": 2222,
      "antor": 2223,
      "-M": 2224,
      "ĠMalaysia": 2225,
      "epatan": 2226,
      "ĠKong": 2227,
      "amin": 2228,
      "Setelah": 2229,
      "lob": 2230,
      "ron": 2231,
      "lukan": 2232,
      "Ġon": 2233,
      "ĠIni": 2234,
      "akultas": 2235,
      "Ġpenyakit": 2236,
      "ohon": 2237,
      "ĠAgung": 2238,
      "Ġpembangunan": 2239,
      "Ġim": 2240,
      "irim": 2241,
      "ĠKap": 2242,
      "ganti": 2243,
      "ie": 2244,
      "ary": 2245,
      "Ġseri": 2246,
      "pl": 2247,
      "adem": 2248,
      "ĠPh": 2249,
      "Ġkeber": 2250,
      "Ġhujan": 2251,
      "uki": 2252,
      "Ġhutan": 2253,
      "ĠLa": 2254,
      "ĠUntuk": 2255,
      "ve": 2256,
      "Ġproduk": 2257,
      "uruan": 2258,
      "Peng": 2259,
      "atuh": 2260,
      "araan": 2261,
      "ifat": 2262,
      "Ġprib": 2263,
      "ela": 2264,
      "adilan": 2265,
      "ĠTe": 2266,
      "Ġpasar": 2267,
      "ampil": 2268,
      "angi": 2269,
      "Ġpenggunaan": 2270,
      "ilangan": 2271,
      "utup": 2272,
      "roduksi": 2273,
      "Ġasli": 2274,
      "Ġtujuan": 2275,
      "ulus": 2276,
      "ĠâĢľ": 2277,
      "ĠPusat": 2278,
      "Ġpanas": 2279,
      "por": 2280,
      "Ġmon": 2281,
      "ĠAh": 2282,
      "Ġkaki": 2283,
      "Ġkuat": 2284,
      "alaupun": 2285,
      "-negara": 2286,
      "ĠPan": 2287,
      "Ġenergi": 2288,
      "imana": 2289,
      "Ġdok": 2290,
      "Ġdiberikan": 2291,
      "oba": 2292,
      "alkan": 2293,
      "Ġpantai": 2294,
      "Ġarah": 2295,
      "otal": 2296,
      "ĠYogyakarta": 2297,
      "AN": 2298,
      "Ġsin": 2299,
      "Ġbergabung": 2300,
      "Ġbangunan": 2301,
      "Ġtentara": 2302,
      "sial": 2303,
      "ĠIst": 2304,
      "sek": 2305,
      "Ġhid": 2306,
      "Ġsa": 2307,
      "ĠPendidikan": 2308,
      "ĠKon": 2309,
      "wak": 2310,
      "ĠJenderal": 2311,
      "Ġpenulis": 2312,
      "empuran": 2313,
      "Ġtertinggi": 2314,
      "asif": 2315,
      "Ġelektron": 2316,
      "aksa": 2317,
      "Ġgol": 2318,
      "Ġnilai": 2319,
      "Ġmenjabat": 2320,
      "rip": 2321,
      "erti": 2322,
      "akit": 2323,
      "Ġwanita": 2324,
      "Ġsk": 2325,
      "Ġmur": 2326,
      "Ġmengak": 2327,
      "ĠPet": 2328,
      "abang": 2329,
      "istor": 2330,
      "udul": 2331,
      "Ġbuah": 2332,
      "Ġfil": 2333,
      "uncak": 2334,
      "ingkatan": 2335,
      "Ġmobil": 2336,
      "Ġtradisional": 2337,
      "ld": 2338,
      "ack": 2339,
      "ute": 2340,
      "Ġberg": 2341,
      "âĢĻ": 2342,
      "Ġrakyat": 2343,
      "gn": 2344,
      "Ġur": 2345,
      "Ġterc": 2346,
      "Ġditulis": 2347,
      "asiswa": 2348,
      "bo": 2349,
      "Ġband": 2350,
      "anyakan": 2351,
      "Ġkekuatan": 2352,
      "Ġmampu": 2353,
      "efin": 2354,
      "Ġmaj": 2355,
      "astra": 2356,
      "ĠLi": 2357,
      "ĠUniversity": 2358,
      "Ġgaya": 2359,
      "ĠJohn": 2360,
      "Ġstruktur": 2361,
      "Ġtah": 2362,
      "atunya": 2363,
      "Ġrata": 2364,
      "bert": 2365,
      "Ġkematian": 2366,
      "atangan": 2367,
      "Ġunsur": 2368,
      "Ġgag": 2369,
      "tes": 2370,
      "Ġtangan": 2371,
      "Ġasam": 2372,
      ".,": 2373,
      "old": 2374,
      "indah": 2375,
      "Ġmilik": 2376,
      "ĠKarena": 2377,
      "oko": 2378,
      "portasi": 2379,
      "raga": 2380,
      "andia": 2381,
      "Ġdibanding": 2382,
      "ĠPara": 2383,
      "ombang": 2384,
      "Ġis": 2385,
      "abuhan": 2386,
      "Ġmemas": 2387,
      "Ġint": 2388,
      "Ġpl": 2389,
      "elitian": 2390,
      "ĠPar": 2391,
      "Men": 2392,
      "utusan": 2393,
      "ominasi": 2394,
      "ĠMenurut": 2395,
      "Ġantaranya": 2396,
      "ĠKalim": 2397,
      "sit": 2398,
      "Ġmisalnya": 2399,
      "eluarkan": 2400,
      "AS": 2401,
      "Ġmendirikan": 2402,
      "irakan": 2403,
      "egang": 2404,
      "apura": 2405,
      "-rata": 2406,
      "Ġmata": 2407,
      "Ġmengk": 2408,
      "ĠAceh": 2409,
      "Ġcepat": 2410,
      "60": 2411,
      "dung": 2412,
      "emat": 2413,
      "baya": 2414,
      "Ġge": 2415,
      "Ġmeter": 2416,
      "ambah": 2417,
      "Ġdatang": 2418,
      "anian": 2419,
      "ros": 2420,
      "ital": 2421,
      "ĠTNI": 2422,
      "tab": 2423,
      ";Ċ": 2424,
      "Ġbatu": 2425,
      "ĠDin": 2426,
      "Ġnon": 2427,
      "iptakan": 2428,
      "atar": 2429,
      "elahiran": 2430,
      "Ġuang": 2431,
      "Ġmengatakan": 2432,
      "ĠCl": 2433,
      "ĠSD": 2434,
      "ĠKol": 2435,
      "Ġcontoh": 2436,
      "Ġinformasi": 2437,
      "ĠPerj": 2438,
      "Ã¼": 2439,
      "anjutnya": 2440,
      "..": 2441,
      "uhu": 2442,
      "luk": 2443,
      "ĠAustralia": 2444,
      "Ġpartai": 2445,
      "Ġsisi": 2446,
      "ĠBi": 2447,
      "80": 2448,
      "ĠSementara": 2449,
      "elis": 2450,
      "Ġmenemukan": 2451,
      "Ġdepan": 2452,
      "isnis": 2453,
      "aturan": 2454,
      "Ġlokal": 2455,
      "ĠSi": 2456,
      "tivitas": 2457,
      "edung": 2458,
      "Ġdiketahui": 2459,
      "Ġib": 2460,
      "ĠRakyat": 2461,
      "Ġkend": 2462,
      "adio": 2463,
      "Ġdipimpin": 2464,
      "Ġperkembangan": 2465,
      "Ġkita": 2466,
      "Ġberubah": 2467,
      "ĠDari": 2468,
      "Ġmak": 2469,
      "ĠPres": 2470,
      "ĠMeskipun": 2471,
      "ekerj": 2472,
      "ĠIS": 2473,
      "Ġjaringan": 2474,
      "se": 2475,
      "ĠSaat": 2476,
      "ĠPur": 2477,
      "Ġstasiun": 2478,
      "Ġminyak": 2479,
      "ĠHer": 2480,
      "yi": 2481,
      "ĠRe": 2482,
      "ĠAbdul": 2483,
      "Ġperdagangan": 2484,
      "oa": 2485,
      "alanan": 2486,
      "gus": 2487,
      "Ġgaris": 2488,
      "eman": 2489,
      "sh": 2490,
      "Ġsaya": 2491,
      "Ġkegi": 2492,
      "ĠSebagai": 2493,
      "Ġkegiatan": 2494,
      "ka": 2495,
      "ĠHa": 2496,
      "anto": 2497,
      "ayaan": 2498,
      "Ġversi": 2499,
      "ainan": 2500,
      "orld": 2501,
      "Ġbal": 2502,
      "ĠSed": 2503,
      "tion": 2504,
      "ĠSuk": 2505,
      "usun": 2506,
      "orong": 2507,
      "ater": 2508,
      "ĠKetua": 2509,
      "ĠBesar": 2510,
      "Ġgereja": 2511,
      "ema": 2512,
      "Ġmenik": 2513,
      "Ġbelakang": 2514,
      "Ġmembawa": 2515,
      "ĠWilayah": 2516,
      "ainkan": 2517,
      "Ġadministr": 2518,
      "Ġmembangun": 2519,
      "ateg": 2520,
      "agn": 2521,
      "versitas": 2522,
      "Ġkini": 2523,
      "ĠHindia": 2524,
      "ĠSan": 2525,
      "ĠTaman": 2526,
      "Ġweb": 2527,
      "ĠMuslim": 2528,
      "ĠPT": 2529,
      "engaruhi": 2530,
      "umkan": 2531,
      "edaan": 2532,
      "asta": 2533,
      "Ġmelihat": 2534,
      "Ġberlangsung": 2535,
      "yek": 2536,
      "ahli": 2537,
      "ĠKalimantan": 2538,
      "enaga": 2539,
      "org": 2540,
      "Ġmul": 2541,
      "apun": 2542,
      "Ġialah": 2543,
      "ĠHindu": 2544,
      "Ġgrup": 2545,
      "yar": 2546,
      "askah": 2547,
      "ĠPiala": 2548,
      "one": 2549,
      "ĠKr": 2550,
      "ĠPat": 2551,
      "egun": 2552,
      "ĠBudd": 2553,
      "ĠPes": 2554,
      "Ġawalnya": 2555,
      "Ġmendukung": 2556,
      "su": 2557,
      "ĠBandung": 2558,
      "amanan": 2559,
      "unga": 2560,
      "Ar": 2561,
      "otor": 2562,
      "ambarkan": 2563,
      "ĠGu": 2564,
      "Ġatom": 2565,
      "Ġpopuler": 2566,
      "urabaya": 2567,
      "KI": 2568,
      "ĠDan": 2569,
      "Ġmew": 2570,
      "ilang": 2571,
      "andangan": 2572,
      "Ġku": 2573,
      "ambahan": 2574,
      "Ġgerakan": 2575,
      "ĠBanj": 2576,
      "udukan": 2577,
      "189": 2578,
      "Ġkelas": 2579,
      "ment": 2580,
      "lobal": 2581,
      "upati": 2582,
      "Ġserangan": 2583,
      "Ġgunung": 2584,
      "ungkinan": 2585,
      "Ġapa": 2586,
      "Ġpad": 2587,
      "ĠDa": 2588,
      "Ġkomputer": 2589,
      "Ġkontr": 2590,
      "ajah": 2591,
      "ajak": 2592,
      "Ġketurunan": 2593,
      "Ġumat": 2594,
      "ĠMesir": 2595,
      "Ġkemerdekaan": 2596,
      "Ġtelevisi": 2597,
      "Ġtotal": 2598,
      "istan": 2599,
      "Ġmembantu": 2600,
      "ĠPap": 2601,
      "agu": 2602,
      "Ġspesi": 2603,
      "alahkan": 2604,
      "Ġmed": 2605,
      "\".ĊĊ": 2606,
      "inet": 2607,
      "Ġpertanian": 2608,
      "engahan": 2609,
      "etahuan": 2610,
      "Ġdom": 2611,
      "Ġpemba": 2612,
      "Ġteknologi": 2613,
      "akup": 2614,
      "iring": 2615,
      "Ġselalu": 2616,
      "ujuh": 2617,
      "ora": 2618,
      "Ġsifat": 2619,
      "wi": 2620,
      "tit": 2621,
      "Ġ[": 2622,
      "artemen": 2623,
      "Ġpublik": 2624,
      "ĠYang": 2625,
      "can": 2626,
      "Ġmantan": 2627,
      "ĠHari": 2628,
      "Ġalat": 2629,
      "Ġdirinya": 2630,
      "|Ċ": 2631,
      "agi": 2632,
      "Ġwisata": 2633,
      "angkap": 2634,
      "ĠIlmu": 2635,
      "ĠTrans": 2636,
      "Ġgas": 2637,
      "adar": 2638,
      "iaya": 2639,
      "ĠRoma": 2640,
      "Ġhewan": 2641,
      "ĠSunda": 2642,
      "ahaya": 2643,
      "Ġpenumpang": 2644,
      "aranya": 2645,
      "ekul": 2646,
      "Ġdibentuk": 2647,
      "go": 2648,
      "Ġmenjel": 2649,
      "Ġemas": 2650,
      "Ġus": 2651,
      "ĠDir": 2652,
      "ambar": 2653,
      "ĠMet": 2654,
      "Ġkebijakan": 2655,
      "mad": 2656,
      "amai": 2657,
      "aram": 2658,
      "Ġtitik": 2659,
      "Ġjarak": 2660,
      "uhnya": 2661,
      "Ġsup": 2662,
      "Ġperistiwa": 2663,
      "eform": 2664,
      "FA": 2665,
      "ĠDis": 2666,
      "Ġtepat": 2667,
      "ĠLiga": 2668,
      "arakan": 2669,
      "ĠSul": 2670,
      "Ġkeadaan": 2671,
      "ĠPortug": 2672,
      "undang": 2673,
      "ĠMon": 2674,
      "Ġbebas": 2675,
      "egunungan": 2676,
      "kapai": 2677,
      "Ġstr": 2678,
      "asia": 2679,
      "rig": 2680,
      "188": 2681,
      "Ġkitab": 2682,
      "Ġayah": 2683,
      "agam": 2684,
      "Ġdistr": 2685,
      "Ġkondisi": 2686,
      "Ġkesehatan": 2687,
      "ick": 2688,
      "-g": 2689,
      "lo": 2690,
      "ĠSet": 2691,
      "ondon": 2692,
      "Ġefek": 2693,
      "Ġdar": 2694,
      "ial": 2695,
      "Ġpemilihan": 2696,
      "ĠKelurahan": 2697,
      "Ġpengaruh": 2698,
      "Ġfr": 2699,
      "ahari": 2700,
      "Ġahli": 2701,
      "Ġuni": 2702,
      "BN": 2703,
      "Pro": 2704,
      "Ġins": 2705,
      "ania": 2706,
      "rogen": 2707,
      "Ġacara": 2708,
      "uruf": 2709,
      "alin": 2710,
      "Ġbak": 2711,
      "andingan": 2712,
      "ĠSekolah": 2713,
      "ĠBank": 2714,
      "Ġberikutnya": 2715,
      "itasi": 2716,
      "egitu": 2717,
      "ĠPantai": 2718,
      "ĠBumi": 2719,
      "embatan": 2720,
      "aktor": 2721,
      "Ġmemperk": 2722,
      "Ġdiberi": 2723,
      "Ġdes": 2724,
      "Ġdr": 2725,
      "ĠBali": 2726,
      "iling": 2727,
      "erintahan": 2728,
      "Ġul": 2729,
      "ice": 2730,
      "ĠUmum": 2731,
      "omm": 2732,
      "irip": 2733,
      "Ġruang": 2734,
      "che": 2735,
      "ĠHe": 2736,
      "Ġjatuh": 2737,
      "Ġanti": 2738,
      "akaan": 2739,
      "ÃŃ": 2740,
      "ĠPerdana": 2741,
      "Ġpat": 2742,
      "our": 2743,
      "hoa": 2744,
      "Ġputih": 2745,
      "ĠRI": 2746,
      "Ġkesel": 2747,
      "Pend": 2748,
      "ektor": 2749,
      "inggian": 2750,
      "Ġkonf": 2751,
      "Ġmeningkatkan": 2752,
      "-H": 2753,
      "ean": 2754,
      "Ġmuda": 2755,
      "ence": 2756,
      "ultanan": 2757,
      "Ġmengikuti": 2758,
      "70": 2759,
      "ĠBal": 2760,
      "antara": 2761,
      "Ġpener": 2762,
      "Bahasa": 2763,
      "faat": 2764,
      "Ġteori": 2765,
      "Ġbersifat": 2766,
      "Ġmengandung": 2767,
      "ĠKemudian": 2768,
      "ukit": 2769,
      "Ġfungsi": 2770,
      "ĠKorea": 2771,
      "ĠFil": 2772,
      "ĠAda": 2773,
      "omo": 2774,
      "Ġmeninggalkan": 2775,
      "-c": 2776,
      "ĠPak": 2777,
      "ĠSurabaya": 2778,
      "ĠJam": 2779,
      "Ġaliran": 2780,
      "osisi": 2781,
      "ĠAirlin": 2782,
      "ert": 2783,
      "31": 2784,
      "Ġwarna": 2785,
      "hana": 2786,
      "Ġperjalanan": 2787,
      "pen": 2788,
      "ĠBen": 2789,
      "Ġpendek": 2790,
      "Ġdel": 2791,
      "ampuan": 2792,
      "Ġusia": 2793,
      "ĠGo": 2794,
      "enterian": 2795,
      "ĠTV": 2796,
      "Ġmenolak": 2797,
      "inj": 2798,
      "operasi": 2799,
      "Ġingin": 2800,
      "ganisasi": 2801,
      "Ġmemberi": 2802,
      "ĠLondon": 2803,
      "ĠBanjar": 2804,
      "Ġtr": 2805,
      "minal": 2806,
      "ĠTurki": 2807,
      "ikiran": 2808,
      "Ġmemut": 2809,
      "ĠTuhan": 2810,
      "Ġdibandingkan": 2811,
      "ĠGubernur": 2812,
      "ĠWar": 2813,
      "enangan": 2814,
      "ĠCon": 2815,
      "lanet": 2816,
      "uruhan": 2817,
      "ĠProf": 2818,
      "ungkinkan": 2819,
      "ĠBul": 2820,
      "Ġri": 2821,
      "epak": 2822,
      "emu": 2823,
      "500": 2824,
      "ĠTinggi": 2825,
      "ĠSri": 2826,
      "Ġhi": 2827,
      "ĠHan": 2828,
      "egal": 2829,
      "Ġoperasi": 2830,
      "eorang": 2831,
      "ĠInternational": 2832,
      "ĠDen": 2833,
      "Ġunit": 2834,
      "Ġputra": 2835,
      "aksanakan": 2836,
      "ly": 2837,
      "ĠBur": 2838,
      "alahan": 2839,
      "Ġmati": 2840,
      "Ġkur": 2841,
      "35": 2842,
      "epas": 2843,
      "ataran": 2844,
      "umumkan": 2845,
      "enarnya": 2846,
      "Ġberakhir": 2847,
      "Ġmemperoleh": 2848,
      "NA": 2849,
      "ekas": 2850,
      "ipil": 2851,
      "Ġkasus": 2852,
      "esis": 2853,
      "Ġsebaga": 2854,
      "-K": 2855,
      "Ġinv": 2856,
      "ĠAirlines": 2857,
      "Ġmempert": 2858,
      "ath": 2859,
      "Ġtanaman": 2860,
      "udayaan": 2861,
      "Ġmudah": 2862,
      "itam": 2863,
      "Ġkeuangan": 2864,
      "Ġmemilih": 2865,
      "-P": 2866,
      "arier": 2867,
      "age": 2868,
      "ez": 2869,
      "Ġlaki": 2870,
      "ĠKl": 2871,
      "Ġinter": 2872,
      "abel": 2873,
      "Ġform": 2874,
      "ser": 2875,
      "aktik": 2876,
      "Ġsana": 2877,
      "ĠTionghoa": 2878,
      "apt": 2879,
      "Ġdipakai": 2880,
      "ĠKepala": 2881,
      "Ġ:": 2882,
      "ĠKekaisaran": 2883,
      "ekanan": 2884,
      "atkan": 2885,
      "yle": 2886,
      "Ġla": 2887,
      "Ġdibagi": 2888,
      "wakilan": 2889,
      "kitab": 2890,
      "inggu": 2891,
      "37": 2892,
      "ĠSk": 2893,
      "ĠAf": 2894,
      "-j": 2895,
      "utu": 2896,
      "ĠKetika": 2897,
      "itung": 2898,
      "ahulu": 2899,
      "igi": 2900,
      "uasai": 2901,
      "ahl": 2902,
      "Ġmenjadikan": 2903,
      "Ġpenyanyi": 2904,
      "uddin": 2905,
      "Ġuj": 2906,
      "ĠSu": 2907,
      "row": 2908,
      "ĠEx": 2909,
      "Ġkemungkinan": 2910,
      "Ġtulis": 2911,
      "ĠInstit": 2912,
      "Ġhad": 2913,
      "Ø§": 2914,
      "guruan": 2915,
      "Ġpengembangan": 2916,
      "liam": 2917,
      "ium": 2918,
      "ino": 2919,
      "Ġmenarik": 2920,
      "agang": 2921,
      "antuan": 2922,
      "ĠPeny": 2923,
      "Daftar": 2924,
      "leks": 2925,
      "alek": 2926,
      "):": 2927,
      "arto": 2928,
      "ĠWorld": 2929,
      "umbuh": 2930,
      "Ġder": 2931,
      "yan": 2932,
      "ĠSub": 2933,
      "Ġsekaligus": 2934,
      "-N": 2935,
      "Ġtugas": 2936,
      "Ġberat": 2937,
      "Ġcerita": 2938,
      "bi": 2939,
      "ts": 2940,
      "erangan": 2941,
      "Ġpej": 2942,
      "Ġberper": 2943,
      "Ġkhas": 2944,
      "ĠUnit": 2945,
      "Ġmenggantikan": 2946,
      "Ġsur": 2947,
      "Ġsuhu": 2948,
      "ĠKab": 2949,
      "ĠUS": 2950,
      "ejo": 2951,
      "ĠKomun": 2952,
      "Ber": 2953,
      "Ġpribadi": 2954,
      "Ġop": 2955,
      "ku": 2956,
      "-laki": 2957,
      "PI": 2958,
      "ahankan": 2959,
      "Ġbarang": 2960,
      "ĠDar": 2961,
      "Ġmengembangkan": 2962,
      "ĠFakultas": 2963,
      "Ġusaha": 2964,
      "Ġmencakup": 2965,
      "-anak": 2966,
      "otensi": 2967,
      "AM": 2968,
      "Ġbegitu": 2969,
      "ĠMay": 2970,
      "enteng": 2971,
      "ubungkan": 2972,
      "Ġlokasi": 2973,
      "olekul": 2974,
      "ĠOrang": 2975,
      "ediakan": 2976,
      "unggal": 2977,
      "-per": 2978,
      "Ġberdiri": 2979,
      "rok": 2980,
      "Ġketinggian": 2981,
      "ĠSup": 2982,
      "Ġberf": 2983,
      "jah": 2984,
      "Ġsuk": 2985,
      "ĠMag": 2986,
      "Ġinf": 2987,
      "antik": 2988,
      "indakan": 2989,
      "186": 2990,
      "Ġkamp": 2991,
      "via": 2992,
      "ĠLatin": 2993,
      "Ġdek": 2994,
      "ayak": 2995,
      "ement": 2996,
      "ĠFr": 2997,
      "Ġspesies": 2998,
      "akter": 2999,
      "ajib": 3000,
      "Ġaktif": 3001,
      "Ġstudi": 3002,
      "isika": 3003,
      "Ġperh": 3004,
      "Â²": 3005,
      "arlemen": 3006,
      "Ġwa": 3007,
      "les": 3008,
      "ĠBuddha": 3009,
      "Ġmedia": 3010,
      "ĠMil": 3011,
      "Ġterkait": 3012,
      "Ġmenand": 3013,
      "adian": 3014,
      "Ġterbentuk": 3015,
      "Ġkonsep": 3016,
      "Ġklub": 3017,
      "Ġterg": 3018,
      "esaikan": 3019,
      "alikan": 3020,
      "Ġperan": 3021,
      "onia": 3022,
      "Ind": 3023,
      "ekerjaan": 3024,
      "nu": 3025,
      "Ġkecepatan": 3026,
      "Ġmenikah": 3027,
      "enalkan": 3028,
      "isip": 3029,
      "Ġstatus": 3030,
      "irus": 3031,
      "guna": 3032,
      "90": 3033,
      "io": 3034,
      "Ġsy": 3035,
      "asik": 3036,
      "eth": 3037,
      "ĠNus": 3038,
      "Ġterpilih": 3039,
      "warna": 3040,
      "Ġmemungkinkan": 3041,
      "Ġpenuh": 3042,
      "erdasarkan": 3043,
      "Ġsw": 3044,
      "amakan": 3045,
      "ĠKomp": 3046,
      "Ġkarakter": 3047,
      "Ġenam": 3048,
      "ĠPri": 3049,
      "ĠAz": 3050,
      "ical": 3051,
      "ley": 3052,
      "titusi": 3053,
      ",Ċ": 3054,
      "Ġsitus": 3055,
      "Ġy": 3056,
      "Ġprof": 3057,
      "ria": 3058,
      "taf": 3059,
      "Ġmerah": 3060,
      "ohan": 3061,
      "Ġpenelitian": 3062,
      "Ġmaskapai": 3063,
      "tim": 3064,
      "Ġharga": 3065,
      "Ġmengubah": 3066,
      "187": 3067,
      "Ġko": 3068,
      "Ġbadan": 3069,
      "ĠParis": 3070,
      "Ġmalam": 3071,
      "Ġbenar": 3072,
      "elar": 3073,
      "Ġasing": 3074,
      "Ġberbatasan": 3075,
      "45": 3076,
      "com": 3077,
      "ĠStr": 3078,
      "ear": 3079,
      "ĠPapua": 3080,
      "Kem": 3081,
      "Ġmenjalan": 3082,
      "Ġsenj": 3083,
      "hat": 3084,
      "elompok": 3085,
      "ĠWal": 3086,
      "erik": 3087,
      "Ġmemenangkan": 3088,
      "wisata": 3089,
      "Ġkulit": 3090,
      "Ġbintang": 3091,
      "ĠOs": 3092,
      "imbol": 3093,
      "Ġkeper": 3094,
      "okter": 3095,
      "okrat": 3096,
      "gerak": 3097,
      "uhi": 3098,
      "alang": 3099,
      "St": 3100,
      "visi": 3101,
      "alap": 3102,
      "ĠMe": 3103,
      "anjutkan": 3104,
      "ĠPerjanjian": 3105,
      "Ġikan": 3106,
      "erahkan": 3107,
      "Ġobjek": 3108,
      "ach": 3109,
      "Ġben": 3110,
      "ĠOn": 3111,
      "Ġpersen": 3112,
      "Ġtenaga": 3113,
      "Ġkam": 3114,
      "Ġpengg": 3115,
      "Ġkhususnya": 3116,
      "ĠSedangkan": 3117,
      "fi": 3118,
      "hy": 3119,
      "Ã¶": 3120,
      "Ġjawab": 3121,
      "ipta": 3122,
      "Ġpertumbuhan": 3123,
      "Ġetnis": 3124,
      "edakan": 3125,
      "-satunya": 3126,
      "der": 3127,
      "awanan": 3128,
      "ĠAward": 3129,
      "Ġistr": 3130,
      "erit": 3131,
      "Ġperlu": 3132,
      "Ġselain": 3133,
      "iliar": 3134,
      "Ġmemutuskan": 3135,
      "airan": 3136,
      "Ġtampak": 3137,
      "ayani": 3138,
      "enjata": 3139,
      "Ġperangkat": 3140,
      "Ġkoloni": 3141,
      "ame": 3142,
      "utuhkan": 3143,
      "ariwisata": 3144,
      "ĠWakil": 3145,
      "Ġmassa": 3146,
      "Ġsar": 3147,
      "Ġkuno": 3148,
      "ĠKo": 3149,
      "Ġmemulai": 3150,
      "Ġsebenarnya": 3151,
      "Ġsenjata": 3152,
      "ĠSuku": 3153,
      "osis": 3154,
      "Ġtua": 3155,
      "ĠSang": 3156,
      "awesi": 3157,
      "Ġbenda": 3158,
      "ologis": 3159,
      "asilitas": 3160,
      "Kabupaten": 3161,
      "Ġhuruf": 3162,
      "Ġlayanan": 3163,
      "ekt": 3164,
      "Ġlogam": 3165,
      "Ġkeras": 3166,
      "ĠColl": 3167,
      "ww": 3168,
      "Ġterbang": 3169,
      "aih": 3170,
      "ĠâĢĶ": 3171,
      "Ġdarah": 3172,
      "Ġtip": 3173,
      "iland": 3174,
      "ĠDe": 3175,
      "ĠStudi": 3176,
      "insip": 3177,
      "Ġlembaga": 3178,
      "Ġkemampuan": 3179,
      "ĠAustria": 3180,
      "-Q": 3181,
      "47": 3182,
      "Ġperjanjian": 3183,
      "ĠISBN": 3184,
      "Ġturun": 3185,
      "Ġbisnis": 3186,
      "ann": 3187,
      "ĠNg": 3188,
      "empur": 3189,
      "Ġberusaha": 3190,
      "abor": 3191,
      "ĠWilliam": 3192,
      "Ge": 3193,
      "Ġsakit": 3194,
      "ebasan": 3195,
      "ans": 3196,
      "Ġda": 3197,
      "apatan": 3198,
      "Ġpar": 3199,
      "ampa": 3200,
      "Ġkalangan": 3201,
      "Ġbatas": 3202,
      "isir": 3203,
      "Ġjelas": 3204,
      "Ġberpend": 3205,
      "Ġditetapkan": 3206,
      "Ġpuncak": 3207,
      "isahkan": 3208,
      "Ġpertengahan": 3209,
      "ĠAli": 3210,
      "Ġsempat": 3211,
      "ĠSejak": 3212,
      "Ġnaik": 3213,
      "ney": 3214,
      "Ġduk": 3215,
      "Ġleg": 3216,
      "ight": 3217,
      "oper": 3218,
      "Ġfisik": 3219,
      "Ġdiadakan": 3220,
      "ĠTai": 3221,
      "ĠPangeran": 3222,
      "otel": 3223,
      "Ġupaya": 3224,
      "-f": 3225,
      "ĠTenggara": 3226,
      "Ġberbentuk": 3227,
      "Ġed": 3228,
      "Ġpengetahuan": 3229,
      "eformasi": 3230,
      "enti": 3231,
      "Ġkayu": 3232,
      "amah": 3233,
      "ĠMich": 3234,
      "SI": 3235,
      "Ġbantuan": 3236,
      "ariasi": 3237,
      "ĠNomor": 3238,
      "aji": 3239,
      "Ġseseorang": 3240,
      "Ġmay": 3241,
      "etika": 3242,
      "ayan": 3243,
      "encan": 3244,
      "ool": 3245,
      "Ġmodel": 3246,
      "uss": 3247,
      "Ġteknik": 3248,
      "testan": 3249,
      ".S": 3250,
      "TV": 3251,
      "ĠPaus": 3252,
      "uali": 3253,
      "onen": 3254,
      "ĠNama": 3255,
      "Ġdiangkat": 3256,
      "ĠBanyak": 3257,
      "Ġsaham": 3258,
      "Ġdiambil": 3259,
      "aden": 3260,
      "Ġnuk": 3261,
      "ĠAlkitab": 3262,
      "wah": 3263,
      "ĠGer": 3264,
      "Ġstandar": 3265,
      "Ġdiperkirakan": 3266,
      "ram": 3267,
      "ĠSMP": 3268,
      "itif": 3269,
      "lav": 3270,
      "omat": 3271,
      "ĠHam": 3272,
      "ĠBandar": 3273,
      "ext": 3274,
      "Ġmetode": 3275,
      "Ġtumbuh": 3276,
      "atih": 3277,
      "intah": 3278,
      "ĠSingapura": 3279,
      "ungaria": 3280,
      "ĠComp": 3281,
      "ĠHukum": 3282,
      "Ġkebanyakan": 3283,
      "ten": 3284,
      "Ġbus": 3285,
      "Ġmeminta": 3286,
      "Ġmenciptakan": 3287,
      "ĠSumatera": 3288,
      "Ġmirip": 3289,
      "ubl": 3290,
      "ĠArg": 3291,
      "ĠIII": 3292,
      "bahasa": 3293,
      "Ġmenteri": 3294,
      "ijaya": 3295,
      "Ġe": 3296,
      "Ġolah": 3297,
      "adah": 3298,
      "ando": 3299,
      "Ġkantor": 3300,
      "Ġberwarna": 3301,
      "Ġperbedaan": 3302,
      "Ġkode": 3303,
      "ĠDPR": 3304,
      "okasi": 3305,
      "ĠMuseum": 3306,
      "Ġpergi": 3307,
      "ĠCity": 3308,
      "Ġkepad": 3309,
      "Ġdisel": 3310,
      "Ġdirilis": 3311,
      "ayang": 3312,
      "Ġpart": 3313,
      "iki": 3314,
      "Ġstyle": 3315,
      "Kar": 3316,
      "ĠSelama": 3317,
      "ĠSulawesi": 3318,
      "Pol": 3319,
      "align": 3320,
      "aksud": 3321,
      "ideo": 3322,
      "rus": 3323,
      "alon": 3324,
      "inkan": 3325,
      "urangi": 3326,
      "Ġmenyer": 3327,
      "safat": 3328,
      "Ġmenghadap": 3329,
      "alem": 3330,
      "Ġterlihat": 3331,
      "alisis": 3332,
      "eski": 3333,
      "Catatan": 3334,
      "Ġ(\"": 3335,
      "Ġpenyel": 3336,
      "ato": 3337,
      "elaj": 3338,
      "iro": 3339,
      "bitkan": 3340,
      "Ġsik": 3341,
      "oli": 3342,
      "Menurut": 3343,
      "ĠKementerian": 3344,
      "oman": 3345,
      "Ġdaftar": 3346,
      "ĠBadan": 3347,
      "ĠĊĠĊĠĊĠĊ": 3348,
      "ĠGro": 3349,
      "32": 3350,
      "ster": 3351,
      "ident": 3352,
      "ujud": 3353,
      "Ġmolekul": 3354,
      "akaian": 3355,
      "Ġselanjutnya": 3356,
      "Ġgelombang": 3357,
      "ĠBant": 3358,
      "Ġuniversitas": 3359,
      "Ġulang": 3360,
      "olo": 3361,
      "omun": 3362,
      "ujuk": 3363,
      "Ġkepem": 3364,
      "ivid": 3365,
      "Ġditerbitkan": 3366,
      "Ġnomor": 3367,
      "Ġmencari": 3368,
      "ĠKesultanan": 3369,
      "Ġbud": 3370,
      "ĠTidak": 3371,
      "arisan": 3372,
      "jem": 3373,
      "Ġam": 3374,
      "ĠGar": 3375,
      "Ġmenganggap": 3376,
      "ontakan": 3377,
      "Ġkeduanya": 3378,
      "ĠSecara": 3379,
      "tein": 3380,
      "ahit": 3381,
      "Ġby": 3382,
      "Ġlem": 3383,
      "Ġdipilih": 3384,
      "uci": 3385,
      "Ġdisebabkan": 3386,
      "kr": 3387,
      "tu": 3388,
      "Ġneg": 3389,
      "umpulan": 3390,
      "ke": 3391,
      "ĠCar": 3392,
      "alau": 3393,
      "mar": 3394,
      "tik": 3395,
      "ukul": 3396,
      "Ġera": 3397,
      "likasi": 3398,
      "oda": 3399,
      "lor": 3400,
      "Ġberjumlah": 3401,
      "arno": 3402,
      "Ġsat": 3403,
      "Ġdijadikan": 3404,
      "The": 3405,
      "ĠSar": 3406,
      "Ġmateri": 3407,
      "yu": 3408,
      "ĠEkonomi": 3409,
      "Ġes": 3410,
      "sitektur": 3411,
      "gota": 3412,
      "ĠProtestan": 3413,
      "36": 3414,
      "asinya": 3415,
      "ĠMart": 3416,
      "Ġberisi": 3417,
      "ĠBos": 3418,
      "Ġukuran": 3419,
      "Ġbakar": 3420,
      "ĠSun": 3421,
      "ĠTeknik": 3422,
      "jana": 3423,
      "urah": 3424,
      "Ġmiliar": 3425,
      "300": 3426,
      "ĠGor": 3427,
      "olis": 3428,
      "osfer": 3429,
      "Ġsektor": 3430,
      "Ġdukungan": 3431,
      "ayar": 3432,
      "erdapat": 3433,
      "Ġikut": 3434,
      "Or": 3435,
      "ĠTa": 3436,
      "Ġmemimpin": 3437,
      "bagi": 3438,
      "Ġrelatif": 3439,
      "ĠPand": 3440,
      "usk": 3441,
      "ĠRas": 3442,
      "intas": 3443,
      "Ġtambahan": 3444,
      "ĠTanjung": 3445,
      "ĠVer": 3446,
      "400": 3447,
      "ajemen": 3448,
      "Ġkeseluruhan": 3449,
      "ĠSebuah": 3450,
      "ĠKedua": 3451,
      "ĠSalah": 3452,
      "ĠUndang": 3453,
      "truksi": 3454,
      "sara": 3455,
      "ampilan": 3456,
      "ham": 3457,
      "las": 3458,
      "Ġperp": 3459,
      "Ġsegala": 3460,
      "'an": 3461,
      "ĠRos": 3462,
      "alian": 3463,
      "Ġtindakan": 3464,
      "ĠBangsa": 3465,
      "uncurkan": 3466,
      "hou": 3467,
      "Ġolahraga": 3468,
      "Ġcabang": 3469,
      "AT": 3470,
      "ĠEr": 3471,
      ".com": 3472,
      "let": 3473,
      "Ġbergerak": 3474,
      "Ġterbaik": 3475,
      "Ġmengumumkan": 3476,
      "lima": 3477,
      "Ġradio": 3478,
      "nam": 3479,
      "Ġmengeluarkan": 3480,
      "osk": 3481,
      "okteran": 3482,
      "jau": 3483,
      "AR": 3484,
      "burg": 3485,
      "ĠUl": 3486,
      "mer": 3487,
      "Ã³": 3488,
      "Ġang": 3489,
      "aliforn": 3490,
      "Ġmempertahankan": 3491,
      "me": 3492,
      "Ġterlibat": 3493,
      "ampilkan": 3494,
      "-R": 3495,
      "Ġ)": 3496,
      "asasti": 3497,
      "Ġmengirim": 3498,
      "Ġbertemu": 3499,
      "atasi": 3500,
      "Ġpimpinan": 3501,
      "Ġsipil": 3502,
      "bia": 3503,
      "Ġsang": 3504,
      "ĠSim": 3505,
      "ĠCharl": 3506,
      "erbit": 3507,
      "str": 3508,
      "way": 3509,
      "icara": 3510,
      "za": 3511,
      "her": 3512,
      "ĠNational": 3513,
      "Ġdistrik": 3514,
      "Kecamatan": 3515,
      "Ġkomunitas": 3516,
      "ĠKaisar": 3517,
      "ale": 3518,
      "Ġtemb": 3519,
      "ĠDav": 3520,
      "angkah": 3521,
      "ĠAmeri": 3522,
      "34": 3523,
      "yawa": 3524,
      "Ġbekas": 3525,
      "Ġaktivitas": 3526,
      "Ġdikembangkan": 3527,
      "Ġbermain": 3528,
      "okrasi": 3529,
      "akuan": 3530,
      "abila": 3531,
      "iru": 3532,
      "ace": 3533,
      "resi": 3534,
      "Ġberjudul": 3535,
      "alifornia": 3536,
      "Ġli": 3537,
      "embah": 3538,
      "agaimana": 3539,
      "ĠDepartemen": 3540,
      "Ġmeraih": 3541,
      "mat": 3542,
      "ĠAbu": 3543,
      "ĠJos": 3544,
      "impi": 3545,
      "Ġvan": 3546,
      "38": 3547,
      "Ġsegera": 3548,
      "Ġmengalahkan": 3549,
      "abu": 3550,
      "okan": 3551,
      "elola": 3552,
      "ulasi": 3553,
      "oma": 3554,
      "ualitas": 3555,
      "Ġdataran": 3556,
      "ĠJo": 3557,
      "ĠJaya": 3558,
      "Ġrep": 3559,
      "ĠCol": 3560,
      "ĠGrand": 3561,
      "ĠÃ": 3562,
      "impan": 3563,
      "Kep": 3564,
      "jen": 3565,
      "ĠKek": 3566,
      "Ġmenemp": 3567,
      "Ġmenghubungkan": 3568,
      "ĠProgram": 3569,
      "\"|": 3570,
      "rid": 3571,
      "Ġcahaya": 3572,
      "ous": 3573,
      "ĠKej": 3574,
      "Ġdiak": 3575,
      "ental": 3576,
      "opi": 3577,
      "ibusi": 3578,
      "184": 3579,
      "185": 3580,
      "elajari": 3581,
      "Ġbukti": 3582,
      "iko": 3583,
      "ilu": 3584,
      "ĠDinasti": 3585,
      "eku": 3586,
      "BB": 3587,
      "Ġajaran": 3588,
      "Ġhitam": 3589,
      "ayakan": 3590,
      "Ġkompleks": 3591,
      "ĠSebagian": 3592,
      "Ġseng": 3593,
      "entina": 3594,
      "Ġpembentukan": 3595,
      "Ġmatemat": 3596,
      "zi": 3597,
      "ĠKitab": 3598,
      "Ġ$": 3599,
      "Ġpekerjaan": 3600,
      "Ġtanda": 3601,
      "onel": 3602,
      "ĠBu": 3603,
      "empatkan": 3604,
      "Ġbesi": 3605,
      "ontr": 3606,
      "Ġlahan": 3607,
      "imen": 3608,
      "ĠLet": 3609,
      "ĠBers": 3610,
      "Ġistana": 3611,
      "ood": 3612,
      "Ġ+": 3613,
      "Ġpindah": 3614,
      "Ġmerujuk": 3615,
      "ĠFilm": 3616,
      "ng": 3617,
      "Ġpohon": 3618,
      "Ġsus": 3619,
      "Ġpenghargaan": 3620,
      "Ġkeputusan": 3621,
      "-undang": 3622,
      "no": 3623,
      "Ġtekanan": 3624,
      "-G": 3625,
      "48": 3626,
      "mark": 3627,
      "ĠBupati": 3628,
      "ulat": 3629,
      "-T": 3630,
      "Ġdingin": 3631,
      "ĠTanah": 3632,
      "engkap": 3633,
      "%,": 3634,
      "unak": 3635,
      "ush": 3636,
      "Ġmengadakan": 3637,
      "Ġterlalu": 3638,
      "arg": 3639,
      "Ġmenggambarkan": 3640,
      "onis": 3641,
      "ĠFor": 3642,
      "Ġdihasilkan": 3643,
      "anti": 3644,
      "ĠDua": 3645,
      "Ġplanet": 3646,
      "abrik": 3647,
      "ĠRumah": 3648,
      "indahkan": 3649,
      "ĠFran": 3650,
      "181": 3651,
      "Ġpelabuhan": 3652,
      "Ġtransportasi": 3653,
      "Ġtiba": 3654,
      "Ġmenjelaskan": 3655,
      "amaian": 3656,
      "ambat": 3657,
      "Ġmerasa": 3658,
      "ĠOleh": 3659,
      "ĠTeluk": 3660,
      "SM": 3661,
      "Ġguru": 3662,
      "Ġmenyerang": 3663,
      "ĠStasiun": 3664,
      "Ġide": 3665,
      "okok": 3666,
      "ĠBandara": 3667,
      "ĠKanada": 3668,
      "asifik": 3669,
      "Ġdiikuti": 3670,
      "eliling": 3671,
      "ĠMod": 3672,
      "ĠTok": 3673,
      "Ġmenyediakan": 3674,
      "itra": 3675,
      "Ġmenurun": 3676,
      "Ġterbatas": 3677,
      "Ġindivid": 3678,
      "Ġswasta": 3679,
      "Ak": 3680,
      "awar": 3681,
      "angkaian": 3682,
      "Ġbelajar": 3683,
      "Ġberjalan": 3684,
      "As": 3685,
      "udut": 3686,
      "Ġpertempuran": 3687,
      "ĠArt": 3688,
      "ner": 3689,
      "uel": 3690,
      "Ġglobal": 3691,
      "Ġcamp": 3692,
      "lat": 3693,
      "yataan": 3694,
      "Ġrasa": 3695,
      "eph": 3696,
      "ect": 3697,
      "ewi": 3698,
      "-J": 3699,
      "aha": 3700,
      "Ġteks": 3701,
      "Ġtunggal": 3702,
      "ado": 3703,
      "Ġterbuka": 3704,
      "Ġseder": 3705,
      "angsaan": 3706,
      "Ġkomunikasi": 3707,
      "atal": 3708,
      "ĠSebelum": 3709,
      "alih": 3710,
      "akkan": 3711,
      "apor": 3712,
      "ington": 3713,
      "Ġangka": 3714,
      "ĠMeng": 3715,
      "ĠCalifornia": 3716,
      "orium": 3717,
      "enggarakan": 3718,
      "ĠAhmad": 3719,
      "ĠMc": 3720,
      "Ġproyek": 3721,
      "ile": 3722,
      "ĠKam": 3723,
      "Ġkarbon": 3724,
      "Ġpenguasa": 3725,
      "Ġalasan": 3726,
      "Ġmayoritas": 3727,
      "sik": 3728,
      "Ġata": 3729,
      "Ġsis": 3730,
      "Ġbertahan": 3731,
      "Ġeksp": 3732,
      "Ġgagal": 3733,
      "Ġpercaya": 3734,
      "estiv": 3735,
      "Ġpeningkatan": 3736,
      "ĠInf": 3737,
      "tris": 3738,
      "mada": 3739,
      "erus": 3740,
      "Ġkadang": 3741,
      "ĠInj": 3742,
      "Ġsaudara": 3743,
      "do": 3744,
      "ester": 3745,
      "imer": 3746,
      "ujukan": 3747,
      "Ġsemb": 3748,
      "ewati": 3749,
      "ĠChrist": 3750,
      "ju": 3751,
      "tabil": 3752,
      "omas": 3753,
      "ewat": 3754,
      "tt": 3755,
      "atihan": 3756,
      "Åį": 3757,
      "Ġlanjut": 3758,
      "olong": 3759,
      "ult": 3760,
      "Ġkelurahan": 3761,
      "Beberapa": 3762,
      "els": 3763,
      "ometer": 3764,
      "okus": 3765,
      "Ġgug": 3766,
      "estival": 3767,
      "ĠDana": 3768,
      "va": 3769,
      "Ġtujuh": 3770,
      "itur": 3771,
      "ukur": 3772,
      "ĠSm": 3773,
      "ongk": 3774,
      "ĠBrasil": 3775,
      "ĠIbu": 3776,
      "ĠGre": 3777,
      "ĠPress": 3778,
      "bah": 3779,
      "akah": 3780,
      "ĠSin": 3781,
      "epi": 3782,
      "ĠSeri": 3783,
      "Ġburung": 3784,
      "33": 3785,
      "eing": 3786,
      "ĠDel": 3787,
      "ogen": 3788,
      "adiyah": 3789,
      "Ġgambar": 3790,
      "Ġmengurangi": 3791,
      "ĠSoek": 3792,
      "Ġataupun": 3793,
      "ein": 3794,
      "Ġteg": 3795,
      "ĠPertama": 3796,
      "ajukan": 3797,
      "ĠMasjid": 3798,
      "cayaan": 3799,
      "laim": 3800,
      "Ġkot": 3801,
      "Ġkelahiran": 3802,
      "ĠUtama": 3803,
      "zim": 3804,
      "Ġmenentukan": 3805,
      "ole": 3806,
      "Ġpertandingan": 3807,
      "Ġmenyelesaikan": 3808,
      "iyah": 3809,
      "anga": 3810,
      "omba": 3811,
      "rap": 3812,
      "ĠSain": 3813,
      "ĠKec": 3814,
      "ormatan": 3815,
      "PS": 3816,
      "sch": 3817,
      "Ġrencana": 3818,
      "agama": 3819,
      "ĠNaz": 3820,
      "180": 3821,
      "lus": 3822,
      "unjungi": 3823,
      "Ek": 3824,
      "Ġbunga": 3825,
      "aca": 3826,
      "ĠPortugis": 3827,
      "Ġbiaya": 3828,
      "egah": 3829,
      "alib": 3830,
      "ĠĊĊĠĊ": 3831,
      "faatkan": 3832,
      "irian": 3833,
      "ĠMedan": 3834,
      "sman": 3835,
      "pe": 3836,
      "Ġditerima": 3837,
      "atangani": 3838,
      "ph": 3839,
      "iau": 3840,
      "Ġkeempat": 3841,
      "bau": 3842,
      "Ġdiny": 3843,
      "Ġkil": 3844,
      "\"Ċ": 3845,
      "ford": 3846,
      "Ġpegunungan": 3847,
      "Ġgedung": 3848,
      "ĠPolandia": 3849,
      "ege": 3850,
      "ebutuhan": 3851,
      "Ġberbasis": 3852,
      "Ang": 3853,
      "iap": 3854,
      "esai": 3855,
      "orge": 3856,
      "ekut": 3857,
      "ĠHit": 3858,
      "uduki": 3859,
      "lir": 3860,
      "ahu": 3861,
      "eni": 3862,
      "ink": 3863,
      "Ġmembunuh": 3864,
      "Ġterpisah": 3865,
      "sel": 3866,
      "||": 3867,
      "Ġberoperasi": 3868,
      "Ġwakil": 3869,
      "Ġdimiliki": 3870,
      "enerasi": 3871,
      "Ġmahasiswa": 3872,
      "\")": 3873,
      "-C": 3874,
      "Ġnamanya": 3875,
      "Ġsaling": 3876,
      "Ġterbagi": 3877,
      "tic": 3878,
      "Ġmerek": 3879,
      "estasi": 3880,
      "uning": 3881,
      "iksi": 3882,
      "etan": 3883,
      "Ġkabar": 3884,
      "Ġribu": 3885,
      "andan": 3886,
      "ĠYud": 3887,
      "imbulkan": 3888,
      "Ġpermainan": 3889,
      "Ġkorban": 3890,
      "arikan": 3891,
      "itis": 3892,
      "ĠCharles": 3893,
      "TI": 3894,
      "tifikasi": 3895,
      "OM": 3896,
      "Ġintern": 3897,
      "ĠAnt": 3898,
      "86": 3899,
      "arawan": 3900,
      "Ġkeamanan": 3901,
      "Ġmelayani": 3902,
      "Selain": 3903,
      "Ġayahnya": 3904,
      "ĠFilip": 3905,
      "Ġalami": 3906,
      "isikan": 3907,
      "ĠGal": 3908,
      "Ġperbatasan": 3909,
      "PP": 3910,
      "Ġton": 3911,
      "ings": 3912,
      "ewas": 3913,
      "Ġberlaku": 3914,
      "ĠEng": 3915,
      "operasikan": 3916,
      "ye": 3917,
      "dam": 3918,
      "Ġpotensi": 3919,
      "ĠInt": 3920,
      "ĠJika": 3921,
      "Ġmenyebutkan": 3922,
      "elang": 3923,
      "ĠPD": 3924,
      "urusan": 3925,
      "-kota": 3926,
      "ĠMalang": 3927,
      "ĠUnited": 3928,
      "ero": 3929,
      "Ġdahulu": 3930,
      "Ġmik": 3931,
      "unyi": 3932,
      ");": 3933,
      "97": 3934,
      "Ġsig": 3935,
      "Ġkand": 3936,
      "ĠSatu": 3937,
      "apahit": 3938,
      "ĠMac": 3939,
      "ambut": 3940,
      "Ġpembuatan": 3941,
      "ĠTeknologi": 3942,
      "Ġken": 3943,
      "gaw": 3944,
      "okal": 3945,
      "Ġwalaupun": 3946,
      "Ġprotein": 3947,
      "ikal": 3948,
      "ĠSistem": 3949,
      "Ġlar": 3950,
      "Ġperingkat": 3951,
      "Ġhati": 3952,
      "Ġangin": 3953,
      "Ġjuara": 3954,
      "efinisi": 3955,
      "ito": 3956,
      "eperti": 3957,
      "Ġkecuali": 3958,
      "Ġmengakibatkan": 3959,
      "erv": 3960,
      "Ġbila": 3961,
      "aksanaan": 3962,
      "Ġberusia": 3963,
      "Ġmendorong": 3964,
      "engar": 3965,
      "ogo": 3966,
      "oner": 3967,
      "Ġtern": 3968,
      "Ġcatatan": 3969,
      "ĠEur": 3970,
      "anjutan": 3971,
      "red": 3972,
      "ĠDur": 3973,
      "Ġmelibatkan": 3974,
      "Ġdaratan": 3975,
      "183": 3976,
      "Ġberfungsi": 3977,
      "aging": 3978,
      "Ġfasilitas": 3979,
      "ĠAlex": 3980,
      "ĠCor": 3981,
      "Ġmencoba": 3982,
      "ĠMuhammadiyah": 3983,
      "eld": 3984,
      "grasi": 3985,
      "ĠSejarah": 3986,
      "ahlawan": 3987,
      "ĠArgentina": 3988,
      "ingatan": 3989,
      "umur": 3990,
      "ĠKen": 3991,
      "bai": 3992,
      "Ġkemenangan": 3993,
      "Ġmembuka": 3994,
      "55": 3995,
      "Ġlunak": 3996,
      "ĠTak": 3997,
      "ĠNor": 3998,
      "ĠPurw": 3999,
      "Ġmenguasai": 4000,
      "Âłm": 4001,
      "ĠMoh": 4002,
      "uler": 4003,
      "ĠLen": 4004,
      "aju": 4005,
      "impiade": 4006,
      "dus": 4007,
      "kota": 4008,
      "Ġberita": 4009,
      "ĠBog": 4010,
      "ancurkan": 4011,
      "ÙĦ": 4012,
      "Ġpo": 4013,
      "ĠVal": 4014,
      "anon": 4015,
      "erk": 4016,
      "Ġlapisan": 4017,
      "Ġbandara": 4018,
      "line": 4019,
      "que": 4020,
      "Ġmekan": 4021,
      "Ġsimbol": 4022,
      "ĠMul": 4023,
      "Ġbudak": 4024,
      "ny": 4025,
      "iner": 4026,
      "Ġtangga": 4027,
      "Ġberagam": 4028,
      "ĠPe": 4029,
      "Ġpertemuan": 4030,
      "Ġtulisan": 4031,
      "ĠBany": 4032,
      "ĠFir": 4033,
      "Ġkeker": 4034,
      "ĠPembangunan": 4035,
      "seb": 4036,
      "alitas": 4037,
      "amkan": 4038,
      "arif": 4039,
      "ĠContoh": 4040,
      "Ġtersedia": 4041,
      "ĠPenduduk": 4042,
      "Ġberpendapat": 4043,
      "Negara": 4044,
      "Ġjasa": 4045,
      "angkit": 4046,
      "rav": 4047,
      "Ġilmiah": 4048,
      "aporkan": 4049,
      "umsi": 4050,
      "Ġmelanjutkan": 4051,
      "Ġlaporan": 4052,
      "150": 4053,
      "ĠMajapahit": 4054,
      "ĠPhil": 4055,
      "Ġpandangan": 4056,
      "ĠUr": 4057,
      "ene": 4058,
      "atorium": 4059,
      "ĠHistor": 4060,
      "ajur": 4061,
      "ica": 4062,
      "indungi": 4063,
      "ĠKristus": 4064,
      "//": 4065,
      "ukiman": 4066,
      "Ġputri": 4067,
      "Ġsederhana": 4068,
      "aus": 4069,
      "Ġtewas": 4070,
      "ĠSat": 4071,
      "ĠSil": 4072,
      "ĠFeder": 4073,
      "Ġmasjid": 4074,
      "unjung": 4075,
      "lar": 4076,
      "uz": 4077,
      "ĠBagian": 4078,
      "Ġbelas": 4079,
      "Ġsayap": 4080,
      "ĠDo": 4081,
      "Ġcandi": 4082,
      "ĠVol": 4083,
      "ĠSoeh": 4084,
      "Ġdigantikan": 4085,
      "Ġadat": 4086,
      "Ġsetempat": 4087,
      "ĠIrlandia": 4088,
      "ersial": 4089,
      "angkalan": 4090,
      "uji": 4091,
      "ĠStar": 4092,
      "own": 4093,
      "Ġreaksi": 4094,
      "Ġpejabat": 4095,
      "Ġkebutuhan": 4096,
      "ingkan": 4097,
      "Ġkendaraan": 4098,
      "aitan": 4099,
      "imal": 4100,
      "etapi": 4101,
      "ĠSMA": 4102,
      "Ġmemenuhi": 4103,
      "Ġkak": 4104,
      "ĠBh": 4105,
      "ime": 4106,
      "Ġfaktor": 4107,
      "ĠSumber": 4108,
      "Ġmenengah": 4109,
      "Ġkat": 4110,
      "Ġkos": 4111,
      "ĠComm": 4112,
      "Ġdimana": 4113,
      "lis": 4114,
      "pek": 4115,
      "ĠHol": 4116,
      "Ġpertamanya": 4117,
      "Ġseks": 4118,
      "estina": 4119,
      "Ġmemperl": 4120,
      "Ġterm": 4121,
      "ĠDarat": 4122,
      "obel": 4123,
      "Untuk": 4124,
      "ĠCollege": 4125,
      "anji": 4126,
      "Geografi": 4127,
      "dan": 4128,
      "Ġsatuan": 4129,
      "Ġkalinya": 4130,
      "gerakan": 4131,
      "Batas": 4132,
      "ĊĊĠĊ": 4133,
      "Ġdiperlukan": 4134,
      "adinya": 4135,
      "Ġoper": 4136,
      "ustakaan": 4137,
      "Ġmatahari": 4138,
      "ĠKas": 4139,
      "emi": 4140,
      "ĠRah": 4141,
      "ĠOb": 4142,
      "Ġselesai": 4143,
      "Ġsudut": 4144,
      "Ġkanan": 4145,
      "etisi": 4146,
      "Ġmelewati": 4147,
      "nif": 4148,
      "tansi": 4149,
      "-Qur": 4150,
      "sikan": 4151,
      "ĠBag": 4152,
      "ulah": 4153,
      "ĠJumlah": 4154,
      "ĠHungaria": 4155,
      "hailand": 4156,
      "Ġsesuatu": 4157,
      ".\"ĊĊ": 4158,
      "olar": 4159,
      "ĠId": 4160,
      "adiah": 4161,
      "empatan": 4162,
      "ecah": 4163,
      "Ġdilihat": 4164,
      "Ġvirus": 4165,
      "Ġadministratif": 4166,
      "Ġberperan": 4167,
      "75": 4168,
      "cl": 4169,
      "itor": 4170,
      "unjukan": 4171,
      "imbangan": 4172,
      "://": 4173,
      "ael": 4174,
      "sen": 4175,
      "osiasi": 4176,
      "Ġtop": 4177,
      "Ġlewat": 4178,
      "Ġaktor": 4179,
      "65": 4180,
      "ES": 4181,
      "amu": 4182,
      "ĠCent": 4183,
      "Ġartinya": 4184,
      "ĠJames": 4185,
      "hab": 4186,
      "entikan": 4187,
      "span": 4188,
      "Ġmemasuki": 4189,
      "ĠMur": 4190,
      "ĠLap": 4191,
      "ĠPasar": 4192,
      "ĠKur": 4193,
      "ome": 4194,
      "udus": 4195,
      "Ġdewa": 4196,
      "menia": 4197,
      "Ġtercatat": 4198,
      "á¹": 4199,
      "Ġx": 4200,
      "Ġdialek": 4201,
      "ĠSud": 4202,
      "Ġditand": 4203,
      "ĠAgama": 4204,
      "ĠIbnu": 4205,
      "ĠRobert": 4206,
      "ĠSc": 4207,
      "ebunan": 4208,
      "abad": 4209,
      "ajang": 4210,
      "berg": 4211,
      "acu": 4212,
      "ĠKonf": 4213,
      "Ġpres": 4214,
      "asy": 4215,
      "Ġpendapatan": 4216,
      "ĠVan": 4217,
      "182": 4218,
      "Ġdibuka": 4219,
      "evel": 4220,
      "ony": 4221,
      "ĠBol": 4222,
      "Ġland": 4223,
      "Ġpesisir": 4224,
      "Ġbakteri": 4225,
      "Ġmacam": 4226,
      "Ġditunjuk": 4227,
      "ĠIstana": 4228,
      "Ġurutan": 4229,
      "Ġkehilangan": 4230,
      "Ġmenghadapi": 4231,
      "Ġindividu": 4232,
      "ume": 4233,
      "Ġjangka": 4234,
      "agar": 4235,
      "ations": 4236,
      "ĠIndustri": 4237,
      "-L": 4238,
      "ps": 4239,
      "Ġer": 4240,
      "Ġpekerja": 4241,
      "alo": 4242,
      "ĠCir": 4243,
      "Ġmurid": 4244,
      "Ġprofesi": 4245,
      "Ġsetengah": 4246,
      "orit": 4247,
      "Ġmemang": 4248,
      "ĠSab": 4249,
      "usnya": 4250,
      "ille": 4251,
      "ĠBintang": 4252,
      "ĠRa": 4253,
      "ĠLampung": 4254,
      "Ġperdana": 4255,
      "Pemb": 4256,
      "enakan": 4257,
      "att": 4258,
      "ĠKeh": 4259,
      "Ġmenetapkan": 4260,
      "ĠRatu": 4261,
      "Ġiklim": 4262,
      "39": 4263,
      "Ġpengan": 4264,
      "Ġrute": 4265,
      "ĠMark": 4266,
      "Ġsenyawa": 4267,
      "ee": 4268,
      "ĠSir": 4269,
      "ĠPemerintahan": 4270,
      "ĠPaul": 4271,
      "ĠSoeharto": 4272,
      ".A": 4273,
      "Nama": 4274,
      "ling": 4275,
      "Ġsulit": 4276,
      "adu": 4277,
      "ĠFer": 4278,
      "Ġtertua": 4279,
      "Ġberhubungan": 4280,
      "ukis": 4281,
      "Ġpendukung": 4282,
      "erto": 4283,
      "ĠTentara": 4284,
      "Ġnit": 4285,
      "obatan": 4286,
      "osaurus": 4287,
      "vensi": 4288,
      "intu": 4289,
      "ple": 4290,
      "Ġsul": 4291,
      "Ġsastra": 4292,
      "ĠWind": 4293,
      "ografis": 4294,
      "Ġkapas": 4295,
      "Ġujung": 4296,
      "-F": 4297,
      "ĠSl": 4298,
      "ĠFI": 4299,
      "ropis": 4300,
      "Ġtur": 4301,
      "Ġraya": 4302,
      "Ġgolongan": 4303,
      "vin": 4304,
      "ĠPo": 4305,
      "Ġmengatur": 4306,
      "Ġrah": 4307,
      "ĠPark": 4308,
      "Ġsebab": 4309,
      "erusalem": 4310,
      "Ġperguruan": 4311,
      "Ġkomersial": 4312,
      "Ġstabil": 4313,
      "rich": 4314,
      "chi": 4315,
      "orth": 4316,
      "Ġdian": 4317,
      "ows": 4318,
      "ĠSemarang": 4319,
      "ĠGeorge": 4320,
      "ĠSumatra": 4321,
      "ĠAv": 4322,
      "ĠMerah": 4323,
      "Ġinti": 4324,
      "Ġberkaitan": 4325,
      "sy": 4326,
      "akili": 4327,
      "ĠMi": 4328,
      "ĠMem": 4329,
      "ĠFo": 4330,
      "ambahkan": 4331,
      "ĠArmenia": 4332,
      "Ġsehari": 4333,
      "Ġupacara": 4334,
      "ĠFilipina": 4335,
      "Ġme": 4336,
      "Ġdiubah": 4337,
      "Ġdana": 4338,
      "udra": 4339,
      "ĠNabi": 4340,
      "ĠUN": 4341,
      "Ġpendiri": 4342,
      "engkapi": 4343,
      "-hari": 4344,
      "ren": 4345,
      "adiri": 4346,
      "imat": 4347,
      "ander": 4348,
      "Ġdikatakan": 4349,
      "-lain": 4350,
      "ive": 4351,
      "kh": 4352,
      "Ġberc": 4353,
      "Ġkew": 4354,
      "ĠHen": 4355,
      "Ġnov": 4356,
      "Ġkeberadaan": 4357,
      "Ġsukses": 4358,
      "uv": 4359,
      "Ġangkatan": 4360,
      "Ġtet": 4361,
      "utra": 4362,
      "Ġmenimbulkan": 4363,
      "ĠThailand": 4364,
      "ĠFre": 4365,
      "Ġkiri": 4366,
      "isl": 4367,
      "entasi": 4368,
      "Ġkebudayaan": 4369,
      "44": 4370,
      "Ġkarier": 4371,
      "ER": 4372,
      "Ġmagn": 4373,
      "Ġsignif": 4374,
      "sus": 4375,
      "ualan": 4376,
      "arga": 4377,
      "akti": 4378,
      "ĠRevolusi": 4379,
      "ĠPaulus": 4380,
      "eritakan": 4381,
      "Ġsil": 4382,
      "ĠBah": 4383,
      "Ġpengguna": 4384,
      "%.": 4385,
      "Ġbab": 4386,
      "ĠKi": 4387,
      "Ġlengkap": 4388,
      "ainya": 4389,
      "ĠPerwakilan": 4390,
      "itikus": 4391,
      "BC": 4392,
      "ganya": 4393,
      "text": 4394,
      "Ġalih": 4395,
      "Ġsuci": 4396,
      "Ġkepercayaan": 4397,
      "67": 4398,
      "MI": 4399,
      "Ġtumbuhan": 4400,
      "Ġpelayanan": 4401,
      "ustaka": 4402,
      "Â°C": 4403,
      "ĠAmerican": 4404,
      "ĠNik": 4405,
      "Ġkerus": 4406,
      "erbang": 4407,
      "Ġmempelajari": 4408,
      "Undang": 4409,
      "uy": 4410,
      "angit": 4411,
      "ular": 4412,
      "Ġkomponen": 4413,
      "Ġnuklir": 4414,
      "ukai": 4415,
      "ĠBukit": 4416,
      "ĠFin": 4417,
      "Sebagai": 4418,
      "Ġhidrogen": 4419,
      "98": 4420,
      "ĠPBB": 4421,
      "ullah": 4422,
      "retaris": 4423,
      "Ġsignifikan": 4424,
      "eo": 4425,
      "Ġsitu": 4426,
      "ikahan": 4427,
      "ĠKali": 4428,
      "ĠHak": 4429,
      "epend": 4430,
      "Ġseluas": 4431,
      "eal": 4432,
      "its": 4433,
      "esta": 4434,
      "usak": 4435,
      "Ġpendapat": 4436,
      "Ġberbahasa": 4437,
      "ĠBoeing": 4438,
      "Ġsh": 4439,
      "ĠSurat": 4440,
      "adion": 4441,
      "uaraan": 4442,
      "Ġketer": 4443,
      "ĠStat": 4444,
      "Ġsekitarnya": 4445,
      "Ġdisebutkan": 4446,
      "Ġtersebar": 4447,
      "ĠSoekarno": 4448,
      "tasi": 4449,
      "ukt": 4450,
      "fa": 4451,
      "ĠĠĊ": 4452,
      "Ġdiam": 4453,
      "Ġny": 4454,
      "Ġmembutuhkan": 4455,
      "Ġras": 4456,
      "ĠNi": 4457,
      "Ġcender": 4458,
      "ĠAnak": 4459,
      "Ġlapangan": 4460,
      "wayat": 4461,
      "Ġfilsafat": 4462,
      "PA": 4463,
      "Ġpajak": 4464,
      "Ġlel": 4465,
      "Ġpemberontakan": 4466,
      "Ġmewakili": 4467,
      "Ġbagaimana": 4468,
      "abis": 4469,
      "-kadang": 4470,
      "ĠPalestina": 4471,
      "Dem": 4472,
      "ins": 4473,
      "inus": 4474,
      "ĠAlam": 4475,
      "Ġsebutan": 4476,
      "ĠMusa": 4477,
      "-align": 4478,
      "ĠAy": 4479,
      "ĠOlimpiade": 4480,
      "ĠKabinet": 4481,
      "asah": 4482,
      "ĠHitler": 4483,
      "Ġkisah": 4484,
      "ĠStalin": 4485,
      "ĠOrganisasi": 4486,
      "Ġsatelit": 4487,
      "ĠInjil": 4488,
      "utrad": 4489,
      "yakini": 4490,
      "uma": 4491,
      "imewa": 4492,
      "omet": 4493,
      "Ġmengakui": 4494,
      "Ġtipe": 4495,
      "Kel": 4496,
      "ĠMor": 4497,
      "Ġperintah": 4498,
      "ĠZhou": 4499,
      "Trans": 4500,
      "Ġbank": 4501,
      "sip": 4502,
      "Ġmenjalankan": 4503,
      "otaan": 4504,
      "ohanes": 4505,
      "rit": 4506,
      "Ġtata": 4507,
      "ekonom": 4508,
      "epon": 4509,
      "Ġbertanggung": 4510,
      "-sama": 4511,
      "Ġdiant": 4512,
      "onj": 4513,
      "indungan": 4514,
      "Ġdarat": 4515,
      "sekarang": 4516,
      "ĠSuci": 4517,
      "Ġperak": 4518,
      "endera": 4519,
      "Ġaktris": 4520,
      "Ġsamping": 4521,
      "izinkan": 4522,
      "adis": 4523,
      "ĠMont": 4524,
      "Ġmeman": 4525,
      "Ġaset": 4526,
      "Ġarea": 4527,
      "aliknya": 4528,
      "Ġkonflik": 4529,
      "yon": 4530,
      "emahan": 4531,
      "isten": 4532,
      "Ġsebagaimana": 4533,
      "Ġkolonial": 4534,
      "unuhan": 4535,
      "ĠMong": 4536,
      "ĠLuar": 4537,
      "Ġpertahanan": 4538,
      "Ġpraktik": 4539,
      "IV": 4540,
      "Ġmisi": 4541,
      "ĠTang": 4542,
      "impunan": 4543,
      "Ġsepen": 4544,
      "Pendidikan": 4545,
      "Ġistri": 4546,
      "ĠBogor": 4547,
      "ĠKuno": 4548,
      "entingan": 4549,
      "ewasa": 4550,
      "Ġmencatat": 4551,
      "Ġdesain": 4552,
      "ĠNusantara": 4553,
      "Ġjadi": 4554,
      "Ġrum": 4555,
      "Ġpria": 4556,
      "Ġprinsip": 4557,
      "Ġbenua": 4558,
      "Ġpartikel": 4559,
      "Ġtaman": 4560,
      "Ġorbit": 4561,
      "Ġcenderung": 4562,
      "ĠBatu": 4563,
      "Ġmerebut": 4564,
      "anye": 4565,
      "Sem": 4566,
      "isat": 4567,
      "ĠNobel": 4568,
      "Ġakadem": 4569,
      "ĠVen": 4570,
      "mosfer": 4571,
      "erj": 4572,
      "gag": 4573,
      "ĠPerk": 4574,
      "Ġarus": 4575,
      "ĠMiliter": 4576,
      "nia": 4577,
      "Ġkm": 4578,
      "Ġarsitektur": 4579,
      "ĠCil": 4580,
      "ĠAll": 4581,
      "Ġkursi": 4582,
      "Ġdinyatakan": 4583,
      "Ã¤": 4584,
      "arya": 4585,
      "ĠKut": 4586,
      "ĠRp": 4587,
      "ĠInstitut": 4588,
      "ĠDavid": 4589,
      "%),": 4590,
      "Sek": 4591,
      "ĠDip": 4592,
      "ĠDistrik": 4593,
      "igh": 4594,
      "Ġcampuran": 4595,
      "so": 4596,
      "utur": 4597,
      "ebat": 4598,
      "ĠCap": 4599,
      "Ġdiproduksi": 4600,
      "Ġdilaksanakan": 4601,
      "egional": 4602,
      "Ada": 4603,
      "uisi": 4604,
      "Ġimp": 4605,
      "ĠAri": 4606,
      "irinya": 4607,
      "Ġmemegang": 4608,
      "ĠChina": 4609,
      "ĠTerbaik": 4610,
      "ekonomian": 4611,
      "enaran": 4612,
      "ahatan": 4613,
      "ukisan": 4614,
      "ebaran": 4615,
      "egoro": 4616,
      "eft": 4617,
      "Ġsalat": 4618,
      "Secara": 4619,
      "lok": 4620,
      "ĠInter": 4621,
      "ĠAkhir": 4622,
      "akaran": 4623,
      "adat": 4624,
      "ĠSemen": 4625,
      "Ġmengetahui": 4626,
      "agung": 4627,
      "ĠPerusahaan": 4628,
      "Ġadministrasi": 4629,
      "Sp": 4630,
      "inci": 4631,
      "Ġmemakai": 4632,
      "ĠHid": 4633,
      "ĠUtsman": 4634,
      "illa": 4635,
      "ĠGeorg": 4636,
      "ategori": 4637,
      "-D": 4638,
      "77": 4639,
      "Ġminggu": 4640,
      "usul": 4641,
      "Ġmatematika": 4642,
      "wira": 4643,
      "umat": 4644,
      "aptis": 4645,
      "ĠSya": 4646,
      "ultur": 4647,
      "alatan": 4648,
      "Ġsini": 4649,
      "ĠSid": 4650,
      "Ġmenampilkan": 4651,
      "ayam": 4652,
      "Ġch": 4653,
      "ĠTerminal": 4654,
      "ĠTaiwan": 4655,
      "Ġmembeli": 4656,
      "Ġbet": 4657,
      "ĠRi": 4658,
      "ashington": 4659,
      "à¤": 4660,
      "ĠDj": 4661,
      "Ġpengel": 4662,
      "odoks": 4663,
      "enom": 4664,
      "ambi": 4665,
      "bar": 4666,
      "Ġmenekan": 4667,
      "Ġaksara": 4668,
      "Ġvol": 4669,
      "Ġapabila": 4670,
      "oft": 4671,
      "ĠDanau": 4672,
      "Ġpingg": 4673,
      "Ġkonstitusi": 4674,
      "ĠDNA": 4675,
      "Ġpabrik": 4676,
      "Ġjarang": 4677,
      "ĠUs": 4678,
      "ĠYohanes": 4679,
      "ĠDisney": 4680,
      "ĠBanten": 4681,
      "Ag": 4682,
      "Ã¨": 4683,
      "elih": 4684,
      "ĠSanto": 4685,
      "kannya": 4686,
      "Ġkeag": 4687,
      "awatan": 4688,
      "ĠOt": 4689,
      "ĠMusim": 4690,
      "orejo": 4691,
      "Ġmenit": 4692,
      "Ġnaskah": 4693,
      "ĠUU": 4694,
      "Ġkering": 4695,
      "ĠAss": 4696,
      "-Undang": 4697,
      "Ġmotor": 4698,
      "ĠTetapi": 4699,
      "ĠDom": 4700,
      "Ġmencegah": 4701,
      "Ġpadat": 4702,
      "ĠRaden": 4703,
      "ĠLib": 4704,
      "ĠTimor": 4705,
      "ĠSom": 4706,
      "ugh": 4707,
      "-tahun": 4708,
      "ĠThomas": 4709,
      "ĠMajelis": 4710,
      "ĠDenmark": 4711,
      "ajurit": 4712,
      "OS": 4713,
      "Ġok": 4714,
      "Ġmenjaga": 4715,
      "Ġvideo": 4716,
      "Ġpenjualan": 4717,
      "akhiri": 4718,
      "Ġident": 4719,
      "Ġtampil": 4720,
      "Ġrasi": 4721,
      "ĠNur": 4722,
      "Ġdipengaruhi": 4723,
      "untungan": 4724,
      "ĠQu": 4725,
      "ampaikan": 4726,
      "Am": 4727,
      "dis": 4728,
      "Ter": 4729,
      "Ġparlemen": 4730,
      "Ġhtt": 4731,
      "upan": 4732,
      "Ġketidak": 4733,
      "ĠTokyo": 4734,
      "Mas": 4735,
      "Ġâ": 4736,
      "ĠBas": 4737,
      "Ġlintas": 4738,
      "ology": 4739,
      "ietnam": 4740,
      "ekuensi": 4741,
      "Ġdiantaranya": 4742,
      "Sejak": 4743,
      "ĠHo": 4744,
      "Ġburuk": 4745,
      "ĠPos": 4746,
      "urangan": 4747,
      "ĠPasukan": 4748,
      "Ġkaya": 4749,
      "ĠMisalnya": 4750,
      "Ġdikirim": 4751,
      "ĠDivisi": 4752,
      "ifikasi": 4753,
      "arki": 4754,
      "Ġilmuwan": 4755,
      "ĠPeter": 4756,
      "utar": 4757,
      "etuj": 4758,
      "Ġgenerasi": 4759,
      "anjing": 4760,
      "Ġtiap": 4761,
      "Ġlebar": 4762,
      "ĠYerusalem": 4763,
      "Ġdibawa": 4764,
      "ĠHarry": 4765,
      "ĠSwedia": 4766,
      "etujui": 4767,
      "ll": 4768,
      "taan": 4769,
      "ĠRam": 4770,
      "ower": 4771,
      "ĠSoci": 4772,
      "Ġtahu": 4773,
      "omunikasi": 4774,
      "ĠÂ": 4775,
      "ĠBek": 4776,
      "odi": 4777,
      "Ġdaging": 4778,
      "opsi": 4779,
      "Ġdikeluarkan": 4780,
      "Ġpetani": 4781,
      "85": 4782,
      "Ġac": 4783,
      "Ġbilangan": 4784,
      "Ġberv": 4785,
      "awal": 4786,
      "roversi": 4787,
      "ĠCal": 4788,
      "Ġprodus": 4789,
      "Ġberkata": 4790,
      "Ġgagasan": 4791,
      "Ġdiakui": 4792,
      "64": 4793,
      "ahat": 4794,
      "ehi": 4795,
      "Ġkepulauan": 4796,
      "anker": 4797,
      "oksida": 4798,
      "efinisikan": 4799,
      "Dengan": 4800,
      "Kelahiran": 4801,
      "ĠMy": 4802,
      "ĠBus": 4803,
      "indak": 4804,
      "ition": 4805,
      "95": 4806,
      "zin": 4807,
      "ory": 4808,
      "ĠForm": 4809,
      "ambangkan": 4810,
      "Ġperhatian": 4811,
      "Ġdihar": 4812,
      "itual": 4813,
      "ambangan": 4814,
      "ondok": 4815,
      "ijing": 4816,
      "Ġikatan": 4817,
      "Ġep": 4818,
      "Ġklasik": 4819,
      "idi": 4820,
      "Ġhistor": 4821,
      "entrasi": 4822,
      "Ġketua": 4823,
      "Ġastr": 4824,
      "Berikut": 4825,
      "zah": 4826,
      "Ġterbuat": 4827,
      "Ġrevolusi": 4828,
      "ĠPersia": 4829,
      "Ġserupa": 4830,
      "Ġpasangan": 4831,
      "Ġdemi": 4832,
      "TA": 4833,
      "ker": 4834,
      "asari": 4835,
      "asaan": 4836,
      "Ġmenduduki": 4837,
      "Ġdidukung": 4838,
      "wal": 4839,
      "ĠRich": 4840,
      "ĠImam": 4841,
      "Ġmaju": 4842,
      "ĠAwards": 4843,
      "Ġkepemimpinan": 4844,
      "oth": 4845,
      "ĠNazi": 4846,
      "ĠKampung": 4847,
      "ĠIV": 4848,
      "ĠGol": 4849,
      "tanian": 4850,
      "Ġpuluh": 4851,
      "ĠWashington": 4852,
      "Ġdikar": 4853,
      "ĠMarx": 4854,
      "utradara": 4855,
      "Ab": 4856,
      "Ġmenentang": 4857,
      "ĠJalur": 4858,
      "ahami": 4859,
      "amil": 4860,
      "Ġperc": 4861,
      "Ġreg": 4862,
      "ĠWalaupun": 4863,
      "ĠEs": 4864,
      "Ġmengal": 4865,
      "Ġkilometer": 4866,
      "Ġmor": 4867,
      "ikir": 4868,
      "Ġinduk": 4869,
      "Ġundang": 4870,
      "ĠCan": 4871,
      "ĠPerb": 4872,
      "Ġkepentingan": 4873,
      "Peristiwa": 4874,
      "ĠDemokrat": 4875,
      "set": 4876,
      "jaga": 4877,
      "Ġbalapan": 4878,
      "ĠFrank": 4879,
      "Ġbar": 4880,
      "Ġboleh": 4881,
      "ĠBidang": 4882,
      "undur": 4883,
      "Ġdinamakan": 4884,
      "Ġmajalah": 4885,
      "idah": 4886,
      "otong": 4887,
      "Ġdaun": 4888,
      "seperti": 4889,
      "ĠKari": 4890,
      "ĠTol": 4891,
      "acaan": 4892,
      "estik": 4893,
      "Ġsir": 4894,
      "Ġtab": 4895,
      "uturkan": 4896,
      "Ġmikro": 4897,
      "Ġsepenuhnya": 4898,
      "Ġdewasa": 4899,
      "Ġinilah": 4900,
      "ĠLeb": 4901,
      "ĠSouth": 4902,
      "Ġmemproduksi": 4903,
      "azhab": 4904,
      "ĠGroup": 4905,
      "eus": 4906,
      "ion": 4907,
      "kah": 4908,
      "Ã£": 4909,
      "iny": 4910,
      "elan": 4911,
      "ajuan": 4912,
      "ĠPertempuran": 4913,
      "Ġmedan": 4914,
      "Ġkekerasan": 4915,
      "Ġhilang": 4916,
      "Ġpositif": 4917,
      "Ġobat": 4918,
      "Film": 4919,
      "Ġ.ĊĊ": 4920,
      "Ġbes": 4921,
      "ĠBab": 4922,
      "ĠTar": 4923,
      "ajian": 4924,
      "wang": 4925,
      "sky": 4926,
      "Ġdekade": 4927,
      "ĠSeni": 4928,
      "irasi": 4929,
      "stem": 4930,
      "ĠKedokteran": 4931,
      "Ġbervariasi": 4932,
      "Ġdewan": 4933,
      "ĠTingkat": 4934,
      "imum": 4935,
      "ĠGus": 4936,
      "Ġciri": 4937,
      "Ġditentukan": 4938,
      "Ġmendek": 4939,
      "Ġdiperoleh": 4940,
      "ordin": 4941,
      "ĠSej": 4942,
      "ĠKamp": 4943,
      "indahan": 4944,
      "Ġperkebunan": 4945,
      "elilingi": 4946,
      "enian": 4947,
      "alat": 4948,
      "ingat": 4949,
      "rani": 4950,
      "Ġberbicara": 4951,
      "Ġarti": 4952,
      "Indonesia": 4953,
      "99": 4954,
      "Ġkategori": 4955,
      "urt": 4956,
      "ĠMand": 4957,
      "ĠTiga": 4958,
      "Ġkeagamaan": 4959,
      "ĠBerdasarkan": 4960,
      "ĠTo": 4961,
      "Ġmengus": 4962,
      "erintahkan": 4963,
      "isiko": 4964,
      "Ġkalah": 4965,
      "utasi": 4966,
      "Ġperingatan": 4967,
      "ĠDet": 4968,
      "ajat": 4969,
      "Ġdibunuh": 4970,
      "ign": 4971,
      "ĠAdministr": 4972,
      "ĠHistory": 4973,
      "ĠWah": 4974,
      "ĠVietnam": 4975,
      "Ġbertugas": 4976,
      "ĠAnggota": 4977,
      "Ġsaluran": 4978,
      "Ġmenempati": 4979,
      "CA": 4980,
      "eral": 4981,
      "esan": 4982,
      "Ġjudul": 4983,
      "Ġno": 4984,
      "Ġpembalap": 4985,
      "mintaan": 4986,
      "ropol": 4987,
      "ĠSwiss": 4988,
      "ĠSaint": 4989,
      "iang": 4990,
      "Ġsent": 4991,
      "uto": 4992,
      "Ġmemer": 4993,
      "ĠNa": 4994,
      "Ġgraf": 4995,
      "aboratorium": 4996,
      "erbitkan": 4997,
      "aul": 4998,
      "eliti": 4999,
      "ilaku": 5000,
      "Ġmemerintahkan": 5001,
      "ĠHong": 5002,
      "umpulkan": 5003,
      "ĠOrt": 5004,
      "Ia": 5005,
      "Ġbuatan": 5006,
      "onegoro": 5007,
      "Ġmemainkan": 5008,
      "Ġdalamnya": 5009,
      "Ġmenjual": 5010,
      "ĠAlbum": 5011,
      "ĠMaria": 5012,
      "ĠKeuangan": 5013,
      "ĠSchool": 5014,
      "ĠKongres": 5015,
      "aina": 5016,
      "ĠUp": 5017,
      "Ġfrom": 5018,
      "Ġtahap": 5019,
      "left": 5020,
      "ĠSus": 5021,
      "upsi": 5022,
      "Ġne": 5023,
      "Ġfos": 5024,
      "Ġpemilik": 5025,
      "indari": 5026,
      "Ġatmosfer": 5027,
      "Ġdelapan": 5028,
      "ux": 5029,
      "iana": 5030,
      "Ġaplikasi": 5031,
      "ĠKomunis": 5032,
      "Ġprofesional": 5033,
      "Ġsing": 5034,
      "ĠFranc": 5035,
      "OC": 5036,
      "ansi": 5037,
      "esia": 5038,
      "adai": 5039,
      "ĠRoy": 5040,
      "awarkan": 5041,
      "urnal": 5042,
      "ĠBrig": 5043,
      "araja": 5044,
      "bach": 5045,
      "ĠHab": 5046,
      "ĠGen": 5047,
      "ĠMaluku": 5048,
      "ĠAkadem": 5049,
      "Ġhijau": 5050,
      "Ker": 5051,
      "itz": 5052,
      "ĠKos": 5053,
      "awang": 5054,
      "Ġkebebasan": 5055,
      "enan": 5056,
      "alid": 5057,
      "ĠKata": 5058,
      "baikan": 5059,
      "ampai": 5060,
      "Ġpola": 5061,
      "Ġmemperkenalkan": 5062,
      "Ġmo": 5063,
      "ĠKantor": 5064,
      "inggalan": 5065,
      "Ġberkuasa": 5066,
      "-Nya": 5067,
      "iam": 5068,
      "Ġteman": 5069,
      "Ġkami": 5070,
      "ebon": 5071,
      "ĠRep": 5072,
      "ĠEli": 5073,
      "Ġaksi": 5074,
      "ĠPertahanan": 5075,
      "islatif": 5076,
      "-nya": 5077,
      "Dari": 5078,
      "Ä«": 5079,
      "ĠBet": 5080,
      "Ġhib": 5081,
      "ĠCina": 5082,
      "Ġpengadilan": 5083,
      "Ġorganisme": 5084,
      "Ġintel": 5085,
      "Ġefektif": 5086,
      "Ġpintu": 5087,
      "ĠKod": 5088,
      "inginan": 5089,
      "ĠLo": 5090,
      "Ġmelaksanakan": 5091,
      "Ġfot": 5092,
      "ĠApple": 5093,
      "ĠKarya": 5094,
      "ĠPutri": 5095,
      "bel": 5096,
      "ĠØ": 5097,
      "Ġmenawarkan": 5098,
      "Ġpemilu": 5099,
      "ontak": 5100,
      "Ġutamanya": 5101,
      "42": 5102,
      "Berdasarkan": 5103,
      "IS": 5104,
      "Pr": 5105,
      "we": 5106,
      "Ġpe": 5107,
      "Ġmengangkat": 5108,
      "eksiko": 5109,
      "ĠChamp": 5110,
      "nan": 5111,
      "Ġkualitas": 5112,
      "Ġpenemuan": 5113,
      "ubang": 5114,
      "Ġditangkap": 5115,
      "Ġhukuman": 5116,
      "Ġmundur": 5117,
      "ĠPS": 5118,
      "ĠBro": 5119,
      "ograp": 5120,
      "ritik": 5121,
      "Ġtahunan": 5122,
      "identifikasi": 5123,
      ".H": 5124,
      "Is": 5125,
      "ĠBang": 5126,
      "Ġpemikiran": 5127,
      "-pulau": 5128,
      "unty": 5129,
      "ĠKesehatan": 5130,
      "Ġlangkah": 5131,
      "ebaskan": 5132,
      "ire": 5133,
      "ĠLama": 5134,
      "lahraga": 5135,
      "Ġdidasarkan": 5136,
      "Ġulama": 5137,
      "Ġberagama": 5138,
      "ĠDewa": 5139,
      "Ġflu": 5140,
      "ĠĠĠĠĠĠĠĠ": 5141,
      "Ad": 5142,
      "mo": 5143,
      "Ġlepas": 5144,
      "angsawan": 5145,
      "Ġsebagainya": 5146,
      ".C": 5147,
      "atta": 5148,
      "Ġberhenti": 5149,
      "ĠKomite": 5150,
      "Ġbergantung": 5151,
      "Saat": 5152,
      "bul": 5153,
      "Ġmemerintah": 5154,
      "round": 5155,
      "Ġmusuh": 5156,
      "ĠSaudi": 5157,
      "kar": 5158,
      "Ùħ": 5159,
      "ilasi": 5160,
      "ĠBata": 5161,
      "ĠCandi": 5162,
      "Ġmenandatangani": 5163,
      "Ġtergantung": 5164,
      "88": 5165,
      "Ġpep": 5166,
      "Ġtropis": 5167,
      "Ġgubernur": 5168,
      "Ġzat": 5169,
      "Ġmengklaim": 5170,
      "RT": 5171,
      "ze": 5172,
      "Ġkala": 5173,
      "elakaan": 5174,
      "ĠPasifik": 5175,
      "olf": 5176,
      "Ġwith": 5177,
      "ancangan": 5178,
      "ĠEmp": 5179,
      "Ġnovel": 5180,
      "Uni": 5181,
      "Ġmenerbitkan": 5182,
      "ĠLou": 5183,
      "amping": 5184,
      "Ġpelaksanaan": 5185,
      "Ġsepuluh": 5186,
      "ĠSosial": 5187,
      "Ġbersamaan": 5188,
      "cy": 5189,
      "zo": 5190,
      "onc": 5191,
      "ese": 5192,
      "ĠPutih": 5193,
      "ĠGerakan": 5194,
      "kraina": 5195,
      "Tahun": 5196,
      "atik": 5197,
      "aton": 5198,
      "asang": 5199,
      "ĠKudus": 5200,
      "epaskan": 5201,
      "ugu": 5202,
      "pres": 5203,
      "ering": 5204,
      "ĠSah": 5205,
      "ariat": 5206,
      "ajahan": 5207,
      "Ġterbanyak": 5208,
      "Ġpernikahan": 5209,
      "MA": 5210,
      "tant": 5211,
      "uap": 5212,
      "ukkan": 5213,
      "ĠKarang": 5214,
      "ĠMic": 5215,
      "ĠMosk": 5216,
      "Ġmelindungi": 5217,
      "Ġsemacam": 5218,
      "aksasa": 5219,
      "Ġapakah": 5220,
      "jemahkan": 5221,
      "ake": 5222,
      "iraan": 5223,
      "ĠTerdapat": 5224,
      "ongg": 5225,
      "ĠPenghargaan": 5226,
      "Mus": 5227,
      "yana": 5228,
      "ĠÎ": 5229,
      "une": 5230,
      "Ġkanker": 5231,
      "ise": 5232,
      "agan": 5233,
      "ĠCenter": 5234,
      "Ġpengikut": 5235,
      "Ġion": 5236,
      "ĠMasyarakat": 5237,
      "Ġartikel": 5238,
      "96": 5239,
      "Ġmengunjungi": 5240,
      "Ġmelainkan": 5241,
      "Ġberkisar": 5242,
      "ĠPad": 5243,
      "Ġaturan": 5244,
      "ĠArj": 5245,
      "Ġkesempatan": 5246,
      "ĠSerbia": 5247,
      "Pemerintahan": 5248,
      "ĠKuala": 5249,
      "ategis": 5250,
      "ID": 5251,
      "Ġringan": 5252,
      "Ġdigital": 5253,
      "ĠIrak": 5254,
      "akhluk": 5255,
      "ependen": 5256,
      "Ġayat": 5257,
      "ĠKart": 5258,
      "Ġmeneg": 5259,
      "Ġpergerakan": 5260,
      "angani": 5261,
      "Ġpembunuhan": 5262,
      "lavia": 5263,
      "Ġbay": 5264,
      "ric": 5265,
      "chn": 5266,
      "Ġarmada": 5267,
      "ĠMahasiswa": 5268,
      "ĠMichael": 5269,
      "ĠFinlandia": 5270,
      "lad": 5271,
      "arjo": 5272,
      "Ġpermintaan": 5273,
      "onton": 5274,
      "ĠTerj": 5275,
      "Ġtelepon": 5276,
      "ĠSuper": 5277,
      "Ġkepadatan": 5278,
      "Masa": 5279,
      "Ġturut": 5280,
      "ĠRed": 5281,
      "oci": 5282,
      "Ġpedagang": 5283,
      "Ġseksual": 5284,
      "Ġhttp": 5285,
      "Ã£o": 5286,
      "win": 5287,
      "uhur": 5288,
      "antinya": 5289,
      "ĠUE": 5290,
      "Ġsejarawan": 5291,
      "Ġvokal": 5292,
      "Ġpelangg": 5293,
      "asihat": 5294,
      "ĠMalik": 5295,
      "Ġmaks": 5296,
      "aleri": 5297,
      "ĠBudaya": 5298,
      "umbu": 5299,
      "Ġnorm": 5300,
      "ĠKeputusan": 5301,
      "ĠBeijing": 5302,
      "ĠMongol": 5303,
      "Ġbeserta": 5304,
      "Ġver": 5305,
      "eluk": 5306,
      "ĠPam": 5307,
      "ĠBani": 5308,
      "Ġlemb": 5309,
      "ĠJuara": 5310,
      "anggil": 5311,
      "empa": 5312,
      "Ġterjadinya": 5313,
      "Ġgajah": 5314,
      "Ġpilihan": 5315,
      "adopsi": 5316,
      "itungan": 5317,
      "ĠIran": 5318,
      "ĠPerm": 5319,
      "Ġpolisi": 5320,
      "assar": 5321,
      "Selama": 5322,
      "gia": 5323,
      "ko": 5324,
      "ĠÐ": 5325,
      "Ġ.Ċ": 5326,
      "Ġpukul": 5327,
      "Ġradi": 5328,
      "untut": 5329,
      "erikatan": 5330,
      "ĠOrtodoks": 5331,
      "uai": 5332,
      "inter": 5333,
      "ĠMeksiko": 5334,
      "Ġperalatan": 5335,
      "ternatif": 5336,
      "unci": 5337,
      "ĠMadura": 5338,
      "ĠWindows": 5339,
      "Ġbabak": 5340,
      "Ġsingkat": 5341,
      "ĠOff": 5342,
      "Ġsemuanya": 5343,
      "Pert": 5344,
      "gabungkan": 5345,
      "46": 5346,
      "hasil": 5347,
      "Ġtimb": 5348,
      "ĠLembaga": 5349,
      "ĠWisata": 5350,
      "Ġakses": 5351,
      "ropolitan": 5352,
      "Desa": 5353,
      "IN": 5354,
      "Ġdefinisi": 5355,
      "ĠLin": 5356,
      "Ġdipert": 5357,
      "Ġmakna": 5358,
      "Ġsarana": 5359,
      "ĠRS": 5360,
      "ĠRama": 5361,
      "Ġpemro": 5362,
      "/S": 5363,
      "Kes": 5364,
      "ĠStaf": 5365,
      "ĠKir": 5366,
      "Ġbern": 5367,
      "ulunya": 5368,
      "ĠTy": 5369,
      "ĠSemua": 5370,
      "III": 5371,
      "aktif": 5372,
      "onor": 5373,
      "endak": 5374,
      "Ġdipl": 5375,
      "ution": 5376,
      "Ġangkasa": 5377,
      "ĠJembatan": 5378,
      "igasi": 5379,
      "ĠSetiap": 5380,
      "Ġhadir": 5381,
      "cel": 5382,
      "angguan": 5383,
      "-kira": 5384,
      "ĠDirektur": 5385,
      "Ġlangit": 5386,
      "ancarkan": 5387,
      "ĠManusia": 5388,
      "ĠAbdullah": 5389,
      "col": 5390,
      "sal": 5391,
      "esh": 5392,
      "ĠNe": 5393,
      "idaknya": 5394,
      "Ġpasti": 5395,
      "ĠYo": 5396,
      "-un": 5397,
      "ekor": 5398,
      "Ġfeder": 5399,
      "intasi": 5400,
      "unggu": 5401,
      "ÙĬ": 5402,
      "Ġpakaian": 5403,
      "ĠPanc": 5404,
      "Ġmenang": 5405,
      "Ġfinal": 5406,
      "ics": 5407,
      "uck": 5408,
      "Ġspes": 5409,
      "57": 5410,
      "atri": 5411,
      "Ġkuda": 5412,
      "ĠMaka": 5413,
      "Ġperaturan": 5414,
      "ĠRob": 5415,
      "ĠKereta": 5416,
      "Ġkompetisi": 5417,
      "Ketika": 5418,
      "Pel": 5419,
      "Ġit": 5420,
      "akta": 5421,
      "ĠBa": 5422,
      "Ġlayar": 5423,
      "ĠLuth": 5424,
      "antas": 5425,
      "Ġfisika": 5426,
      "ambo": 5427,
      "ektro": 5428,
      "dari": 5429,
      "apak": 5430,
      "ĠTs": 5431,
      "ĠTom": 5432,
      "Ġrump": 5433,
      "Ġpensi": 5434,
      "ente": 5435,
      "179": 5436,
      "encanakan": 5437,
      "uktikan": 5438,
      "akm": 5439,
      "eling": 5440,
      "ĠTor": 5441,
      "Ġinfr": 5442,
      "ĠRaj": 5443,
      "osari": 5444,
      "elahan": 5445,
      "Ġdomestik": 5446,
      "are": 5447,
      "app": 5448,
      "ĠHus": 5449,
      "trin": 5450,
      "inda": 5451,
      "igur": 5452,
      "Ġekor": 5453,
      "Ġdiperkenalkan": 5454,
      "Demografi": 5455,
      "Transportasi": 5456,
      "ĠBatavia": 5457,
      "43": 5458,
      "ĠBak": 5459,
      "Ġkapasitas": 5460,
      "Ġanjing": 5461,
      "Ġsam": 5462,
      "akluk": 5463,
      "entuan": 5464,
      "Ġmembah": 5465,
      "Ġaspek": 5466,
      "Ġdilengkapi": 5467,
      "ĠZh": 5468,
      "ĠĠĠ": 5469,
      "ĠPortugal": 5470,
      "ĠLenin": 5471,
      "ĠMedia": 5472,
      "ĠNap": 5473,
      "152": 5474,
      "Ġmanajemen": 5475,
      "ĠKhusus": 5476,
      "Ġkendali": 5477,
      "Ġnegatif": 5478,
      "nah": 5479,
      "emuka": 5480,
      "ektar": 5481,
      "ava": 5482,
      "Ġpernyataan": 5483,
      "Ġdijual": 5484,
      "Ġgeografis": 5485,
      "Ġpadi": 5486,
      "alog": 5487,
      "inf": 5488,
      "ĠNet": 5489,
      "ĠVir": 5490,
      "Ġperlindungan": 5491,
      "Ġskala": 5492,
      "Ġpang": 5493,
      "Ġpariwisata": 5494,
      "asaran": 5495,
      "Ġkub": 5496,
      "ungkapkan": 5497,
      "160": 5498,
      "Ġdigambarkan": 5499,
      "ĠMataram": 5500,
      "Ġibunya": 5501,
      "ways": 5502,
      "pun": 5503,
      "endalikan": 5504,
      "olisian": 5505,
      "Ġjembatan": 5506,
      "ipp": 5507,
      "afs": 5508,
      "Ġprajurit": 5509,
      "ĠAtl": 5510,
      "isipasi": 5511,
      "ĠCirebon": 5512,
      "ĠFIFA": 5513,
      "66": 5514,
      "amen": 5515,
      "ilitas": 5516,
      "ĠAkan": 5517,
      "lahir": 5518,
      "ĠBrit": 5519,
      "ĠPanglima": 5520,
      "ĠBosnia": 5521,
      "Ġ;": 5522,
      "enam": 5523,
      "elasan": 5524,
      "ider": 5525,
      "back": 5526,
      "Ġmerilis": 5527,
      "Ġgula": 5528,
      "Ġcurah": 5529,
      "ĠWeb": 5530,
      "amalia": 5531,
      "yangan": 5532,
      "ĠKing": 5533,
      "ĠMik": 5534,
      "ago": 5535,
      "hev": 5536,
      "gawai": 5537,
      "mikan": 5538,
      "Ġkopi": 5539,
      "apal": 5540,
      "etujuan": 5541,
      "Ġmengarah": 5542,
      "cht": 5543,
      "inding": 5544,
      "Kematian": 5545,
      "-w": 5546,
      "ĠBud": 5547,
      "Ġkejadian": 5548,
      "Ġmuatan": 5549,
      "ĠBor": 5550,
      "etakan": 5551,
      "ĠFar": 5552,
      "otik": 5553,
      "ocok": 5554,
      "ĠBerk": 5555,
      "Kons": 5556,
      "bal": 5557,
      "wijaya": 5558,
      "Ġkekaisaran": 5559,
      "ĠGel": 5560,
      "ĠGedung": 5561,
      "ayasan": 5562,
      "Ġanalisis": 5563,
      "alifah": 5564,
      "Ġmaterial": 5565,
      "49": 5566,
      "Ġkuning": 5567,
      "amad": 5568,
      "ĠIk": 5569,
      "ĠUkraina": 5570,
      "indung": 5571,
      "Ġdipindahkan": 5572,
      "iger": 5573,
      "/k": 5574,
      "IA": 5575,
      "Ġteb": 5576,
      "ĠKop": 5577,
      "oket": 5578,
      "okerto": 5579,
      "site": 5580,
      "inah": 5581,
      "untuk": 5582,
      "ĠMari": 5583,
      "otlandia": 5584,
      "Ġditambah": 5585,
      "Ġkertas": 5586,
      "inginkan": 5587,
      "ektorat": 5588,
      "ĠAkademi": 5589,
      "bus": 5590,
      "zab": 5591,
      "Ġpenduduknya": 5592,
      "ĠMasehi": 5593,
      "ĠSMK": 5594,
      "ty": 5595,
      "Ġdimasuk": 5596,
      "kand": 5597,
      "ĠWid": 5598,
      "Ġurusan": 5599,
      "arget": 5600,
      "ĠUtsmaniyah": 5601,
      "Ġmemerlukan": 5602,
      "ĠDu": 5603,
      "Ġmenyebar": 5604,
      "umpul": 5605,
      "ĠSamudra": 5606,
      "Ġkontrak": 5607,
      "Ġinvestasi": 5608,
      "asama": 5609,
      "Ġtepi": 5610,
      "ĠSci": 5611,
      "Ġbersa": 5612,
      "Ġrat": 5613,
      "ede": 5614,
      "entangan": 5615,
      "Ġdimaksud": 5616,
      "-pro": 5617,
      "ĠKemerdekaan": 5618,
      "Ġtulang": 5619,
      "adangan": 5620,
      "Ġdiluncurkan": 5621,
      "Ġmenghindari": 5622,
      "ĠKomisi": 5623,
      "ublic": 5624,
      "Ġmengaku": 5625,
      "ĠRus": 5626,
      "Ġmelambangkan": 5627,
      "Ekonomi": 5628,
      "ĠGeorgia": 5629,
      "ĠRichard": 5630,
      "eme": 5631,
      "ĠWe": 5632,
      "Ġaku": 5633,
      "Ġmenghancurkan": 5634,
      "ĠPersatuan": 5635,
      "ions": 5636,
      "vi": 5637,
      "iaan": 5638,
      "Ġreformasi": 5639,
      "yakinan": 5640,
      "ejala": 5641,
      "ĠSelandia": 5642,
      "ĠPerserikatan": 5643,
      "Ġmengalir": 5644,
      "yth": 5645,
      "itologi": 5646,
      "Ġperwakilan": 5647,
      "Ġmengakhiri": 5648,
      "600": 5649,
      "Meskipun": 5650,
      "yn": 5651,
      "Ġdita": 5652,
      "organ": 5653,
      "ĠRiau": 5654,
      "sigen": 5655,
      "ĠLand": 5656,
      "ĠLaw": 5657,
      "Ġpesan": 5658,
      "Ġmembuatnya": 5659,
      "Ġperjuangan": 5660,
      "ĠPakistan": 5661,
      "Ġpensiun": 5662,
      "PD": 5663,
      "ĠPenc": 5664,
      "ĠTab": 5665,
      "Ġcer": 5666,
      "Ġmemanfaatkan": 5667,
      "Ġpid": 5668,
      "emar": 5669,
      "isinya": 5670,
      "ĠNga": 5671,
      "Ġpersegi": 5672,
      "Ġmembaca": 5673,
      "Ġkaisar": 5674,
      "Ġpenjara": 5675,
      "Ġdiselenggarakan": 5676,
      ".M": 5677,
      "garia": 5678,
      "hari": 5679,
      "mal": 5680,
      "yal": 5681,
      "ãĥ": 5682,
      "Ġunik": 5683,
      "Ġnabi": 5684,
      "intesis": 5685,
      "esaran": 5686,
      "ĠVic": 5687,
      "ĠSurakarta": 5688,
      "-Bangsa": 5689,
      "Ġdll": 5690,
      "Ġcalon": 5691,
      "ensus": 5692,
      "ĠPelabuhan": 5693,
      "rahim": 5694,
      "asifikasi": 5695,
      "800": 5696,
      "ward": 5697,
      "isis": 5698,
      "iset": 5699,
      "ĠSastra": 5700,
      "Ġroh": 5701,
      "anggu": 5702,
      "ĠSelat": 5703,
      "Ġsiaran": 5704,
      "Ġdokter": 5705,
      "www": 5706,
      "elm": 5707,
      "esua": 5708,
      "Ġperg": 5709,
      "ĠNorth": 5710,
      "Ġmerd": 5711,
      "ott": 5712,
      "56": 5713,
      "Wilayah": 5714,
      "ground": 5715,
      "Ġmakhluk": 5716,
      "ahap": 5717,
      "usuf": 5718,
      "Ġmengund": 5719,
      "Ġbertujuan": 5720,
      "ammad": 5721,
      "ĠSekretaris": 5722,
      "ĠMax": 5723,
      "Ġsisa": 5724,
      "Ġtuan": 5725,
      "ĠPegunungan": 5726,
      "ĠWat": 5727,
      "efektur": 5728,
      "Ġwilayahnya": 5729,
      "ĠPengadilan": 5730,
      "Pemain": 5731,
      "Ġkira": 5732,
      "ure": 5733,
      "ĠMu": 5734,
      "ungkan": 5735,
      "Ġmengacu": 5736,
      "ormati": 5737,
      "ĠBrah": 5738,
      "ĠMalaka": 5739,
      "ĠSkotlandia": 5740,
      "Ġlegislatif": 5741,
      "ano": 5742,
      "Ġtik": 5743,
      "ĠKimia": 5744,
      "ekatan": 5745,
      "ektif": 5746,
      "Ġbersenjata": 5747,
      "Ġpesat": 5748,
      "Ġpul": 5749,
      "Ġletak": 5750,
      "Ġraksasa": 5751,
      "skup": 5752,
      "ĠIstilah": 5753,
      "epakatan": 5754,
      "Ġternyata": 5755,
      "astr": 5756,
      "ĠAdip": 5757,
      "Ġwafat": 5758,
      "41": 5759,
      ":left": 5760,
      "CO": 5761,
      "Ð¾": 5762,
      "Ġtem": 5763,
      "ukim": 5764,
      "ĠSant": 5765,
      "Ġkeuntungan": 5766,
      "Ġmengut": 5767,
      "oka": 5768,
      "otasi": 5769,
      "ĠAnti": 5770,
      "-benar": 5771,
      "eskrip": 5772,
      "250": 5773,
      "ĠBekasi": 5774,
      "Ġmerdeka": 5775,
      "TP": 5776,
      "sari": 5777,
      "ŃĲ": 5778,
      "ikanan": 5779,
      "ĠFl": 5780,
      "ĠWh": 5781,
      "ĠChampions": 5782,
      "mati": 5783,
      "ÙĪ": 5784,
      "adari": 5785,
      "ĠParlemen": 5786,
      "ury": 5787,
      "Ġlukisan": 5788,
      "ekaran": 5789,
      "Ġhektar": 5790,
      "icu": 5791,
      "-kata": 5792,
      "imbang": 5793,
      "urne": 5794,
      "ĠMatahari": 5795,
      "ĠPrix": 5796,
      "sterdam": 5797,
      "Ġrahasia": 5798,
      "Ġdiranc": 5799,
      "Ġmenetap": 5800,
      "ĠHasil": 5801,
      "ĠFestival": 5802,
      "Âłmm": 5803,
      "suf": 5804,
      "Ġmenempatkan": 5805,
      "olahan": 5806,
      "ĠIsa": 5807,
      "Ġputr": 5808,
      "Ġkontroversi": 5809,
      "Ġsikap": 5810,
      "Ġsapi": 5811,
      "ĠRec": 5812,
      "ĠInformasi": 5813,
      "ĠWon": 5814,
      "ĠWest": 5815,
      "ugerah": 5816,
      "ove": 5817,
      "arkas": 5818,
      "Ġmurni": 5819,
      "rosoft": 5820,
      "Ke": 5821,
      "Ġ#": 5822,
      "Ġbangsawan": 5823,
      "Ġrem": 5824,
      "angkabau": 5825,
      "ĠInternet": 5826,
      "Ġkampung": 5827,
      "iknya": 5828,
      "Ġterminal": 5829,
      "Ġperairan": 5830,
      "Ġregional": 5831,
      "ĠCinta": 5832,
      "ope": 5833,
      "ebihan": 5834,
      "Ġalternatif": 5835,
      "ijen": 5836,
      "Perusahaan": 5837,
      "Peny": 5838,
      "ertian": 5839,
      "Ġtampaknya": 5840,
      "Ġdirancang": 5841,
      "dalam": 5842,
      "Ġperwira": 5843,
      "sion": 5844,
      "ĠCarl": 5845,
      "Ġterkemuka": 5846,
      "ĠPenerbangan": 5847,
      "Ġtepatnya": 5848,
      "atom": 5849,
      "Ġdanau": 5850,
      "ĠPed": 5851,
      "adaban": 5852,
      "sib": 5853,
      "Ġpenurunan": 5854,
      "angkut": 5855,
      "Ġmencetak": 5856,
      "ĠIbrani": 5857,
      "tidak": 5858,
      "Ð°": 5859,
      "Ġtemp": 5860,
      "Ġtenggara": 5861,
      "Ġdiatur": 5862,
      "Ġdiganti": 5863,
      "ĠBern": 5864,
      "ĠFlor": 5865,
      "angkatan": 5866,
      "Ġsetuju": 5867,
      "astikan": 5868,
      "Ġdiciptakan": 5869,
      "ĠPutra": 5870,
      "romos": 5871,
      "Ġformal": 5872,
      "ĠInstitute": 5873,
      "Keb": 5874,
      "Ġlawan": 5875,
      "ĠLuas": 5876,
      "Ġpemenang": 5877,
      "ĠSeperti": 5878,
      "...": 5879,
      "Ġhadis": 5880,
      "Ġinfeksi": 5881,
      "Ġsituasi": 5882,
      "bungan": 5883,
      "ahter": 5884,
      "ĠPerp": 5885,
      "Ġelektronik": 5886,
      "ĠPesawat": 5887,
      "/T": 5888,
      "Ġpulang": 5889,
      "onf": 5890,
      "ĠPart": 5891,
      "uruk": 5892,
      "Ġha": 5893,
      "Ġhalaman": 5894,
      "Ġdikelola": 5895,
      "Kelurahan": 5896,
      "Pemba": 5897,
      "Ġmanga": 5898,
      "ikh": 5899,
      "Ġberukuran": 5900,
      "ety": 5901,
      "ĠLingk": 5902,
      "ĠPertanian": 5903,
      "Ġbertambah": 5904,
      "151": 5905,
      "Ġsinar": 5906,
      "Presiden": 5907,
      "uaran": 5908,
      "yanya": 5909,
      "Ġmelah": 5910,
      "Ġsatunya": 5911,
      "ĠToy": 5912,
      "ĠDasar": 5913,
      "ajarkan": 5914,
      "Ġganda": 5915,
      "ĠAkibat": 5916,
      "-E": 5917,
      "Ġdampak": 5918,
      "Ġmand": 5919,
      "ĠSeh": 5920,
      "ĠPK": 5921,
      "ĠAirways": 5922,
      "ĠBatak": 5923,
      "Ġlemak": 5924,
      "87": 5925,
      "pel": 5926,
      "ĠKun": 5927,
      "Ġmemengaruhi": 5928,
      "udeta": 5929,
      "ambaran": 5930,
      "Ġsemesta": 5931,
      "Ġbukanlah": 5932,
      "Sebelum": 5933,
      "alisme": 5934,
      "olos": 5935,
      "enting": 5936,
      "ontalo": 5937,
      "aitkan": 5938,
      "amatkan": 5939,
      "Karena": 5940,
      "bachev": 5941,
      "den": 5942,
      "put": 5943,
      "top": 5944,
      "ains": 5945,
      "Ġmenyerahkan": 5946,
      "Ik": 5947,
      "Mar": 5948,
      "Ġpokok": 5949,
      "ĠSes": 5950,
      "ĠLu": 5951,
      "uaca": 5952,
      "chen": 5953,
      "Ġdipandang": 5954,
      "Ġprasasti": 5955,
      "Ġkalimat": 5956,
      "ĠCounty": 5957,
      "ĠKapal": 5958,
      "Agama": 5959,
      "Ġlatar": 5960,
      "Ġperekonomian": 5961,
      "Ġzona": 5962,
      "Ġpolitikus": 5963,
      "stitusi": 5964,
      "Ġkampanye": 5965,
      "Ġsiswa": 5966,
      "ais": 5967,
      "kol": 5968,
      "Ġdulu": 5969,
      "untansi": 5970,
      "ĠKro": 5971,
      "ĠDayak": 5972,
      "idasi": 5973,
      "ĠNas": 5974,
      "Ġkeluarganya": 5975,
      "Ġhidupnya": 5976,
      "bourne": 5977,
      "ĠArjuna": 5978,
      "Ġden": 5979,
      "Ġkan": 5980,
      "edisi": 5981,
      "Ġelemen": 5982,
      "ĠKebudayaan": 5983,
      "ĠMinangkabau": 5984,
      "Ġmenjalani": 5985,
      "Ġoksigen": 5986,
      "Ġmengundurkan": 5987,
      "ier": 5988,
      "Ã±": 5989,
      "ukota": 5990,
      "ĠKend": 5991,
      "ĠBest": 5992,
      "ĠCr": 5993,
      "ĠYayasan": 5994,
      "Ġpertunjukan": 5995,
      "ico": 5996,
      "igran": 5997,
      "Ġkerusakan": 5998,
      "ET": 5999,
      "stan": 6000,
      "alisasi": 6001,
      "astruktur": 6002,
      "Ġmengajukan": 6003,
      "ĠLam": 6004,
      "cher": 6005,
      "ĠGreg": 6006,
      "iskin": 6007,
      "enomena": 6008,
      "ĠTata": 6009,
      "ĠRev": 6010,
      "Ġotoritas": 6011,
      "Ġfrekuensi": 6012,
      "120": 6013,
      "Ist": 6014,
      "Ġth": 6015,
      "Ġkut": 6016,
      "ĠPember": 6017,
      "ilikan": 6018,
      "ĠPeraturan": 6019,
      "Ġberlanjut": 6020,
      "Ġkehormatan": 6021,
      "Ġmau": 6022,
      "Ġmelahirkan": 6023,
      "Ġend": 6024,
      "Ġpil": 6025,
      "ĠPondok": 6026,
      "ilangkan": 6027,
      "Ġpenampilan": 6028,
      "Ġindependen": 6029,
      "Ġdimasukkan": 6030,
      "Sistem": 6031,
      "bagai": 6032,
      "ecil": 6033,
      "Ġgabungan": 6034,
      "Ġibadah": 6035,
      "Ġsyarat": 6036,
      "ĠSemenanjung": 6037,
      "01": 6038,
      "ĠGod": 6039,
      "Ġkelima": 6040,
      "Ġberpengaruh": 6041,
      "ĠMakassar": 6042,
      "ĠUEFA": 6043,
      "igrasi": 6044,
      "log": 6045,
      "Ġso": 6046,
      "ild": 6047,
      "ĠTokoh": 6048,
      "tain": 6049,
      "isma": 6050,
      "178": 6051,
      "Ġkabinet": 6052,
      "Ġkuil": 6053,
      "Ġpuisi": 6054,
      "ister": 6055,
      "ĠSakit": 6056,
      "uro": 6057,
      "ĠWir": 6058,
      "acang": 6059,
      "ĠPolisi": 6060,
      "ĠKonstant": 6061,
      "Ġrekaman": 6062,
      "AL": 6063,
      "Ġdias": 6064,
      "ĠKawasan": 6065,
      "ĠBahkan": 6066,
      "Ġfokus": 6067,
      "177": 6068,
      "ĠâĢĺ": 6069,
      "val": 6070,
      "enia": 6071,
      "ĠMilan": 6072,
      "olaan": 6073,
      "Ġwajib": 6074,
      "Ġcipta": 6075,
      "unjungan": 6076,
      "Ġperkotaan": 6077,
      "ĠPandawa": 6078,
      "embalikan": 6079,
      "Ġditutup": 6080,
      "Ġkesatuan": 6081,
      "ĠIbrahim": 6082,
      "ĠLouis": 6083,
      "aklukkan": 6084,
      "dengan": 6085,
      "gorit": 6086,
      "weg": 6087,
      "abah": 6088,
      "Ġrisiko": 6089,
      "ĠFrancis": 6090,
      "Ġdidominasi": 6091,
      "Ø§ÙĦ": 6092,
      "Keh": 6093,
      "Ã¢": 6094,
      "yair": 6095,
      "ĠFisika": 6096,
      "eck": 6097,
      "Ġsetidaknya": 6098,
      "umpur": 6099,
      "Ġlogo": 6100,
      ".)": 6101,
      "700": 6102,
      "iawan": 6103,
      "ĠDh": 6104,
      "ĠLagu": 6105,
      "Ġmenceritakan": 6106,
      "ĠBelgia": 6107,
      "Ġstat": 6108,
      "ucing": 6109,
      "Ġkalender": 6110,
      "zabeth": 6111,
      "emas": 6112,
      "Ġrekan": 6113,
      "ĠGold": 6114,
      "Ġprop": 6115,
      "Ġkecelakaan": 6116,
      "Ġkejahatan": 6117,
      "Ġdokumen": 6118,
      "Ġistrinya": 6119,
      "''": 6120,
      "ĠSol": 6121,
      "ĠMeski": 6122,
      "Ġhip": 6123,
      "ĠUskup": 6124,
      "Ġdiduga": 6125,
      "Ġpenyebab": 6126,
      "ĠManch": 6127,
      "Politikus": 6128,
      "gin": 6129,
      "oti": 6130,
      "peng": 6131,
      "unisip": 6132,
      "ĠSolo": 6133,
      "esaan": 6134,
      "ĠTitan": 6135,
      "udakan": 6136,
      "agen": 6137,
      "rof": 6138,
      "Ġnasi": 6139,
      "odo": 6140,
      "Ġdilantik": 6141,
      "Ġizin": 6142,
      "Ġstrategis": 6143,
      "Ġditandai": 6144,
      "akmuran": 6145,
      "ÙĨ": 6146,
      "ahaman": 6147,
      "ĠTun": 6148,
      "Ġmelarikan": 6149,
      ".org": 6150,
      "ĠOp": 6151,
      "ecahan": 6152,
      "ĠPolit": 6153,
      "Ġidentitas": 6154,
      "lihat": 6155,
      "ĠGlobal": 6156,
      "Ġmeluncurkan": 6157,
      "Ġpoin": 6158,
      "ĠTerjun": 6159,
      "emaat": 6160,
      "Ġberas": 6161,
      "idur": 6162,
      "ataan": 6163,
      "ĠHulu": 6164,
      "osok": 6165,
      "ĠOperasi": 6166,
      "ulisan": 6167,
      "ustru": 6168,
      "Ġberpindah": 6169,
      "ĠAngel": 6170,
      "ĠKomando": 6171,
      "ĠKelompok": 6172,
      "ĠBulgaria": 6173,
      "ĠGorbachev": 6174,
      "Ġsembilan": 6175,
      "ĠMicrosoft": 6176,
      "VD": 6177,
      "rama": 6178,
      "Ġbut": 6179,
      "ĠJac": 6180,
      "Ġgangguan": 6181,
      "Ġdiperb": 6182,
      "\"),": 6183,
      "wana": 6184,
      "inang": 6185,
      "Ġburuh": 6186,
      "Ġbalik": 6187,
      "Ġdif": 6188,
      "emuk": 6189,
      "ĠSong": 6190,
      "ĠKy": 6191,
      "ĠDon": 6192,
      "antian": 6193,
      "Ġco": 6194,
      "ĠAmsterdam": 6195,
      "Ġedisi": 6196,
      "isatawan": 6197,
      "Bacaan": 6198,
      "cal": 6199,
      "Ġdires": 6200,
      "ĠAug": 6201,
      "ĠFri": 6202,
      "ance": 6203,
      "ĠMartin": 6204,
      "Pembagian": 6205,
      "EC": 6206,
      "iarkan": 6207,
      "tah": 6208,
      "ambu": 6209,
      "ĠBay": 6210,
      "etis": 6211,
      "Ġperayaan": 6212,
      "ĠHy": 6213,
      "ĠHasan": 6214,
      "ĠGuru": 6215,
      "Ġpendudukan": 6216,
      "Ġsemi": 6217,
      "Ġdisingkat": 6218,
      "Ġdidapat": 6219,
      "Ġtakh": 6220,
      "aska": 6221,
      "ekutif": 6222,
      "-unsur": 6223,
      "itr": 6224,
      "araf": 6225,
      "ĠIP": 6226,
      "Ġkeinginan": 6227,
      "ĠRadio": 6228,
      "ĠKonstitusi": 6229,
      "ĠPetrus": 6230,
      "Ġaman": 6231,
      "ĠBill": 6232,
      "ĠEv": 6233,
      "ĠPolitik": 6234,
      "Ġdikarenakan": 6235,
      "wujud": 6236,
      "Ġsegi": 6237,
      "ĠBad": 6238,
      "ĠCa": 6239,
      "Ġsetahun": 6240,
      "Ġkedudukan": 6241,
      "adapan": 6242,
      "ucu": 6243,
      "Ġkonser": 6244,
      "umbang": 6245,
      "Ġdemokrasi": 6246,
      "ĠJoseph": 6247,
      "Ġsay": 6248,
      "aknya": 6249,
      "Ġbenteng": 6250,
      "Ġmemuat": 6251,
      "umpai": 6252,
      "ĠKerja": 6253,
      "ĠGaruda": 6254,
      ".T": 6255,
      "TS": 6256,
      "by": 6257,
      "ĠBerb": 6258,
      "ingu": 6259,
      "umni": 6260,
      "awali": 6261,
      "Ġfase": 6262,
      "Ġekstr": 6263,
      "ĠSekitar": 6264,
      "ĠElizabeth": 6265,
      "Ġsab": 6266,
      "Ġbiru": 6267,
      "ĠPadang": 6268,
      "ĠBuku": 6269,
      "roit": 6270,
      "osen": 6271,
      "Ġpendirian": 6272,
      "ĠAdam": 6273,
      "ediaan": 6274,
      "Ġeksekutif": 6275,
      "ella": 6276,
      "romosikan": 6277,
      "DA": 6278,
      "Ġmeski": 6279,
      "Ġmengizinkan": 6280,
      "tre": 6281,
      "Ġserangkaian": 6282,
      "Ġmembedakan": 6283,
      "lamasi": 6284,
      "%)": 6285,
      "Ã§": 6286,
      "Ġgaram": 6287,
      "ovasi": 6288,
      "Ġmodal": 6289,
      "-daerah": 6290,
      "Ã¡n": 6291,
      "Ġhistoris": 6292,
      "Ð¸": 6293,
      "Ùİ": 6294,
      "amar": 6295,
      "irman": 6296,
      "Ġrepublik": 6297,
      "Ġgitar": 6298,
      "etapan": 6299,
      "onjol": 6300,
      "Terdapat": 6301,
      "ĠPP": 6302,
      "bagian": 6303,
      "Ġgigi": 6304,
      "ĠKediri": 6305,
      "coba": 6306,
      "ĠGorontalo": 6307,
      "lasi": 6308,
      "lakukan": 6309,
      "ĠAtas": 6310,
      "awak": 6311,
      "egan": 6312,
      "-karya": 6313,
      "Ġkekayaan": 6314,
      "ucapkan": 6315,
      "Ġhalnya": 6316,
      "Ġperdamaian": 6317,
      "Ġditerapkan": 6318,
      "Ġmenganut": 6319,
      "Ġimam": 6320,
      "Pulau": 6321,
      "ius": 6322,
      "Ġpur": 6323,
      "emui": 6324,
      "esor": 6325,
      "Ġmenutup": 6326,
      "Ġlulus": 6327,
      "Ġ(,": 6328,
      "Ġpembel": 6329,
      "ĠSosi": 6330,
      "eknik": 6331,
      "Ġmembayar": 6332,
      "Ġkrisis": 6333,
      "Ġlingkaran": 6334,
      "Ġpenulisan": 6335,
      "ĠNusa": 6336,
      ",\"": 6337,
      "cm": 6338,
      "ois": 6339,
      "inn": 6340,
      "Ġ()Ċ": 6341,
      "ĠTri": 6342,
      "ĠDewi": 6343,
      "Ġjantung": 6344,
      "Ġrangka": 6345,
      "ife": 6346,
      "Ġkebenaran": 6347,
      "Ġkampus": 6348,
      "Ġlemah": 6349,
      "uit": 6350,
      "âŃĲ": 6351,
      "erahan": 6352,
      "Ġmar": 6353,
      "Ġmamalia": 6354,
      "Ġtol": 6355,
      "ĠSut": 6356,
      "Ġmelintasi": 6357,
      "lahirkan": 6358,
      "Ġsejenis": 6359,
      "antau": 6360,
      "ĠSurya": 6361,
      "oid": 6362,
      "ange": 6363,
      "Ġtempur": 6364,
      "Ġbaku": 6365,
      "ĠMend": 6366,
      "Ġberganti": 6367,
      "ĠBulan": 6368,
      "ĠAnton": 6369,
      "ĠMusic": 6370,
      "Ġtelur": 6371,
      "Ġjabatannya": 6372,
      "ĠKolonel": 6373,
      "Ap": 6374,
      "Hari": 6375,
      "Kal": 6376,
      "inis": 6377,
      "Ġkumpulan": 6378,
      "ĠJambi": 6379,
      "Ġditempatkan": 6380,
      "Ġkebangsaan": 6381,
      "baiki": 6382,
      "Ġefisi": 6383,
      "Ġmakam": 6384,
      "Orang": 6385,
      "Ġgugur": 6386,
      "ĠRoh": 6387,
      "Ġdinamai": 6388,
      "ĠCompany": 6389,
      "Ġinternal": 6390,
      "out": 6391,
      "Ġpal": 6392,
      "arai": 6393,
      "ova": 6394,
      "ĠServ": 6395,
      "aksana": 6396,
      "ĠAbad": 6397,
      "ĠMoskwa": 6398,
      "Ġent": 6399,
      "Ġseiring": 6400,
      "Ġlambang": 6401,
      "angkitan": 6402,
      "Ġmenderita": 6403,
      "ĠStadion": 6404,
      "Ġdasarnya": 6405,
      "egiatan": 6406,
      "cs": 6407,
      "Ġnya": 6408,
      "esti": 6409,
      "uduhan": 6410,
      "buatan": 6411,
      "Ġmelaporkan": 6412,
      "caman": 6413,
      "kamah": 6414,
      "sinya": 6415,
      "Ġá": 6416,
      "Ġuap": 6417,
      "Ġdolar": 6418,
      "aring": 6419,
      "ĠIsma": 6420,
      "obi": 6421,
      "Ġdipercaya": 6422,
      "Ġtertulis": 6423,
      "Ġmenerapkan": 6424,
      "-hal": 6425,
      "ĠRasul": 6426,
      "Ġtakhta": 6427,
      "à¸": 6428,
      "ĠPac": 6429,
      "Ġjustru": 6430,
      "ĠCip": 6431,
      "ĠIsland": 6432,
      "Ġgelap": 6433,
      "Ġpenyelenggara": 6434,
      "Ch": 6435,
      "pro": 6436,
      "yono": 6437,
      "Ġsuka": 6438,
      "Ġtangk": 6439,
      "Ġmemakan": 6440,
      "Ġmengoperasikan": 6441,
      "orial": 6442,
      "Ġajang": 6443,
      "Ġperilaku": 6444,
      "iano": 6445,
      "Ġref": 6446,
      "olehkan": 6447,
      "Ġcinta": 6448,
      "ahana": 6449,
      "onstr": 6450,
      "sesan": 6451,
      "atikan": 6452,
      "ĠKid": 6453,
      "Ġdikuasai": 6454,
      "Ġbersejarah": 6455,
      "Ġsepeda": 6456,
      "Ġpasir": 6457,
      "ĠMelbourne": 6458,
      "ĠUmar": 6459,
      "abiskan": 6460,
      "Ġmendekati": 6461,
      "Ġhiburan": 6462,
      "68": 6463,
      "ikasikan": 6464,
      "ĠMuda": 6465,
      "Ġlemp": 6466,
      "anggar": 6467,
      "stein": 6468,
      "ĠMusik": 6469,
      "Ġpatung": 6470,
      "/P": 6471,
      "saan": 6472,
      "til": 6473,
      "Ġpsik": 6474,
      "aklukan": 6475,
      "Ġdieks": 6476,
      "Ġdilahirkan": 6477,
      "isual": 6478,
      "ĠDhar": 6479,
      "omen": 6480,
      "Ġalk": 6481,
      "ĠLee": 6482,
      "ouse": 6483,
      "51": 6484,
      "BA": 6485,
      "Jenis": 6486,
      "ĠSind": 6487,
      "ĠBola": 6488,
      "ulitan": 6489,
      "Ġpengalaman": 6490,
      "Ġfederal": 6491,
      "Bandar": 6492,
      "Ġil": 6493,
      "Ġdivisi": 6494,
      "adiran": 6495,
      "ĠAF": 6496,
      "ĠMasa": 6497,
      "ĠBoy": 6498,
      "idik": 6499,
      "Ġmendarat": 6500,
      "Ġterbit": 6501,
      "etakkan": 6502,
      "aza": 6503,
      "Ġdinasti": 6504,
      "tivis": 6505,
      "urunkan": 6506,
      "Ġsahabat": 6507,
      "Ġpribumi": 6508,
      "kup": 6509,
      "onan": 6510,
      "Ġmenangani": 6511,
      "ĠInv": 6512,
      "Ġwisatawan": 6513,
      "harata": 6514,
      "Ġpemerintahannya": 6515,
      "asket": 6516,
      "Ã¼r": 6517,
      "Ġderajat": 6518,
      "-si": 6519,
      "Komp": 6520,
      "Menteri": 6521,
      "ĠSunan": 6522,
      "Ġmengungkapkan": 6523,
      "uban": 6524,
      "icial": 6525,
      "Ġdihuni": 6526,
      "Ġminuman": 6527,
      "ĠSuriah": 6528,
      "Ġkomunis": 6529,
      "Ġmengirimkan": 6530,
      "eet": 6531,
      "ies": 6532,
      "juk": 6533,
      "itt": 6534,
      "uduh": 6535,
      "ĠCik": 6536,
      "ĠNag": 6537,
      "osit": 6538,
      "Ġpengakuan": 6539,
      "Ġdituturkan": 6540,
      "Sebuah": 6541,
      "ontrol": 6542,
      "pu": 6543,
      "Ðµ": 6544,
      "inea": 6545,
      "Ġsambil": 6546,
      "emia": 6547,
      "ĠWali": 6548,
      "enazah": 6549,
      "ĠVOC": 6550,
      "Ġpersetujuan": 6551,
      "ombia": 6552,
      "uskupan": 6553,
      "Ġmenekankan": 6554,
      "ĠNgawi": 6555,
      "Kata": 6556,
      "esp": 6557,
      "ido": 6558,
      "ĠJadi": 6559,
      "Ġdisk": 6560,
      "graman": 6561,
      "Ġberkurang": 6562,
      "Ġkesepakatan": 6563,
      "Ġtersendiri": 6564,
      "ĠKejuaraan": 6565,
      "Ġbayi": 6566,
      "EB": 6567,
      "Karier": 6568,
      "Ġbendera": 6569,
      "Ġmenemb": 6570,
      "ĠCek": 6571,
      "termasuk": 6572,
      "ĠBrun": 6573,
      "Ġkuant": 6574,
      "69": 6575,
      "mur": 6576,
      "ĠSec": 6577,
      "Ġmenambah": 6578,
      "Ġle": 6579,
      "ĠTerb": 6580,
      "entar": 6581,
      "odin": 6582,
      "Ġkesalahan": 6583,
      "Ġumur": 6584,
      "Ġterjemahan": 6585,
      "Ġpersamaan": 6586,
      "Anggota": 6587,
      ".P": 6588,
      "lek": 6589,
      "Ġdiyakini": 6590,
      "Ġdilarang": 6591,
      "estor": 6592,
      "-batas": 6593,
      "encanaan": 6594,
      "IP": 6595,
      "mon": 6596,
      "rak": 6597,
      "Ġbulu": 6598,
      "Ġdioperasikan": 6599,
      "ading": 6600,
      "ukas": 6601,
      "sih": 6602,
      "antren": 6603,
      "ote": 6604,
      "Ġsetara": 6605,
      "akses": 6606,
      "-W": 6607,
      "jak": 6608,
      "atukan": 6609,
      "ategi": 6610,
      "ĠST": 6611,
      "Ġkeyakinan": 6612,
      "Ġmemisahkan": 6613,
      "omos": 6614,
      "Ġmengumpulkan": 6615,
      "ĠRel": 6616,
      "ĠHutan": 6617,
      "ĠHotel": 6618,
      "ĠHIV": 6619,
      "ĠYou": 6620,
      "Ġkerj": 6621,
      "Ġuskup": 6622,
      "Ġsarjana": 6623,
      "Ġsusu": 6624,
      "cus": 6625,
      "apus": 6626,
      "anyaan": 6627,
      "ĠPerh": 6628,
      "ambatan": 6629,
      "Ġberpusat": 6630,
      "ĠResmi": 6631,
      "Ġdiharapkan": 6632,
      "/d": 6633,
      "58": 6634,
      "ru": 6635,
      "inop": 6636,
      "ĠLalu": 6637,
      "Ġselamat": 6638,
      "Ġorganik": 6639,
      "ĠTVRI": 6640,
      "ĠAssoci": 6641,
      "Ġdiplomat": 6642,
      "mel": 6643,
      "Ġdamai": 6644,
      "Ġpra": 6645,
      "Ġtoko": 6646,
      "amika": 6647,
      "ĠSr": 6648,
      "Ġmemaksa": 6649,
      "ĠReformasi": 6650,
      "ĠJul": 6651,
      "ancar": 6652,
      "Ġsensus": 6653,
      "ĠTerl": 6654,
      "skerta": 6655,
      "Ġbersih": 6656,
      "ĠRoyal": 6657,
      "54": 6658,
      "Ãº": 6659,
      "Ġayam": 6660,
      "aham": 6661,
      "ĠPaskah": 6662,
      "esel": 6663,
      "Ġlet": 6664,
      "Ġcairan": 6665,
      "ĠArist": 6666,
      "Ġdibutuhkan": 6667,
      "ungguhnya": 6668,
      "atalkan": 6669,
      "Ġbupati": 6670,
      "ĠSip": 6671,
      "orer": 6672,
      "ĠDaya": 6673,
      "rod": 6674,
      "oki": 6675,
      "endek": 6676,
      "ĠEst": 6677,
      "Ġterkadang": 6678,
      "ĠPemilihan": 6679,
      "goritme": 6680,
      "Gr": 6681,
      "ermin": 6682,
      "ĠIns": 6683,
      "Perang": 6684,
      "ĠManajemen": 6685,
      "Ġapapun": 6686,
      "spirasi": 6687,
      "Ġmembahas": 6688,
      "ats": 6689,
      "Ġpeta": 6690,
      "Ġpikiran": 6691,
      "elaskan": 6692,
      "Ġmenara": 6693,
      "Ġcocok": 6694,
      "Ġcuaca": 6695,
      "Ġmelepaskan": 6696,
      "Ġasasi": 6697,
      "haz": 6698,
      "Ġkred": 6699,
      "Ġmenjadikannya": 6700,
      "Ġratusan": 6701,
      "Ġdiresmikan": 6702,
      "cc": 6703,
      "Ø±": 6704,
      "Ġmiskin": 6705,
      "akaman": 6706,
      "ĠRud": 6707,
      "Ġfitur": 6708,
      "ancang": 6709,
      "Ġprakt": 6710,
      "-bahasa": 6711,
      "Ġpenghasil": 6712,
      "Ġsiapa": 6713,
      "Ġperlawanan": 6714,
      "Ġpinggiran": 6715,
      "',": 6716,
      "linya": 6717,
      "Ġiman": 6718,
      "Ġpahlawan": 6719,
      "Ġlip": 6720,
      "ĠTro": 6721,
      "ĠHaw": 6722,
      "ĠHatta": 6723,
      "Ġnyata": 6724,
      "trans": 6725,
      "osh": 6726,
      "isiologi": 6727,
      "Ġmenyampaikan": 6728,
      "onald": 6729,
      "ujur": 6730,
      "Ġberdirinya": 6731,
      "Ġseniman": 6732,
      "Ġkomposisi": 6733,
      "ĠDetroit": 6734,
      "Banyak": 6735,
      "rab": 6736,
      "iku": 6737,
      "ĠKara": 6738,
      "Ġmenambahkan": 6739,
      "iringan": 6740,
      "ĠJl": 6741,
      "ĠYear": 6742,
      "Ġpendeta": 6743,
      "ajiban": 6744,
      "Ġpegawai": 6745,
      "EN": 6746,
      "KM": 6747,
      "Å«": 6748,
      "Ġkudeta": 6749,
      "Ġdiman": 6750,
      "iksa": 6751,
      "aparan": 6752,
      "ĠMek": 6753,
      "siapkan": 6754,
      "ĠCur": 6755,
      "Ġpeninggalan": 6756,
      "ĠHad": 6757,
      "Ġditurunkan": 6758,
      "Ġmendengar": 6759,
      "Ġsiap": 6760,
      "Ã³n": 6761,
      "CTV": 6762,
      "dy": 6763,
      "pr": 6764,
      "Ġkunci": 6765,
      "itamin": 6766,
      "ĠPot": 6767,
      "ĠFat": 6768,
      "ĠSelanjutnya": 6769,
      "arakter": 6770,
      "Ġharian": 6771,
      "ĠPlay": 6772,
      "ĠClub": 6773,
      "ĠSmith": 6774,
      "Ġmagnet": 6775,
      "erjakan": 6776,
      "Ġprodusen": 6777,
      "Ġtimbul": 6778,
      "misalnya": 6779,
      "ĠAyah": 6780,
      "Ġperawatan": 6781,
      "ĠRena": 6782,
      "Ġred": 6783,
      "ubarkan": 6784,
      "Ġterbaru": 6785,
      "Ġbinatang": 6786,
      "Ġkandungan": 6787,
      "-tur": 6788,
      "747": 6789,
      "Ġisi": 6790,
      "Ġdinding": 6791,
      "Ġtidur": 6792,
      "Ġbasis": 6793,
      "Ġagak": 6794,
      "Ġterjun": 6795,
      "ĠDemak": 6796,
      "ĠBritish": 6797,
      "ĠVictor": 6798,
      "be": 6799,
      "meng": 6800,
      "isisi": 6801,
      "ape": 6802,
      "ĠMada": 6803,
      "umahan": 6804,
      "ĠGun": 6805,
      "ampur": 6806,
      "Ġmelarang": 6807,
      "Ġdiser": 6808,
      "-sek": 6809,
      "Ġkepemilikan": 6810,
      "Ġrasio": 6811,
      "Salah": 6812,
      "for": 6813,
      "sor": 6814,
      "tal": 6815,
      "aro": 6816,
      "Ġmula": 6817,
      "ĠTir": 6818,
      "Ġmengganti": 6819,
      "otanya": 6820,
      "Ġvariasi": 6821,
      "130": 6822,
      "ĠGreen": 6823,
      "unisipalitas": 6824,
      "aq": 6825,
      "hai": 6826,
      "Ġdetik": 6827,
      "ĠSent": 6828,
      "ĠKaz": 6829,
      "omer": 6830,
      "Ġmengenal": 6831,
      "entus": 6832,
      "enaikan": 6833,
      "Ġminoritas": 6834,
      "ĠMahkamah": 6835,
      "Ġteknis": 6836,
      "Ġsupaya": 6837,
      "ĠMayor": 6838,
      "nas": 6839,
      "Ġteh": 6840,
      "ĠReg": 6841,
      "Ġguna": 6842,
      "Ġbanyaknya": 6843,
      "oyo": 6844,
      "ĠSystem": 6845,
      "Ġrezim": 6846,
      "ĠKongo": 6847,
      "ĠAlexander": 6848,
      "53": 6849,
      "oe": 6850,
      "ĠPasal": 6851,
      "ĠBengk": 6852,
      "Ġfl": 6853,
      "Ġkemajuan": 6854,
      "ujian": 6855,
      "Ġsemangat": 6856,
      "Ġterbukti": 6857,
      "Ġmempengaruhi": 6858,
      "ĠOrde": 6859,
      "Ġlandasan": 6860,
      "Kehidupan": 6861,
      "-nama": 6862,
      "BM": 6863,
      "Dewan": 6864,
      "Ġamat": 6865,
      "Ġroket": 6866,
      "Ġpenutur": 6867,
      "Ġmenyimpan": 6868,
      "Ġakar": 6869,
      "ĠAnda": 6870,
      "ĠBerlin": 6871,
      "ĠKeluar": 6872,
      "Ġinteg": 6873,
      "Ġnitrogen": 6874,
      "ĠHenry": 6875,
      "Universitas": 6876,
      ".D": 6877,
      "my": 6878,
      "ãĤ": 6879,
      "Ġmazhab": 6880,
      "atnya": 6881,
      "awin": 6882,
      "ips": 6883,
      "Ġmenghar": 6884,
      "ĠPalembang": 6885,
      "Ġangkutan": 6886,
      "Ġmemasukkan": 6887,
      "Ġpendekatan": 6888,
      "uventus": 6889,
      "hasilan": 6890,
      "Namun": 6891,
      "Para": 6892,
      "Ġaf": 6893,
      "utr": 6894,
      "Ġmenuntut": 6895,
      "ĠNy": 6896,
      "ĠGand": 6897,
      "Ġgerbang": 6898,
      "Ġdikaitkan": 6899,
      "Ġditujukan": 6900,
      "Ġkedatangan": 6901,
      "ĠKeamanan": 6902,
      "Ġmedis": 6903,
      "ĠAkhirnya": 6904,
      "UN": 6905,
      "ks": 6906,
      "ĠJen": 6907,
      "edak": 6908,
      "Ġpemekaran": 6909,
      "Ġmuseum": 6910,
      "Ġmunculnya": 6911,
      "ĠChristian": 6912,
      "Ġribuan": 6913,
      "Sumber": 6914,
      "lak": 6915,
      "Ġparah": 6916,
      "ĠPKI": 6917,
      "Ġmemandang": 6918,
      "oso": 6919,
      "Ġcadangan": 6920,
      "atius": 6921,
      "Ġkartu": 6922,
      "ectr": 6923,
      "ĠKuba": 6924,
      "Ket": 6925,
      "rut": 6926,
      "ĠMiss": 6927,
      "ĠLor": 6928,
      "oden": 6929,
      "ugos": 6930,
      "obot": 6931,
      "cobaan": 6932,
      "ĠBir": 6933,
      "Ġ(),": 6934,
      "ĠLebih": 6935,
      "ĠLaks": 6936,
      "Ġaslinya": 6937,
      "Ġberkeb": 6938,
      "ifik": 6939,
      "Âłk": 6940,
      "Ġpesepak": 6941,
      "Ġteor": 6942,
      "ĠMoz": 6943,
      "alifikasi": 6944,
      "Ġrekor": 6945,
      "Ġsinyal": 6946,
      "hatikan": 6947,
      "Te": 6948,
      "net": 6949,
      "Ãł": 6950,
      "Ġtari": 6951,
      "ĠBug": 6952,
      "ogh": 6953,
      "opter": 6954,
      "ibur": 6955,
      "resif": 6956,
      "ĠPrinc": 6957,
      "Ġpembagian": 6958,
      "ĠPDB": 6959,
      "Istilah": 6960,
      "Ġdagang": 6961,
      "imasi": 6962,
      "Ġjagung": 6963,
      "atanya": 6964,
      "ĠGl": 6965,
      "beria": 6966,
      "Âłcm": 6967,
      "170": 6968,
      "Ġpenerima": 6969,
      "kuit": 6970,
      "Ġtembok": 6971,
      "ekutuan": 6972,
      "background": 6973,
      "ON": 6974,
      "ĠBangka": 6975,
      "Ġrangkaian": 6976,
      "Ġpemukiman": 6977,
      "Ġpengertian": 6978,
      "ipe": 6979,
      "Ġdisusun": 6980,
      "masin": 6981,
      "Ġdimak": 6982,
      "Ġmenyelenggarakan": 6983,
      "Ġkontrol": 6984,
      "Ġkotanya": 6985,
      "Ġnormal": 6986,
      "akat": 6987,
      "ativ": 6988,
      "egaraan": 6989,
      "Ġbertindak": 6990,
      "ĠPengembangan": 6991,
      "ĠSeorang": 6992,
      "ĠKutai": 6993,
      "US": 6994,
      "yangkan": 6995,
      "akanan": 6996,
      "Ġpengusaha": 6997,
      "ambung": 6998,
      "Ġkelapa": 6999,
      "-beda": 7000,
      "Ġindah": 7001,
      "Ġgenetik": 7002,
      "Ġmemperkuat": 7003,
      "Ġkepadanya": 7004,
      "ĠKonferensi": 7005,
      "Galeri": 7006,
      "yd": 7007,
      "Ġungg": 7008,
      "Ġduduk": 7009,
      "ĠKul": 7010,
      "ĠBut": 7011,
      "ebu": 7012,
      "Ġmemindahkan": 7013,
      "ĠLat": 7014,
      "Ġwali": 7015,
      "Ġpeman": 7016,
      "opia": 7017,
      "Ġancaman": 7018,
      "Ġpasca": 7019,
      "ĠAbb": 7020,
      "ythag": 7021,
      "Mask": 7022,
      "ject": 7023,
      "ashi": 7024,
      "Ġrantai": 7025,
      "arth": 7026,
      "ĠBatal": 7027,
      "ĠFormula": 7028,
      "Ġpeperangan": 7029,
      "amboja": 7030,
      "ahi": 7031,
      "ĠSit": 7032,
      "ilo": 7033,
      "ĠBambang": 7034,
      "Ġlubang": 7035,
      "Ġjenderal": 7036,
      "osaan": 7037,
      "ebutan": 7038,
      "Ġpengganti": 7039,
      "Ġkesulitan": 7040,
      "-v": 7041,
      "Ġlayak": 7042,
      "irat": 7043,
      "ĠTari": 7044,
      "ayo": 7045,
      "Ġbiji": 7046,
      "Ġinteraksi": 7047,
      "ĠMohammad": 7048,
      "wegia": 7049,
      "hu": 7050,
      "Ġpaus": 7051,
      "Ġbulat": 7052,
      "ĠMr": 7053,
      "Ġliga": 7054,
      "Ġhany": 7055,
      "upiter": 7056,
      "ĠIndo": 7057,
      "Ġkesenian": 7058,
      "Ġarg": 7059,
      "ridge": 7060,
      "ĠFrance": 7061,
      "Ġpemrograman": 7062,
      "mp": 7063,
      "alisi": 7064,
      "asemen": 7065,
      "akram": 7066,
      "Ġbo": 7067,
      "ilir": 7068,
      "ĠBBC": 7069,
      "ĠGajah": 7070,
      "ept": 7071,
      "ĠAlaska": 7072,
      "Ġpeserta": 7073,
      "ĠSekutu": 7074,
      "Ġdominan": 7075,
      "Ġkamar": 7076,
      "ĠBersama": 7077,
      "ĠKroasia": 7078,
      "ĠBrunei": 7079,
      "inir": 7080,
      "asakan": 7081,
      "ĠDok": 7082,
      "Ġmenghabiskan": 7083,
      "Ġkedaul": 7084,
      "Ġberturut": 7085,
      "Ġkembar": 7086,
      "ĠBatalyon": 7087,
      "Ġkedaulatan": 7088,
      "AD": 7089,
      "ligasi": 7090,
      "po": 7091,
      "esain": 7092,
      "Ġberangkat": 7093,
      "ĠTen": 7094,
      "Ġgejala": 7095,
      "anggilan": 7096,
      "ĠPolri": 7097,
      "Ġdijelaskan": 7098,
      "ĠNews": 7099,
      "ertai": 7100,
      "Ġmenurunkan": 7101,
      "oleon": 7102,
      "ometri": 7103,
      "07": 7104,
      "pan": 7105,
      "Ġpam": 7106,
      "ĠPont": 7107,
      "ĠBin": 7108,
      "ulukan": 7109,
      "ajikan": 7110,
      "Ġgempa": 7111,
      "ĠOlahraga": 7112,
      "Ġkelak": 7113,
      "artawan": 7114,
      "ensif": 7115,
      "Ġmineral": 7116,
      "Karya": 7117,
      "Ġradiasi": 7118,
      "Kom": 7119,
      "Mer": 7120,
      "Ġtapi": 7121,
      "Ġbukit": 7122,
      "Ġliter": 7123,
      "Ġperadaban": 7124,
      "ĠRh": 7125,
      "ĠLeg": 7126,
      "ĠEc": 7127,
      "tanbul": 7128,
      "ucapan": 7129,
      "ĠAirbus": 7130,
      "Ġsesudah": 7131,
      "Ġditerjemahkan": 7132,
      "Ġkarakteristik": 7133,
      "ĠGat": 7134,
      "Ġmeluas": 7135,
      "Ġmenyimp": 7136,
      "ection": 7137,
      "Ġpenyimp": 7138,
      "Ġtersisa": 7139,
      "ĠMoj": 7140,
      "Ġusul": 7141,
      "van": 7142,
      "onik": 7143,
      "ĠMÄģ": 7144,
      "ĠJack": 7145,
      "ĠHadiah": 7146,
      "ĠLos": 7147,
      "uaya": 7148,
      "ewaskan": 7149,
      "Ġvon": 7150,
      "iji": 7151,
      "imbangkan": 7152,
      "Ġdijalan": 7153,
      "Ġperbudakan": 7154,
      "ĠMakam": 7155,
      "omotif": 7156,
      "serv": 7157,
      "elihara": 7158,
      "ĠAtlantik": 7159,
      ".J": 7160,
      ";\"|": 7161,
      "xford": 7162,
      "eteksi": 7163,
      "arag": 7164,
      "Ġmengajar": 7165,
      "ĠIndah": 7166,
      "Ġsejauh": 7167,
      "Ġberkel": 7168,
      "ĠProses": 7169,
      "Ġkekalahan": 7170,
      "-lagu": 7171,
      "ĠKhalid": 7172,
      "Iklim": 7173,
      "-turut": 7174,
      "52": 7175,
      "Ġdu": 7176,
      "atria": 7177,
      "ĠBima": 7178,
      "ĠDVD": 7179,
      "Ġmengej": 7180,
      "ĠHanya": 7181,
      "epal": 7182,
      "oku": 7183,
      "otop": 7184,
      "ĠMary": 7185,
      "ondisi": 7186,
      "Ġkonstruksi": 7187,
      "-hak": 7188,
      "rahman": 7189,
      "ĠAhli": 7190,
      "ĠIstimewa": 7191,
      "ĠFederal": 7192,
      "62": 7193,
      "ys": 7194,
      "Ä±": 7195,
      "Ġpustaka": 7196,
      "Ġbatuan": 7197,
      "aduk": 7198,
      "usa": 7199,
      "organisasi": 7200,
      "ĠKup": 7201,
      "ĠMir": 7202,
      "ĠMotor": 7203,
      "Ġperbuatan": 7204,
      "Ġmemastikan": 7205,
      "ĠRow": 7206,
      "ĠHingga": 7207,
      "Ġkaryanya": 7208,
      "Ġdisimpan": 7209,
      "ĠKomandan": 7210,
      "Ġpencipta": 7211,
      "ĠBlack": 7212,
      "Ġcontohnya": 7213,
      "Ġformat": 7214,
      "wara": 7215,
      "ãģ": 7216,
      "Ġkacang": 7217,
      "ĠTop": 7218,
      "Ġinstitusi": 7219,
      "Ġberlokasi": 7220,
      "ordinasi": 7221,
      "ĠKarl": 7222,
      "737": 7223,
      "Ġbencana": 7224,
      "ĠCer": 7225,
      "ĠNam": 7226,
      "Ġfenomena": 7227,
      "masalahan": 7228,
      "-besaran": 7229,
      "ĠPrabu": 7230,
      "incin": 7231,
      "Ġvolume": 7232,
      "ĠSociety": 7233,
      "ugoslavia": 7234,
      "02": 7235,
      "KK": 7236,
      "TT": 7237,
      "oo": 7238,
      "Ġkunjungan": 7239,
      "ĠSay": 7240,
      "ĠBung": 7241,
      "ĠNar": 7242,
      "ĠGener": 7243,
      "ĠInform": 7244,
      "ajer": 7245,
      "Ġterkena": 7246,
      "ĠEner": 7247,
      "ĠXV": 7248,
      "ĠTechn": 7249,
      "GP": 7250,
      "oul": 7251,
      "uba": 7252,
      "Ġex": 7253,
      "Ġtarget": 7254,
      "Ġbir": 7255,
      "ader": 7256,
      "ĠDay": 7257,
      "ĠHi": 7258,
      "epung": 7259,
      "Ġtahunnya": 7260,
      "Ġkarb": 7261,
      "Ġsekelompok": 7262,
      "ĠArch": 7263,
      "Ġkedokteran": 7264,
      "Ġpenyebaran": 7265,
      "ancur": 7266,
      "Ġartis": 7267,
      "Ġkonteks": 7268,
      "Ġpemberian": 7269,
      "timologi": 7270,
      "Ġinfrastruktur": 7271,
      "aim": 7272,
      "wangi": 7273,
      "Ġpecah": 7274,
      "Ġkalau": 7275,
      "Ġdiw": 7276,
      "Ġmenewaskan": 7277,
      "irik": 7278,
      "Ġhendak": 7279,
      "edar": 7280,
      "ĠYusuf": 7281,
      "Perk": 7282,
      "Ġputaran": 7283,
      "Ġdijumpai": 7284,
      "ĠGuinea": 7285,
      "Ġmemperluas": 7286,
      ":#": 7287,
      "Budaya": 7288,
      "yp": 7289,
      "Ġ×": 7290,
      "Ġparu": 7291,
      "Ġtahanan": 7292,
      "kantor": 7293,
      "ekh": 7294,
      "ĠLove": 7295,
      "buang": 7296,
      "beral": 7297,
      "Ġmenyusun": 7298,
      "Ġmenghentikan": 7299,
      "Ġdidefinisikan": 7300,
      "ondo": 7301,
      "ĠSanskerta": 7302,
      "Ġ<": 7303,
      "enek": 7304,
      "ĠKamboja": 7305,
      "ĠCons": 7306,
      "ĠFinal": 7307,
      "umpah": 7308,
      "ĠApi": 7309,
      "Ġpedesaan": 7310,
      "Bi": 7311,
      "ated": 7312,
      "Ġpagi": 7313,
      "Ġkrist": 7314,
      "ĠSis": 7315,
      "ĠBentuk": 7316,
      "ĠEf": 7317,
      "ujung": 7318,
      "tarik": 7319,
      "Ġarke": 7320,
      "ĠMaur": 7321,
      "ĠJohann": 7322,
      "empurna": 7323,
      "ĠCalvin": 7324,
      "Ġdimanfaatkan": 7325,
      "Ġpangan": 7326,
      "uksi": 7327,
      "ĠMesin": 7328,
      "ĠJuventus": 7329,
      "ĠCib": 7330,
      "ihkan": 7331,
      "otan": 7332,
      "Ġpengamatan": 7333,
      "Ġterpaksa": 7334,
      "ĠPerdamaian": 7335,
      "car": 7336,
      "dik": 7337,
      "ras": 7338,
      "work": 7339,
      "Ġpand": 7340,
      "Ġpangkalan": 7341,
      "ĠKey": 7342,
      "Ġmenggabungkan": 7343,
      "ĠGib": 7344,
      "ĠAleks": 7345,
      "saat": 7346,
      "Ġdilaporkan": 7347,
      "uliah": 7348,
      "Ġekspl": 7349,
      "Ġekspor": 7350,
      "Ġklor": 7351,
      "ĠDrs": 7352,
      "raham": 7353,
      "Ġpenganut": 7354,
      "Maskapai": 7355,
      "/M": 7356,
      "iew": 7357,
      "Ã«": 7358,
      "arm": 7359,
      "Ġpunya": 7360,
      "Ġsains": 7361,
      "ĠLumpur": 7362,
      "Ġmelebih": 7363,
      "Ġdipegang": 7364,
      "Ġdiserahkan": 7365,
      "manen": 7366,
      "Ġtertutup": 7367,
      "-tokoh": 7368,
      "Ġkaryawan": 7369,
      "Ġotak": 7370,
      "Ġitulah": 7371,
      "ĠNapoleon": 7372,
      "ĠPerpustakaan": 7373,
      "Ġpor": 7374,
      "inv": 7375,
      "Ġtabel": 7376,
      "ajam": 7377,
      "ilikon": 7378,
      "Ġagen": 7379,
      "175": 7380,
      "ĠNewton": 7381,
      "ĠBoj": 7382,
      "ĠDinas": 7383,
      "gagalan": 7384,
      "nus": 7385,
      "enangkan": 7386,
      "arap": 7387,
      "Ġsc": 7388,
      "ĠMinggu": 7389,
      "Ġberumur": 7390,
      "Ġmemahami": 7391,
      "Ġmemicu": 7392,
      "ĠJean": 7393,
      "Ġnet": 7394,
      "ayaran": 7395,
      "ĠEp": 7396,
      "Ġfoto": 7397,
      "onso": 7398,
      "Ġharapan": 7399,
      "Ġdicapai": 7400,
      "ASA": 7401,
      "ĠKolombia": 7402,
      "ography": 7403,
      "78": 7404,
      "tin": 7405,
      "yarat": 7406,
      "Ġmis": 7407,
      "Ġmenya": 7408,
      "abar": 7409,
      "ĠJupiter": 7410,
      "awas": 7411,
      "ĠHaji": 7412,
      "osp": 7413,
      "Ġcair": 7414,
      "ĠWis": 7415,
      "ĠYord": 7416,
      "ĠOman": 7417,
      "untutan": 7418,
      "Ġperkiraan": 7419,
      "cks": 7420,
      "Ġsurya": 7421,
      "ĠNorwegia": 7422,
      "AP": 7423,
      "Ġtuduhan": 7424,
      "ĠSatur": 7425,
      "bab": 7426,
      "board": 7427,
      "ĠBiasanya": 7428,
      "Ġnukle": 7429,
      "ĠIntel": 7430,
      "sed": 7431,
      "Ġsimp": 7432,
      "akna": 7433,
      "ĠBon": 7434,
      "ekomunikasi": 7435,
      "ebarkan": 7436,
      "ĠTanggal": 7437,
      "ĠJenis": 7438,
      "okol": 7439,
      "angkal": 7440,
      "ejahter": 7441,
      "ernakan": 7442,
      "ĠManado": 7443,
      "ques": 7444,
      "ĠPanas": 7445,
      "ĠPurworejo": 7446,
      "Ġmenegaskan": 7447,
      "ĠSosialis": 7448,
      "Etimologi": 7449,
      "UM": 7450,
      "kes": 7451,
      "zeg": 7452,
      "isahan": 7453,
      "ĠKm": 7454,
      "olasi": 7455,
      "ĠBib": 7456,
      "ĠBakar": 7457,
      "ario": 7458,
      "ĠTon": 7459,
      "ĠTegal": 7460,
      "ude": 7461,
      "ĠGam": 7462,
      "Ġpemegang": 7463,
      "ĠYon": 7464,
      "ĠIstanbul": 7465,
      "erdeka": 7466,
      "162": 7467,
      "-pr": 7468,
      "Ġkonserv": 7469,
      "ĠPenggunaan": 7470,
      "umania": 7471,
      "Ġserial": 7472,
      "Ġkematiannya": 7473,
      "Ġdistribusi": 7474,
      "ĠĊĠĊĠĊĠĊĠĊĠĊĠĊĠĊ": 7475,
      "ĠSebelumnya": 7476,
      "%.ĊĊ": 7477,
      "yid": 7478,
      "Ġpangkat": 7479,
      "Ġterendah": 7480,
      "Ġprot": 7481,
      "ĠAmbon": 7482,
      "under": 7483,
      "etail": 7484,
      "ĠSaid": 7485,
      "Ġmahal": 7486,
      "Ġstudio": 7487,
      "Air": 7488,
      "Rujukan": 7489,
      "anam": 7490,
      "Ġmut": 7491,
      "Ġpandang": 7492,
      "Ġdius": 7493,
      "iram": 7494,
      "ĠTempat": 7495,
      "ĠRock": 7496,
      "ĠLuc": 7497,
      "ĠMarg": 7498,
      "Ġpelatihan": 7499,
      "Ġterhubung": 7500,
      "ross": 7501,
      "injaman": 7502,
      "Ġwayang": 7503,
      "ĠAdministrasi": 7504,
      "lish": 7505,
      "oris": 7506,
      "Ġlen": 7507,
      "Ġjari": 7508,
      "iansi": 7509,
      "ĠRat": 7510,
      "otongan": 7511,
      "oditas": 7512,
      "ĠAlban": 7513,
      "Penghargaan": 7514,
      "ĠBanjarmasin": 7515,
      "arut": 7516,
      "ĠAj": 7517,
      "ĠAth": 7518,
      "iag": 7519,
      "ull": 7520,
      "Ġrapat": 7521,
      "siapan": 7522,
      "Ġsebaliknya": 7523,
      "ĠVo": 7524,
      "ĠAdv": 7525,
      "Ġperhitungan": 7526,
      "Ġliar": 7527,
      "Ġsingle": 7528,
      "ĠToyota": 7529,
      "ĠManchester": 7530,
      "-up": 7531,
      "iasaan": 7532,
      "arangan": 7533,
      "utaan": 7534,
      "Ġrest": 7535,
      "ĠCD": 7536,
      "Ġberjarak": 7537,
      "Ġimun": 7538,
      "ĠContohnya": 7539,
      "Ġmaksimum": 7540,
      "ĠMÄģori": 7541,
      "59": 7542,
      "kom": 7543,
      "nik": 7544,
      "Ġkasih": 7545,
      "etus": 7546,
      "ingrat": 7547,
      "udang": 7548,
      "edo": 7549,
      "otesis": 7550,
      "Ġmenyetujui": 7551,
      "ugi": 7552,
      "Ġanggaran": 7553,
      "ĠGrup": 7554,
      "urnamen": 7555,
      "ĠAssociation": 7556,
      "pem": 7557,
      "arahan": 7558,
      "Ġseber": 7559,
      "ĠKus": 7560,
      "omagn": 7561,
      "ĠCO": 7562,
      "ipan": 7563,
      "ĠOxford": 7564,
      "oca": 7565,
      "Ġmenjelang": 7566,
      "ĠBanyum": 7567,
      "Ġerat": 7568,
      "inguistik": 7569,
      "jad": 7570,
      "elapan": 7571,
      "Ġlanjutan": 7572,
      "Ġpenonton": 7573,
      "ĠHubungan": 7574,
      "Ġmenjawab": 7575,
      "Ġkerap": 7576,
      "ovina": 7577,
      "Ġresp": 7578,
      "Ġsubjek": 7579,
      "ĠMadinah": 7580,
      "Ġdrama": 7581,
      "Ġpejuang": 7582,
      "ĠSehingga": 7583,
      "03": 7584,
      "04": 7585,
      "alas": 7586,
      "ĠSta": 7587,
      "Ġund": 7588,
      "anjir": 7589,
      "artisipasi": 7590,
      "Ġterlebih": 7591,
      "Pers": 7592,
      "Ġmengenakan": 7593,
      "ĠMadrid": 7594,
      "ĠLetkol": 7595,
      "erkosaan": 7596,
      "Ġspesifik": 7597,
      "Ġputranya": 7598,
      "IB": 7599,
      "Ġ*": 7600,
      "Ġberapi": 7601,
      "irah": 7602,
      "ĠDuk": 7603,
      "asien": 7604,
      "Ġjurusan": 7605,
      "Ġmengelola": 7606,
      "ĠPerubahan": 7607,
      "integ": 7608,
      "Ġmembatasi": 7609,
      "Ġdipisahkan": 7610,
      "ĠMaroko": 7611,
      "ree": 7612,
      "Ġdirencanakan": 7613,
      "ĠDaud": 7614,
      "yanmar": 7615,
      "ĠModern": 7616,
      "ĠCorpor": 7617,
      "ĠKeluarga": 7618,
      "Ġmelebihi": 7619,
      "led": 7620,
      "Ġpri": 7621,
      "Ġmengeks": 7622,
      "ĠCom": 7623,
      "ĠYugoslavia": 7624,
      "154": 7625,
      "Ġawak": 7626,
      "Ġpred": 7627,
      "ĠAndr": 7628,
      "ĠKapten": 7629,
      "Jumlah": 7630,
      "Kl": 7631,
      "Perd": 7632,
      "sm": 7633,
      "Ġmaksud": 7634,
      "ador": 7635,
      "yangk": 7636,
      "ĠMun": 7637,
      "ĠBra": 7638,
      "ĠDek": 7639,
      "Ġhotel": 7640,
      "ĠNiger": 7641,
      "ĠGa": 7642,
      "Ġgrav": 7643,
      "anggapan": 7644,
      "ĠYeh": 7645,
      "opedia": 7646,
      "ĠAntar": 7647,
      "ĠZaman": 7648,
      "Ġdimainkan": 7649,
      "thi": 7650,
      "Ġkeselamatan": 7651,
      "ĠVirgin": 7652,
      "ejahteraan": 7653,
      "Pariwisata": 7654,
      "adikal": 7655,
      "olok": 7656,
      "ĠTamb": 7657,
      "ĠJat": 7658,
      "Ġadik": 7659,
      "osof": 7660,
      "empah": 7661,
      "ĠPenj": 7662,
      "Ġfilsuf": 7663,
      "ĠWales": 7664,
      "Ġpotensial": 7665,
      "ĠFederasi": 7666,
      "-sifat": 7667,
      "Ġberkebangsaan": 7668,
      "NS": 7669,
      "Partai": 7670,
      "mana": 7671,
      "sburg": 7672,
      "ĠØ§ÙĦ": 7673,
      "ereng": 7674,
      "ĠPC": 7675,
      "ĠMid": 7676,
      "ĠMangk": 7677,
      "ĠJombang": 7678,
      "ĠHel": 7679,
      "asila": 7680,
      "azim": 7681,
      "Ġkorupsi": 7682,
      "ĠModel": 7683,
      "Ġkewajiban": 7684,
      "BS": 7685,
      "well": 7686,
      "ÑĢ": 7687,
      "Ġmenangkap": 7688,
      "ebra": 7689,
      "ĠTour": 7690,
      "ĠData": 7691,
      "ĠRen": 7692,
      "Ġrusak": 7693,
      "ĠNah": 7694,
      "Ġpenangk": 7695,
      "ĠHow": 7696,
      "ĠEmas": 7697,
      "Ġdikalahkan": 7698,
      "ĠStock": 7699,
      "onda": 7700,
      "Ġdoktrin": 7701,
      "Ġinvasi": 7702,
      "ĠKomunikasi": 7703,
      "Ġkamu": 7704,
      "ĠKaribia": 7705,
      "kem": 7706,
      "Ġbaja": 7707,
      "ĠAer": 7708,
      "Ġjenazah": 7709,
      "abet": 7710,
      "Ġpengend": 7711,
      "Ġmenyerah": 7712,
      "ĠAsy": 7713,
      "155": 7714,
      "Ġhalus": 7715,
      "Ġserius": 7716,
      "ĠScience": 7717,
      "Contoh": 7718,
      "MS": 7719,
      "Man": 7720,
      "Î±": 7721,
      "Ġmakin": 7722,
      "inaan": 7723,
      "itiga": 7724,
      "Ġfakta": 7725,
      "Ġmembuktikan": 7726,
      "Ġdibatasi": 7727,
      "ĠPenelitian": 7728,
      "Sebagian": 7729,
      "omatis": 7730,
      "Ġsisanya": 7731,
      "Ġdijalankan": 7732,
      "900": 7733,
      "Tidak": 7734,
      "yaran": 7735,
      "Î¿": 7736,
      "uny": 7737,
      "Ġmenonjol": 7738,
      "Ġlembah": 7739,
      "Ġlambat": 7740,
      "ĠTj": 7741,
      "ĠLima": 7742,
      "Ġwarisan": 7743,
      "saingan": 7744,
      "Ġsemen": 7745,
      "ardi": 7746,
      "Ġmemperb": 7747,
      "Ġpersonel": 7748,
      "Ġberpartisipasi": 7749,
      "ĠKonsili": 7750,
      "Ġberperang": 7751,
      "Ġinternet": 7752,
      "esuaikan": 7753,
      ";\"": 7754,
      "aritas": 7755,
      "ĠSeg": 7756,
      "Ġtertarik": 7757,
      "Ġhadiah": 7758,
      "ĠJati": 7759,
      "Ġruangan": 7760,
      "Ġritual": 7761,
      "oph": 7762,
      "Ġdikelilingi": 7763,
      "Ġkeset": 7764,
      "Ġkomet": 7765,
      "Ġkonsentrasi": 7766,
      "ĠShah": 7767,
      "ĠMassa": 7768,
      "Ġkehadiran": 7769,
      "Ġmetropolitan": 7770,
      "Ġsaud": 7771,
      "61": 7772,
      "IT": 7773,
      "cepat": 7774,
      "Ð½": 7775,
      "alk": 7776,
      "Ġkucing": 7777,
      "ukunya": 7778,
      "ilya": 7779,
      "ĠRC": 7780,
      "ĠNic": 7781,
      "rann": 7782,
      "opulasi": 7783,
      "-gereja": 7784,
      "anah": 7785,
      "Ġtuk": 7786,
      "Ġkain": 7787,
      "ĠPag": 7788,
      "orak": 7789,
      "ĠMis": 7790,
      "ĠDik": 7791,
      "Ġpemuda": 7792,
      "ĠAbraham": 7793,
      "Ġkonferensi": 7794,
      "ĠAntara": 7795,
      "PK": 7796,
      "PT": 7797,
      "waktu": 7798,
      "angd": 7799,
      "itat": 7800,
      "ĠPuncak": 7801,
      "uluki": 7802,
      "Ġrock": 7803,
      "Ġditolak": 7804,
      "Ġditambahkan": 7805,
      "Ġterdekat": 7806,
      "Ġanaknya": 7807,
      "wat": 7808,
      "Ġsempurna": 7809,
      "Ġtarik": 7810,
      "Ġtambang": 7811,
      "Ġbunyi": 7812,
      "adin": 7813,
      "ĠBiz": 7814,
      "iriman": 7815,
      "ĠChe": 7816,
      "Ġpeneliti": 7817,
      "ĠYak": 7818,
      "ardo": 7819,
      "Ġdiperd": 7820,
      "153": 7821,
      "Ġkekurangan": 7822,
      "astik": 7823,
      "Ġmembagi": 7824,
      "ĠMach": 7825,
      "Ġtergolong": 7826,
      "Ġfosil": 7827,
      "zegovina": 7828,
      "binasi": 7829,
      "eaksi": 7830,
      "hol": 7831,
      "Ġevolusi": 7832,
      "arum": 7833,
      "ĠPanjang": 7834,
      "ĠMandar": 7835,
      "ĠMPR": 7836,
      "ĠTem": 7837,
      "awaran": 7838,
      "Ġnada": 7839,
      "embahan": 7840,
      "ative": 7841,
      "ĠPeristiwa": 7842,
      "intis": 7843,
      "ibus": 7844,
      "Ġlogika": 7845,
      "ĠTime": 7846,
      "ĠPerdagangan": 7847,
      "ball": 7848,
      "tek": 7849,
      "ĪĴ": 7850,
      "uktor": 7851,
      "ĠKn": 7852,
      "Ġpermanen": 7853,
      "Ġjemaat": 7854,
      "ĠJuga": 7855,
      "Ġcomp": 7856,
      "Ġpengobatan": 7857,
      "ĠPeri": 7858,
      "Ġdilanjutkan": 7859,
      "166": 7860,
      "Ġpenjelasan": 7861,
      "ĠMetro": 7862,
      "ĠColumb": 7863,
      "Ġpengelolaan": 7864,
      "Abd": 7865,
      "72": 7866,
      "klamasi": 7867,
      "Ġbe": 7868,
      "isaris": 7869,
      "isode": 7870,
      "ĠPop": 7871,
      "ĠBangk": 7872,
      "Ġ(;": 7873,
      "andian": 7874,
      "ĠLife": 7875,
      "ĠGN": 7876,
      "ĠGi": 7877,
      "ody": 7878,
      "ipa": 7879,
      "versal": 7880,
      "-tempat": 7881,
      "ĠKetiga": 7882,
      "ĠItu": 7883,
      "Ġdibawah": 7884,
      "ĠKaum": 7885,
      "-Am": 7886,
      "Ġmenandai": 7887,
      "Ġmengusulkan": 7888,
      "Ġph": 7889,
      "ĠPPI": 7890,
      "urrahman": 7891,
      "Ġlolos": 7892,
      "ingen": 7893,
      "ekusi": 7894,
      "umor": 7895,
      "ĠDam": 7896,
      "upu": 7897,
      "ĠGres": 7898,
      "Ġfakultas": 7899,
      "ecual": 7900,
      "Ġpelatih": 7901,
      "Ġkhalifah": 7902,
      "Ġdirek": 7903,
      "Ġbelerang": 7904,
      "Ġekonom": 7905,
      "larasi": 7906,
      "Ġdimakamkan": 7907,
      "81": 7908,
      "eon": 7909,
      "fiah": 7910,
      "ista": 7911,
      "ĠMos": 7912,
      "ĠGan": 7913,
      "Ġfac": 7914,
      "ĠPerguruan": 7915,
      "ĠVI": 7916,
      "Ġbij": 7917,
      "ĠAku": 7918,
      "ĠMenara": 7919,
      "ĠKebanyakan": 7920,
      "Ġkabel": 7921,
      "Ġmurah": 7922,
      "Ġwebsite": 7923,
      "ektual": 7924,
      "Ġleluhur": 7925,
      "ĠRecord": 7926,
      "\").": 7927,
      "Raja": 7928,
      "center": 7929,
      "Ġtahan": 7930,
      "Ġblok": 7931,
      "ikoden": 7932,
      "ĠSyah": 7933,
      "apar": 7934,
      "ĠKub": 7935,
      "Ġlaju": 7936,
      "ĠTemp": 7937,
      "Ġrunt": 7938,
      "egasi": 7939,
      "perk": 7940,
      "Ġketat": 7941,
      "Ġdimensi": 7942,
      "ĠSebaliknya": 7943,
      "Ġsesungguhnya": 7944,
      "Ġelektro": 7945,
      "Ġlegenda": 7946,
      "/km": 7947,
      "PU": 7948,
      "ĠÅ": 7949,
      "Ġtema": 7950,
      "Ġbanjir": 7951,
      "ĠMobil": 7952,
      "Ġberulang": 7953,
      "Ġberguna": 7954,
      "ingati": 7955,
      "Ġmengingat": 7956,
      "onsumsi": 7957,
      "rey": 7958,
      "Ġmemperbaiki": 7959,
      "engka": 7960,
      "Ġminum": 7961,
      "ĠSaudara": 7962,
      "Ġkoleksi": 7963,
      "sitek": 7964,
      "ĠHidayat": 7965,
      "igurasi": 7966,
      "-I": 7967,
      "LS": 7968,
      "Ġkul": 7969,
      "ĠPahlawan": 7970,
      "Ġlaboratorium": 7971,
      "ĠCi": 7972,
      "rie": 7973,
      "aff": 7974,
      "-kitab": 7975,
      "bankan": 7976,
      "Ġtransisi": 7977,
      "Ġonline": 7978,
      "Ġmemperkirakan": 7979,
      "jemahan": 7980,
      "uskes": 7981,
      "Ġperpustakaan": 7982,
      "ĠUNES": 7983,
      "Ġtetangga": 7984,
      "ausan": 7985,
      "din": 7986,
      "lang": 7987,
      "oi": 7988,
      "rian": 7989,
      "ere": 7990,
      "Ġkaca": 7991,
      "ĠSipil": 7992,
      "itos": 7993,
      "ĠAC": 7994,
      "Ġlazim": 7995,
      "ĠDig": 7996,
      "Ġmengisi": 7997,
      "Ġrow": 7998,
      "ĠHall": 7999,
      "Ġfestival": 8000,
      "Ġaktivis": 8001,
      "Ġdibedakan": 8002,
      "Ġdibebaskan": 8003,
      "erbitan": 8004,
      "eknologi": 8005,
      "Ġkonvensi": 8006,
      "Ġsubur": 8007,
      "ĠEmpat": 8008,
      "onorogo": 8009,
      "Kitab": 8010,
      "rejo": 8011,
      "Ġev": 8012,
      "enz": 8013,
      "Ġmunisipalitas": 8014,
      "Ġbaris": 8015,
      "adaran": 8016,
      "Ġseekor": 8017,
      "oras": 8018,
      "olakan": 8019,
      "Ġjulukan": 8020,
      "Ġmengendalikan": 8021,
      "ĠFort": 8022,
      "Ġfiksi": 8023,
      "empit": 8024,
      "Ġmassal": 8025,
      "Ġ...": 8026,
      "Ġpemberontak": 8027,
      "Ġfrasa": 8028,
      "atrium": 8029,
      "-al": 8030,
      "-ti": 8031,
      "92": 8032,
      "Ibu": 8033,
      "amana": 8034,
      "ĠPor": 8035,
      "esawat": 8036,
      "Ġterikat": 8037,
      "ebatan": 8038,
      "abol": 8039,
      "ĠChris": 8040,
      "ĠKepolisian": 8041,
      "ĠPrasasti": 8042,
      "Ġspir": 8043,
      "Ġstrategi": 8044,
      "ĠHabib": 8045,
      "ĠLingkungan": 8046,
      "Ġpenyelenggaraan": 8047,
      "Pas": 8048,
      "pus": 8049,
      "Ñģ": 8050,
      "Ġir": 8051,
      "Ġsim": 8052,
      "Ġtanggung": 8053,
      "itia": 8054,
      "urch": 8055,
      "Ġlihat": 8056,
      "ett": 8057,
      "ulingkan": 8058,
      "Ġroda": 8059,
      "Ġnom": 8060,
      "edral": 8061,
      "endang": 8062,
      "Ġdisertai": 8063,
      "Ġkekh": 8064,
      "Ġmempromosikan": 8065,
      "ĠShang": 8066,
      "Ã¼n": 8067,
      "Ġmulti": 8068,
      "ĠHolland": 8069,
      "ĠSomalia": 8070,
      "ĠBrigjen": 8071,
      "uskesmas": 8072,
      "aruan": 8073,
      "Ġbasah": 8074,
      "ĠMA": 8075,
      "ulusan": 8076,
      "Ġperbaikan": 8077,
      "able": 8078,
      "awasi": 8079,
      "ĠInc": 8080,
      "antang": 8081,
      "osistem": 8082,
      "ogle": 8083,
      "Ġpengunjung": 8084,
      "into": 8085,
      "ohol": 8086,
      "artikan": 8087,
      "Ġberbahaya": 8088,
      "Ġpolit": 8089,
      "ĠPrefektur": 8090,
      "askar": 8091,
      "Ġobligasi": 8092,
      "ĠPier": 8093,
      "ĠDepok": 8094,
      "Ġsuper": 8095,
      "ĠSriwijaya": 8096,
      "Ġdiumumkan": 8097,
      "amati": 8098,
      "emah": 8099,
      "ĠBenteng": 8100,
      "andard": 8101,
      "ĠCam": 8102,
      "ĠHill": 8103,
      "ĠProduksi": 8104,
      "Ġpasal": 8105,
      "ristenan": 8106,
      "Ġpilot": 8107,
      "raj": 8108,
      "ĠTam": 8109,
      "Ġhel": 8110,
      "awinan": 8111,
      "ĠCorn": 8112,
      "ector": 8113,
      "Ġmembentang": 8114,
      "Ġvarian": 8115,
      "undam": 8116,
      "unduran": 8117,
      "-raja": 8118,
      "Ġpembawa": 8119,
      "Ġpelanggaran": 8120,
      "emeente": 8121,
      "emukakan": 8122,
      "ĠBugis": 8123,
      "Tempat": 8124,
      "ĠAL": 8125,
      "iannya": 8126,
      "Ġmengadopsi": 8127,
      "ĠWill": 8128,
      "opa": 8129,
      "ĠVideo": 8130,
      "ĠMahab": 8131,
      "ĠHaiti": 8132,
      "Penduduk": 8133,
      "Ġfluor": 8134,
      "ĠYordania": 8135,
      "Ġrowspan": 8136,
      "Bel": 8137,
      "ces": 8138,
      "luan": 8139,
      "med": 8140,
      "angu": 8141,
      "Ġturunan": 8142,
      "Ġkre": 8143,
      "ĠMerdeka": 8144,
      "Ġluka": 8145,
      "Ġharta": 8146,
      "ĠVinc": 8147,
      "Ġpelajaran": 8148,
      "ancuran": 8149,
      "Ġterpenting": 8150,
      "Ġkritik": 8151,
      "Ġpenjajahan": 8152,
      "Ġmonarki": 8153,
      "Ġsengaja": 8154,
      "ĠValent": 8155,
      "ĠLebanon": 8156,
      "ĠAkibatnya": 8157,
      "/s": 8158,
      "IC": 8159,
      "hal": 8160,
      "panjang": 8161,
      "Ġpasien": 8162,
      "ako": 8163,
      "Ġlantai": 8164,
      "Ġkegagalan": 8165,
      "ĠCel": 8166,
      "ayasa": 8167,
      "Ġpengolahan": 8168,
      "ĠPerak": 8169,
      "odik": 8170,
      "Ġpertanyaan": 8171,
      "Ġketerangan": 8172,
      "Ġberkumpul": 8173,
      "anyikan": 8174,
      "este": 8175,
      "161": 8176,
      "gabungan": 8177,
      "inopel": 8178,
      "wo": 8179,
      "wati": 8180,
      "arusnya": 8181,
      "itch": 8182,
      "Ġhancur": 8183,
      "adip": 8184,
      "osta": 8185,
      "ugaskan": 8186,
      "Ġutang": 8187,
      "akau": 8188,
      "ombol": 8189,
      "ĠMenengah": 8190,
      "Ġenzim": 8191,
      "uwangi": 8192,
      "ademy": 8193,
      "ripsi": 8194,
      "ĠDirektorat": 8195,
      "rowspan": 8196,
      "Ġsiklus": 8197,
      "08": 8198,
      "KRI": 8199,
      "asana": 8200,
      "onim": 8201,
      "ĠPangkalan": 8202,
      "ĠPythag": 8203,
      "ilia": 8204,
      "urung": 8205,
      "ĠRek": 8206,
      "ĠNatal": 8207,
      "ĠWik": 8208,
      "Ġpembuat": 8209,
      "Ġmenghadiri": 8210,
      "Ġmuslim": 8211,
      "idae": 8212,
      "ĠPertengahan": 8213,
      "oksidasi": 8214,
      "ĠEdward": 8215,
      "ĠUlama": 8216,
      "Ġkutub": 8217,
      "wanya": 8218,
      "inga": 8219,
      "Ġbaw": 8220,
      "ĠTujuan": 8221,
      "Ġkeenam": 8222,
      "tag": 8223,
      "ĠRumania": 8224,
      "ĠJer": 8225,
      "ĠCamp": 8226,
      "perti": 8227,
      "ĠAdapun": 8228,
      "Ġsenior": 8229,
      "Ġdarurat": 8230,
      "Ġoposisi": 8231,
      "Ġtipis": 8232,
      "ublish": 8233,
      "ĠTyrann": 8234,
      "Ġmal": 8235,
      "ĠSn": 8236,
      "ĠKisah": 8237,
      "Ġpercobaan": 8238,
      "tiwa": 8239,
      "ĠHidup": 8240,
      "embilan": 8241,
      "Ġsekutu": 8242,
      "Ġditemp": 8243,
      "artika": 8244,
      "Ġdibantu": 8245,
      "Ġkomik": 8246,
      "ĠAdat": 8247,
      "ello": 8248,
      "Ġimigran": 8249,
      "Ġmenikmati": 8250,
      "ĠUsaha": 8251,
      "Meng": 8252,
      "Pener": 8253,
      "likan": 8254,
      "ĠMyanmar": 8255,
      "Ġwujud": 8256,
      "Ġkelamin": 8257,
      "Ġdisetujui": 8258,
      "Ġpembukaan": 8259,
      "140": 8260,
      "ĠMenj": 8261,
      "Ġklaim": 8262,
      "ĠLeon": 8263,
      "ĠIrian": 8264,
      "ĠTangerang": 8265,
      "ĠKampus": 8266,
      "ĠRay": 8267,
      "andra": 8268,
      "ague": 8269,
      "egangan": 8270,
      "edudukan": 8271,
      "Ġpemahaman": 8272,
      "Ġmenyadari": 8273,
      "Ġbertentangan": 8274,
      "-pem": 8275,
      "Ġtegangan": 8276,
      "Ġoperasional": 8277,
      "'ah": 8278,
      ".E": 8279,
      "ĊĠĊ": 8280,
      "Ġtamu": 8281,
      "ĠPant": 8282,
      "ĠKak": 8283,
      "ĠKita": 8284,
      "Ġberalih": 8285,
      "Ġriset": 8286,
      "ĠWi": 8287,
      "Ġkerangka": 8288,
      "Ġdipasang": 8289,
      "Ġbertahap": 8290,
      "163": 8291,
      "Ġotot": 8292,
      "ĠBalai": 8293,
      "Ġkeperluan": 8294,
      "ĠKecil": 8295,
      "ibu": 8296,
      "mem": 8297,
      "wood": 8298,
      "Ġpanggilan": 8299,
      "Ġberik": 8300,
      "bawa": 8301,
      "ĠGil": 8302,
      "Ġwas": 8303,
      "empurn": 8304,
      "ecahkan": 8305,
      "acun": 8306,
      "Ġmendominasi": 8307,
      "Ġdipanggil": 8308,
      "Ġberkat": 8309,
      "Ġmenghormati": 8310,
      "Ġmenghilangkan": 8311,
      "Ġkedalaman": 8312,
      "Ġkekuasa": 8313,
      "Ġkomandan": 8314,
      "Ġeksk": 8315,
      "ĠKhan": 8316,
      "andingkan": 8317,
      "Ġdef": 8318,
      "akia": 8319,
      "aket": 8320,
      "Ġkenaikan": 8321,
      "elajah": 8322,
      "isensi": 8323,
      "esak": 8324,
      "ĠBapa": 8325,
      "andu": 8326,
      "Ġgand": 8327,
      "ĠEver": 8328,
      "ĠMagelang": 8329,
      "Ġmenandakan": 8330,
      "bak": 8331,
      "raja": 8332,
      "td": 8333,
      "Ġbandar": 8334,
      "ianak": 8335,
      "ianya": 8336,
      "ĠCamb": 8337,
      "ĠGir": 8338,
      "ĠFisiologi": 8339,
      "ĠOri": 8340,
      "ĠAst": 8341,
      "anka": 8342,
      "ivia": 8343,
      "Ġinstr": 8344,
      "ĠPancasila": 8345,
      "91": 8346,
      "EA": 8347,
      "Fil": 8348,
      "Republik": 8349,
      "itri": 8350,
      "ĠPonorogo": 8351,
      "oreng": 8352,
      "Ġrambut": 8353,
      "ĠNav": 8354,
      "ihatan": 8355,
      "ĠGab": 8356,
      "Ġcok": 8357,
      "ĠWaktu": 8358,
      "Ġkarang": 8359,
      "uard": 8360,
      "uncuran": 8361,
      "Ġseharusnya": 8362,
      "Ġberhak": 8363,
      "ĠPasir": 8364,
      "Ġdrum": 8365,
      "ĠOsaka": 8366,
      "Ġhanyalah": 8367,
      "93": 8368,
      "94": 8369,
      "anak": 8370,
      "Ġparuh": 8371,
      "ĠSampai": 8372,
      "ited": 8373,
      "ĠPost": 8374,
      "ĠBeng": 8375,
      "ĠTex": 8376,
      "ĠLab": 8377,
      "arankan": 8378,
      "Ġdisediakan": 8379,
      "ific": 8380,
      "ĠPemuda": 8381,
      "Ġdihitung": 8382,
      "ĠTimes": 8383,
      "yaratan": 8384,
      "Ġpembayaran": 8385,
      "Ġbetina": 8386,
      "ĠAdipati": 8387,
      "Ġhektare": 8388,
      "/D": 8389,
      "Gereja": 8390,
      "Ġpop": 8391,
      "Ġsutradara": 8392,
      "esus": 8393,
      "ĠKres": 8394,
      "ĠDev": 8395,
      "ĠDKI": 8396,
      "imaan": 8397,
      "ĠLim": 8398,
      "Ġni": 8399,
      "ederasi": 8400,
      "ĠConc": 8401,
      "ĠDomin": 8402,
      "Dia": 8403,
      "Ġdebut": 8404,
      "Ġpaksa": 8405,
      "Ġtarian": 8406,
      "Ġbom": 8407,
      "ĠSatuan": 8408,
      "umbai": 8409,
      "idat": 8410,
      "peratur": 8411,
      "ĠUj": 8412,
      "Ġpemakaman": 8413,
      "Ġpengukuran": 8414,
      "Ġpembakaran": 8415,
      "ulistiwa": 8416,
      "iliasi": 8417,
      "-tengah": 8418,
      "Ġdihancurkan": 8419,
      "Ġeksper": 8420,
      "ĠHarun": 8421,
      "ĠFrancisco": 8422,
      "ĠSiprus": 8423,
      "ĠGresik": 8424,
      "langga": 8425,
      "Ġawan": 8426,
      "aret": 8427,
      "arch": 8428,
      "Ġpp": 8429,
      "Ġpanggung": 8430,
      "emakmuran": 8431,
      "rac": 8432,
      "ingginya": 8433,
      "ĠAlbert": 8434,
      "inder": 8435,
      "Ġsemula": 8436,
      "ĠMars": 8437,
      "ingkatkan": 8438,
      "165": 8439,
      "ĠAirport": 8440,
      "untungkan": 8441,
      "Ġjumlahnya": 8442,
      "Ġbermakna": 8443,
      "Art": 8444,
      "Ġrumpun": 8445,
      "Ġrestoran": 8446,
      "SS": 8447,
      "oz": 8448,
      "arbon": 8449,
      "Ġsend": 8450,
      "amis": 8451,
      "uksesan": 8452,
      "ĠKad": 8453,
      "ĠFe": 8454,
      "uransi": 8455,
      "Ġvulkan": 8456,
      "ency": 8457,
      "migrasi": 8458,
      "antium": 8459,
      "Ġdianut": 8460,
      "Ġsirkuit": 8461,
      "ĠWahid": 8462,
      "cycl": 8463,
      "Il": 8464,
      "RA": 8465,
      "bin": 8466,
      "cana": 8467,
      "Ġå": 8468,
      "Ġtajam": 8469,
      "ĠKim": 8470,
      "ument": 8471,
      "Ġoff": 8472,
      "aktur": 8473,
      "Ġbiologi": 8474,
      "Ġotomatis": 8475,
      "evelop": 8476,
      "ĠAlbania": 8477,
      "ĠMahabharata": 8478,
      "ĠSamp": 8479,
      "ĠTemb": 8480,
      "Ġkeg": 8481,
      "ituania": 8482,
      "ĠPerl": 8483,
      "rick": 8484,
      "Ġalgoritme": 8485,
      "168": 8486,
      "astis": 8487,
      "urnalis": 8488,
      "ĠPluto": 8489,
      "Ġmahkota": 8490,
      "Ġmekanisme": 8491,
      "inerja": 8492,
      "ĠLapangan": 8493,
      "Ġpraktis": 8494,
      "Hid": 8495,
      "Ġpew": 8496,
      "Ġpita": 8497,
      "Ġmenaklukkan": 8498,
      "Ġlurus": 8499,
      "Ġrupa": 8500,
      "Ġditinggal": 8501,
      "vern": 8502,
      "Ġsetia": 8503,
      "Ġterkecil": 8504,
      "Ġkritis": 8505,
      "ĠFred": 8506,
      "ĠÂ±": 8507,
      "Ġpidato": 8508,
      "ĠCorporation": 8509,
      "Sep": 8510,
      "gasi": 8511,
      "nes": 8512,
      "tual": 8513,
      "Ġstaf": 8514,
      "apas": 8515,
      "orasi": 8516,
      "arau": 8517,
      "Ġpermasalahan": 8518,
      "ĠDI": 8519,
      "Ġhebat": 8520,
      "udo": 8521,
      "iant": 8522,
      "Ġmengelilingi": 8523,
      "Ġmengembalikan": 8524,
      "Ġradikal": 8525,
      "ubur": 8526,
      "ters": 8527,
      "Ġpemul": 8528,
      "ĠYa": 8529,
      "ĠAmir": 8530,
      "ĠChi": 8531,
      "Ġgerak": 8532,
      "ĠSaleh": 8533,
      "ĠTelevisi": 8534,
      "iskinan": 8535,
      "Ø§Ø": 8536,
      "earch": 8537,
      "Ġternak": 8538,
      "Ġpenyimpanan": 8539,
      "bl": 8540,
      "Ġpinjaman": 8541,
      "ĠBeb": 8542,
      "Ġhe": 8543,
      "ihir": 8544,
      "Ġmerayakan": 8545,
      "Ġmusisi": 8546,
      "Ġsehat": 8547,
      "residenan": 8548,
      "-suku": 8549,
      "Ġkomoditas": 8550,
      "Ġkombinasi": 8551,
      "ĠKonstantinopel": 8552,
      "Mel": 8553,
      "rin": 8554,
      "ven": 8555,
      "enep": 8556,
      "Ġmarkas": 8557,
      "Ġpakar": 8558,
      "Ġsit": 8559,
      "ĠSak": 8560,
      "uris": 8561,
      "Ġjantan": 8562,
      "ĠJab": 8563,
      "Ġpengawasan": 8564,
      "ĠOper": 8565,
      "Ġkargo": 8566,
      "lie": 8567,
      "-sumber": 8568,
      "Ġteater": 8569,
      "Ġremaja": 8570,
      "Ġkekuasaannya": 8571,
      "vei": 8572,
      "Ġdatar": 8573,
      "inar": 8574,
      "iness": 8575,
      "ĠTib": 8576,
      "Ġperikanan": 8577,
      "Ġwajah": 8578,
      "odon": 8579,
      "anja": 8580,
      "Ġpelajar": 8581,
      "-kapal": 8582,
      "Ġpolimer": 8583,
      "-sel": 8584,
      "167": 8585,
      "unting": 8586,
      "Ġreligi": 8587,
      "ĠAwal": 8588,
      "ĠLaos": 8589,
      "Ġfilosof": 8590,
      "Ġkualifikasi": 8591,
      "Ġuji": 8592,
      "ĠSunni": 8593,
      "Ġditandatangani": 8594,
      "ĠLuther": 8595,
      "endekiawan": 8596,
      "/K": 8597,
      "tahun": 8598,
      "Ġmalah": 8599,
      "Ġmant": 8600,
      "utus": 8601,
      "ĠBait": 8602,
      "Ġterang": 8603,
      "Ġhab": 8604,
      "ugian": 8605,
      "mann": 8606,
      "ensial": 8607,
      "ĠStan": 8608,
      "Ġdijuluki": 8609,
      "Ġsegitiga": 8610,
      "ĠHerzegovina": 8611,
      "Ġekspedisi": 8612,
      "Ġlempeng": 8613,
      "hip": 8614,
      "rir": 8615,
      "Ġpant": 8616,
      "Ġsawah": 8617,
      "Ġbatang": 8618,
      "Ġbukunya": 8619,
      "ĠMang": 8620,
      "ĠBint": 8621,
      "ĠTradisi": 8622,
      "Ġperanan": 8623,
      "ĠDani": 8624,
      "Ġinform": 8625,
      "Ġmengab": 8626,
      "Ġrancangan": 8627,
      "Ġnenek": 8628,
      "eper": 8629,
      "entase": 8630,
      "aft": 8631,
      "Ġpersatuan": 8632,
      "eich": 8633,
      "illes": 8634,
      "ĠBarb": 8635,
      "ostolik": 8636,
      "FAEB": 8637,
      "Ġular": 8638,
      "celona": 8639,
      "06": 8640,
      "UI": 8641,
      "semb": 8642,
      "Ġ),": 8643,
      "use": 8644,
      "ĠTal": 8645,
      "ĠTapi": 8646,
      "ĠIC": 8647,
      "Ġperahu": 8648,
      "ĠJapan": 8649,
      "ĠNan": 8650,
      "ĠHis": 8651,
      "endam": 8652,
      "Ġpemerkosaan": 8653,
      "Ġpengeb": 8654,
      "Ġanggur": 8655,
      "ĠPengetahuan": 8656,
      "ĠQue": 8657,
      "Ġkontak": 8658,
      "Ġpedalaman": 8659,
      "Ġhidrok": 8660,
      "-ciri": 8661,
      "ĠSarjana": 8662,
      "asifikasikan": 8663,
      "ĠLibr": 8664,
      "Ġmoral": 8665,
      "Ġrohani": 8666,
      "Ġkristal": 8667,
      "lot": 8668,
      "och": 8669,
      "rain": 8670,
      "Ġsol": 8671,
      "Ġtuntutan": 8672,
      "ele": 8673,
      "ĠPek": 8674,
      "iliter": 8675,
      "apuskan": 8676,
      "ĠAD": 8677,
      "etri": 8678,
      "ĠHitam": 8679,
      "ĠLog": 8680,
      "angkutan": 8681,
      "ĠVi": 8682,
      "Ġterbunuh": 8683,
      "Ġvitamin": 8684,
      "Ġberpikir": 8685,
      "ature": 8686,
      "Ġmenyelamatkan": 8687,
      "Ġkosm": 8688,
      "ladesh": 8689,
      "ĠBengkulu": 8690,
      "73": 8691,
      "Suku": 8692,
      "aun": 8693,
      "lasifikasikan": 8694,
      "Ġkib": 8695,
      "ikt": 8696,
      "ĠSula": 8697,
      "ĠPustaka": 8698,
      "ĠToba": 8699,
      "udera": 8700,
      "ĠRektor": 8701,
      "ĠNug": 8702,
      "ubuk": 8703,
      "endungan": 8704,
      "Ġkaret": 8705,
      "Ġmenyukai": 8706,
      "ĠSeluruh": 8707,
      "Ġkonsumen": 8708,
      "ratis": 8709,
      "ĠEncycl": 8710,
      "agaiman": 8711,
      "Ġteologi": 8712,
      "ĠEksp": 8713,
      "Ġbelakangan": 8714,
      "eriksaan": 8715,
      "Amerika": 8716,
      "inyur": 8717,
      "Ġdimaksudkan": 8718,
      "ĠRCTI": 8719,
      "05": 8720,
      "cam": 8721,
      "juga": 8722,
      "mus": 8723,
      "mud": 8724,
      "ring": 8725,
      "Ġkajian": 8726,
      "ike": 8727,
      "ĠShe": 8728,
      "orra": 8729,
      "ĠAP": 8730,
      "ĠFant": 8731,
      "Ġditampilkan": 8732,
      "igan": 8733,
      "Ġkebiasaan": 8734,
      "176": 8735,
      "Ġkeju": 8736,
      "ÃŃn": 8737,
      "ĠGoogle": 8738,
      "Ġlautan": 8739,
      "Ġsusunan": 8740,
      "Sementara": 8741,
      ".B": 8742,
      "atulistiwa": 8743,
      "ĠSari": 8744,
      "ĠKah": 8745,
      "ĠAch": 8746,
      "Ġberencana": 8747,
      "ajinan": 8748,
      "Ġcincin": 8749,
      "ebutkan": 8750,
      "Ġmelancarkan": 8751,
      "ĠĊĊĠĊĊ": 8752,
      "ĠVII": 8753,
      "Ġutusan": 8754,
      "101": 8755,
      "Ġdepartemen": 8756,
      "ĠDPRD": 8757,
      "ĠMongolia": 8758,
      "Ġkredit": 8759,
      "hak": 8760,
      "Ġdeg": 8761,
      "Ġbat": 8762,
      "amo": 8763,
      "ĠPus": 8764,
      "Ġmenahan": 8765,
      "Ġlereng": 8766,
      "abut": 8767,
      "wait": 8768,
      "Ġkemarau": 8769,
      "105": 8770,
      "Perj": 8771,
      "Ġberpeng": 8772,
      "135": 8773,
      "ĠMerc": 8774,
      "Ġdemokrat": 8775,
      "ĠSyarif": 8776,
      "Ġotonomi": 8777,
      "Ġelektromagn": 8778,
      "ĠKapuas": 8779,
      "Ġisu": 8780,
      "Organisasi": 8781,
      "Kepulauan": 8782,
      "110": 8783,
      "82": 8784,
      "El": 8785,
      "furt": 8786,
      "kl": 8787,
      "Ġkong": 8788,
      "elli": 8789,
      "Ġperumahan": 8790,
      "Ġmengidentifikasi": 8791,
      "ĠHu": 8792,
      "ĠHok": 8793,
      "ĠLong": 8794,
      "Ġmenjalin": 8795,
      "ĠFA": 8796,
      "Ġwartawan": 8797,
      "eve": 8798,
      "Ġpelayaran": 8799,
      "Ġdihukum": 8800,
      "ungguh": 8801,
      "ski": 8802,
      "Ġsosialis": 8803,
      "Ġotonom": 8804,
      "Politik": 8805,
      "ĠFried": 8806,
      "erminkan": 8807,
      "'i": 8808,
      "SD": 8809,
      "Tim": 8810,
      "ft": 8811,
      "kala": 8812,
      "als": 8813,
      "unus": 8814,
      "Ġkuliah": 8815,
      "ĠSuh": 8816,
      "ĠSarah": 8817,
      "ianus": 8818,
      "ĠCitra": 8819,
      "ĠGogh": 8820,
      "ĠIndones": 8821,
      "Ġpengas": 8822,
      "ĠOpen": 8823,
      "ĠSumenep": 8824,
      "ĠJohor": 8825,
      "Ġmulanya": 8826,
      "Ġperluasan": 8827,
      "ĠLetnan": 8828,
      "ĠLibya": 8829,
      "ĠSejumlah": 8830,
      "hevik": 8831,
      "Ġgravitasi": 8832,
      "Gunung": 8833,
      "PM": 8834,
      "ST": 8835,
      "ane": 8836,
      "erkan": 8837,
      "enon": 8838,
      "enuhi": 8839,
      "ĠMade": 8840,
      "ĠDingin": 8841,
      "Ġhangat": 8842,
      "intasan": 8843,
      "ĠChurch": 8844,
      "Ġharfiah": 8845,
      "Ġanggotanya": 8846,
      "enggel": 8847,
      "Ġmenyebutnya": 8848,
      "ĠEmma": 8849,
      "sekitar": 8850,
      "Ġskor": 8851,
      "Ġplat": 8852,
      "Asal": 8853,
      "ĠKresna": 8854,
      "71": 8855,
      "Jalan": 8856,
      "ald": 8857,
      "alung": 8858,
      "ĠSik": 8859,
      "ĠSimp": 8860,
      "ĠPariwisata": 8861,
      "orf": 8862,
      "ĠCara": 8863,
      "ĠHigh": 8864,
      "Ġna": 8865,
      "ĠGua": 8866,
      "Ġcac": 8867,
      "Ġpendatang": 8868,
      "ĠChiang": 8869,
      "ĠOrder": 8870,
      "Ġtransm": 8871,
      "Ġhakim": 8872,
      "ĠTrin": 8873,
      "Ġsiang": 8874,
      "Ġintelijen": 8875,
      "Ġdiplomatik": 8876,
      "ĠPontianak": 8877,
      "ĠPythagoras": 8878,
      "IM": 8879,
      "LA": 8880,
      "OR": 8881,
      "bek": 8882,
      "mah": 8883,
      "tinggi": 8884,
      "yl": 8885,
      "yyah": 8886,
      "ĠÄ": 8887,
      "amba": 8888,
      "ĠSA": 8889,
      "Ġsewaktu": 8890,
      "urai": 8891,
      "ĠAji": 8892,
      "ĠBila": 8893,
      "ets": 8894,
      "iminal": 8895,
      "Ġpenambahan": 8896,
      "epsi": 8897,
      "Ġgemeente": 8898,
      "ophy": 8899,
      "Ġdibubarkan": 8900,
      "ĠBanyuwangi": 8901,
      "ĠKupang": 8902,
      "evelopment": 8903,
      "76": 8904,
      "EO": 8905,
      "enanya": 8906,
      "Ġbis": 8907,
      "amina": 8908,
      "ulaan": 8909,
      "ĠTuban": 8910,
      "upuk": 8911,
      "Ġmerusak": 8912,
      "bucks": 8913,
      "ambilan": 8914,
      "ews": 8915,
      "ĠState": 8916,
      "Ġsuami": 8917,
      "Ġpelukis": 8918,
      "Ġperlahan": 8919,
      "ohonan": 8920,
      "field": 8921,
      "Ġmeyakini": 8922,
      "Ġefisien": 8923,
      "Ġpenangkapan": 8924,
      "/B": 8925,
      "]Ċ": 8926,
      "|rowspan": 8927,
      "aser": 8928,
      "ady": 8929,
      "ikopter": 8930,
      "ĠTaj": 8931,
      "ĠIman": 8932,
      "ĠJuan": 8933,
      "ĠJurusan": 8934,
      "Ġradar": 8935,
      "egon": 8936,
      "ĠLomb": 8937,
      "Ġpemeran": 8938,
      "anjangan": 8939,
      "Ġdikunjungi": 8940,
      "Ġmendefinisikan": 8941,
      "Ġdisajikan": 8942,
      "Ġbersatu": 8943,
      "oriz": 8944,
      "Alumni": 8945,
      "Ġbersaing": 8946,
      "ĠAngeles": 8947,
      "Ġletusan": 8948,
      "ĠVictoria": 8949,
      "iramida": 8950,
      "Ts": 8951,
      "Ġaut": 8952,
      "Ġtri": 8953,
      "Ġbelahan": 8954,
      "ĠSaw": 8955,
      "ĠSaf": 8956,
      "ĠKuta": 8957,
      "Ġmenampung": 8958,
      "ĠBatang": 8959,
      "Ġlomba": 8960,
      "anteri": 8961,
      "chus": 8962,
      "Ġprotes": 8963,
      "ĠAmb": 8964,
      "awancara": 8965,
      "Ġkonsumsi": 8966,
      "Ġberjuang": 8967,
      "oyan": 8968,
      "ĠKorps": 8969,
      "ĠAbdurrahman": 8970,
      "Ġtiang": 8971,
      "ĠAndre": 8972,
      "ĠBuddh": 8973,
      "Ġsulfat": 8974,
      "amadya": 8975,
      "Ġdenominasi": 8976,
      "ĠSaturnus": 8977,
      "ĠShanghai": 8978,
      "74": 8979,
      "Set": 8980,
      "autan": 8981,
      "Ġdas": 8982,
      "ars": 8983,
      "Ġmarah": 8984,
      "ĠBagi": 8985,
      "agara": 8986,
      "ĠWanita": 8987,
      "ĠWater": 8988,
      "Ġmenyemb": 8989,
      "alaikat": 8990,
      "ĠMarinir": 8991,
      "ĠProyek": 8992,
      "Ġpelindung": 8993,
      "104": 8994,
      "174": 8995,
      "Ġkejuaraan": 8996,
      "âĢĿ,": 8997,
      "Ġuniversal": 8998,
      "Ġlarutan": 8999,
      "ĠTyrannosaurus": 9000,
      "agaimanapun": 9001,
      "-kan": 9002,
      "fo": 9003,
      "ukun": 9004,
      "ĠSensus": 9005,
      "ĠPul": 9006,
      "ĠBalik": 9007,
      "ĠTul": 9008,
      "ĠTid": 9009,
      "ĠDC": 9010,
      "ĠDeli": 9011,
      "Ġjer": 9012,
      "Ġmenginginkan": 9013,
      "Ġmengajarkan": 9014,
      "agon": 9015,
      "ĠNU": 9016,
      "ĠFac": 9017,
      "Ġdisahkan": 9018,
      "Ġpelaku": 9019,
      "-kelompok": 9020,
      "uction": 9021,
      "ancam": 9022,
      "iliun": 9023,
      "ĠAngola": 9024,
      "thur": 9025,
      "Ġmulut": 9026,
      "right": 9027,
      "Ġkoalisi": 9028,
      "Ġrumit": 9029,
      "yod": 9030,
      "Ġid": 9031,
      "arung": 9032,
      "Ġsilikon": 9033,
      "Ġkasar": 9034,
      "ĠSanta": 9035,
      "olitik": 9036,
      "ĠDat": 9037,
      "udur": 9038,
      "ĠLanka": 9039,
      "ĠWijaya": 9040,
      "Ġakuntansi": 9041,
      "ĠVik": 9042,
      "obatkan": 9043,
      "Ġmenghitung": 9044,
      "172": 9045,
      "173": 9046,
      "ĠAirlangga": 9047,
      "Ġberlawanan": 9048,
      "egion": 9049,
      "Ġriwayat": 9050,
      "Kemudian": 9051,
      "Ġdiselesaikan": 9052,
      "oskop": 9053,
      "ĠStatistik": 9054,
      "ĠCambridge": 9055,
      ".R": 9056,
      "Band": 9057,
      "Ġsidang": 9058,
      "orian": 9059,
      "Ġberedar": 9060,
      "ĠCabang": 9061,
      "ĠHij": 9062,
      "Ġnominasi": 9063,
      "embak": 9064,
      "ĠGP": 9065,
      "ĠGard": 9066,
      "ĠYos": 9067,
      "ops": 9068,
      "oharjo": 9069,
      "alue": 9070,
      "eau": 9071,
      "ĠBerikut": 9072,
      "ĠKorawa": 9073,
      "amino": 9074,
      "Ġintelektual": 9075,
      "infeksi": 9076,
      "ĠUNESCO": 9077,
      ".K": 9078,
      "ield": 9079,
      "par": 9080,
      "Ġengk": 9081,
      "Ġsumur": 9082,
      "Ġtek": 9083,
      "Ġtembaga": 9084,
      "isit": 9085,
      "ĠMitologi": 9086,
      "oln": 9087,
      "Ġhambatan": 9088,
      "Ġmenguntungkan": 9089,
      "abe": 9090,
      "Ġfon": 9091,
      "ĠYaman": 9092,
      "Ġbagus": 9093,
      "ĠAcademy": 9094,
[...]
