{
  "version": "1.0",
  "model": {
    "type": "BPE",
    "vocab": {
      "<|endoftext|>": 0,
      "<fim_prefix>": 1,
      "<fim_middle>": 2,
      "<fim_suffix>": 3,
      "<fim_pad>": 4,
      "<filename>": 5,
      "<gh_stars>": 6,
      "<issue_start>": 7,
      "<issue_comment>": 8,
      "<issue_closed>": 9,
      "<jupyter_start>": 10,
      "<jupyter_text>": 11,
      "<jupyter_code>": 12,
      "<jupyter_output>": 13,
      "<empty_output>": 14,
      "<commit_before>": 15,
      "<commit_msg>": 16,
      "<commit_after>": 17,
      "<reponame>": 18,
      "Ā": 19,
      "ā": 20,
      "Ă": 21,
      "ă": 22,
      "Ą": 23,
      "ą": 24,
      "Ć": 25,
      "ć": 26,
      "Ĉ": 27,
      "ĉ": 28,
      "Ċ": 29,
      "ċ": 30,
      "Č": 31,
      "č": 32,
      "Ď": 33,
      "ď": 34,
      "Đ": 35,
      "đ": 36,
      "Ē": 37,
      "ē": 38,
      "Ĕ": 39,
      "ĕ": 40,
      "Ė": 41,
      "ė": 42,
      "Ę": 43,
      "ę": 44,
      "Ě": 45,
      "ě": 46,
      "Ĝ": 47,
      "ĝ": 48,
      "Ğ": 49,
      "ğ": 50,
      "Ġ": 51,
      "!": 52,
      "\"": 53,
      "#": 54,
      "$": 55,
      "%": 56,
      "&": 57,
      "'": 58,
      "(": 59,
      ")": 60,
      "*": 61,
      "+": 62,
      ",": 63,
      "-": 64,
      ".": 65,
      "/": 66,
      "0": 67,
      "1": 68,
      "2": 69,
      "3": 70,
      "4": 71,
      "5": 72,
      "6": 73,
      "7": 74,
      "8": 75,
      "9": 76,
      ":": 77,
      ";": 78,
      "<": 79,
      "=": 80,
      ">": 81,
      "?": 82,
      "@": 83,
      "A": 84,
      "B": 85,
      "C": 86,
      "D": 87,
      "E": 88,
      "F": 89,
      "G": 90,
      "H": 91,
      "I": 92,
      "J": 93,
      "K": 94,
      "L": 95,
      "M": 96,
      "N": 97,
      "O": 98,
      "P": 99,
      "Q": 100,
      "R": 101,
      "S": 102,
      "T": 103,
      "U": 104,
      "V": 105,
      "W": 106,
      "X": 107,
      "Y": 108,
      "Z": 109,
      "[": 110,
      "\\": 111,
      "]": 112,
      "^": 113,
      "_": 114,
      "`": 115,
      "a": 116,
      "b": 117,
      "c": 118,
      "d": 119,
      "e": 120,
      "f": 121,
      "g": 122,
      "h": 123,
      "i": 124,
      "j": 125,
      "k": 126,
      "l": 127,
      "m": 128,
      "n": 129,
      "o": 130,
      "p": 131,
      "q": 132,
      "r": 133,
      "s": 134,
      "t": 135,
      "u": 136,
      "v": 137,
      "w": 138,
      "x": 139,
      "y": 140,
      "z": 141,
      "{": 142,
      "|": 143,
      "}": 144,
      "~": 145,
      "ġ": 146,
      "Ģ": 147,
      "ģ": 148,
      "Ĥ": 149,
      "ĥ": 150,
      "Ħ": 151,
      "ħ": 152,
      "Ĩ": 153,
      "ĩ": 154,
      "Ī": 155,
      "ī": 156,
      "Ĭ": 157,
      "ĭ": 158,
      "Į": 159,
      "į": 160,
      "İ": 161,
      "ı": 162,
      "Ĳ": 163,
      "ĳ": 164,
      "Ĵ": 165,
      "ĵ": 166,
      "Ķ": 167,
      "ķ": 168,
      "ĸ": 169,
      "Ĺ": 170,
      "ĺ": 171,
      "Ļ": 172,
      "ļ": 173,
      "Ľ": 174,
      "ľ": 175,
      "Ŀ": 176,
      "ŀ": 177,
      "Ł": 178,
      "ł": 179,
      "¡": 180,
      "¢": 181,
      "£": 182,
      "¤": 183,
      "¥": 184,
      "¦": 185,
      "§": 186,
      "¨": 187,
      "©": 188,
      "ª": 189,
      "«": 190,
      "¬": 191,
      "Ń": 192,
      "®": 193,
      "¯": 194,
      "°": 195,
      "±": 196,
      "²": 197,
      "³": 198,
      "´": 199,
      "µ": 200,
      "¶": 201,
      "·": 202,
      "¸": 203,
      "¹": 204,
      "º": 205,
      "»": 206,
      "¼": 207,
      "½": 208,
      "¾": 209,
      "¿": 210,
      "À": 211,
      "Á": 212,
      "Â": 213,
      "Ã": 214,
      "Ä": 215,
      "Å": 216,
      "Æ": 217,
      "Ç": 218,
      "È": 219,
      "É": 220,
      "Ê": 221,
      "Ë": 222,
      "Ì": 223,
      "Í": 224,
      "Î": 225,
      "Ï": 226,
      "Ð": 227,
      "Ñ": 228,
      "Ò": 229,
      "Ó": 230,
      "Ô": 231,
      "Õ": 232,
      "Ö": 233,
      "×": 234,
      "Ø": 235,
      "Ù": 236,
      "Ú": 237,
      "Û": 238,
      "Ü": 239,
      "Ý": 240,
      "Þ": 241,
      "ß": 242,
      "à": 243,
      "á": 244,
      "â": 245,
      "ã": 246,
      "ä": 247,
      "å": 248,
      "æ": 249,
      "ç": 250,
      "è": 251,
      "é": 252,
      "ê": 253,
      "ë": 254,
      "ì": 255,
      "í": 256,
      "î": 257,
      "ï": 258,
      "ð": 259,
      "ñ": 260,
      "ò": 261,
      "ó": 262,
      "ô": 263,
      "õ": 264,
      "ö": 265,
      "÷": 266,
      "ø": 267,
      "ù": 268,
      "ú": 269,
      "û": 270,
      "ü": 271,
      "ý": 272,
      "þ": 273,
      "ÿ": 274,
      "an": 4275,
      "aĠ": 4276,
      "anĠ": 4277,
      "iĠ": 4278,
      "er": 4279,
      "en": 4280,
      "at": 4284,
      "ar": 4281,
      "Ġd": 4286,
      "ah": 4283,
      "ang": 4285,
      "al": 4287,
      "ĠĠ": 4282,
      "as": 4290,
      "in": 4291,
      "ak": 4289,
      ",Ġ": 4288,
      "se": 4292,
      ".Ġ": 4293,
      "un": 4295,
      "ik": 4302,
      "Ġm": 4298,
      "ad": 4297,
      "em": 4296,
      "am": 4294,
      "is": 4300,
      "it": 4299,
      "el": 4306,
      "on": 4320,
      "yang": 4305,
      "eng": 4303,
      "uk": 4309,
      "Ġp": 4313,
      "Ġb": 4484,
      "ter": 4352,
      "il": 4316,
      "yaĠ": 4312,
      "ap": 4311,
      "us": 4301,
      "es": 4304,
      "Ġk": 4314,
      "ek": 4342,
      "or": 4326,
      "ĠdanĠ": 4324,
      "kanĠ": 4322,
      "ir": 4321,
      "iaĠ": 4394,
      "ahĠ": 4308,
      "ol": 4349,
      "ur": 4310,
      "ut": 4315,
      "ag": 4317,
      "um": 4343,
      "ing": 4332,
      "uĠ": 4340,
      "ul": 4328,
      "adaĠ": 4347,
      "per": 4334,
      "seb": 4325,
      "ber": 4307,
      "iĠd": 4353,
      "id": 4345,
      "im": 4351,
      "et": 4331,
      "ĠĠ0": 4339,
      "Ġyang": 4433,
      "om": 4419,
      "tr": 4446,
      "Ġdi": 4363,
      "alam": 4341,
      "araĠ": 4329,
      "asaĠ": 4427,
      "aiĠ": 4333,
      "ariĠ": 4336,
      "akanĠ": 4346,
      "eny": 4981,
      "Ġt": 4318,
      "1ĠĠ": 4330,
      "Ġber": 4468,
      "enganĠ": 4354,
      "eb": 4398,
      "ung": 4367,
      "tuk": 4374,
      "ahasaĠ": 2725,
      "ab": 4319,
      "a.Ġ": 4338,
      "a,Ġ": 4335,
      "Ġs": 4442,
      "aĠd": 4323,
      "anĠd": 4357,
      "Ġse": 4405,
      "nyaĠ": 4350,
      "ay": 4386,
      "Ġter": 4387,
      "Ġ(": 4402,
      "ot": 4399,
      "ih": 4391,
      "up": 4361,
      "and": 4364,
      "ata": 4455,
      "eh": 2745,
      "ud": 4344,
      "In": 4369,
      "Ġmen": 4355,
      "ed": 4410,
      "iĠm": 4758,
      "emb": 4358,
      "Ġl": 3986,
      "untuk": 4396,
      "ant": 4376,
      "aw": 4327,
      "agaiĠ": 4382,
      "ayaĠ": 4627,
      "eg": 4445,
      "aĠm": 4337,
      "9ĠĠ": 4389,
      "adal": 391,
      ",ĠdanĠ": 4400,
      "ĠB": 4605,
      "ain": 4429,
      "ĠdariĠ": 4411,
      "Ġmeng": 4413,
      "ianĠ": 4373,
      "apat": 4511,
      "tah": 4409,
      "end": 4464,
      "ĠĠ0ĠĠ": 4454,
      "oleh": 4650,
      "rit": 2848,
      "Ġin": 404,
      "uh": 4430,
      "ent": 4465,
      "aanĠ": 4423,
      "atanĠ": 4591,
      "asiĠ": 4523,
      "if": 4522,
      ".ĠP": 4444,
      "ĠdiĠ": 4395,
      "padaĠ": 4415,
      "akit": 414,
      "ist": 4383,
      "sebagaiĠ": 4397,
      "aj": 4377,
      "ke": 4360,
      "ug": 4896,
      "os": 4527,
      "ĠĠ1ĠĠ": 4371,
      "ro": 2382,
      "irus": 423,
      "Ġke": 4388,
      "idak": 4480,
      "gun": 4630,
      "ip": 4380,
      "ritan": 428,
      "Ġ,Ġ": 4460,
      "siĠ": 4485,
      "enyakit": 431,
      "jad": 4440,
      "ĠpadaĠ": 4488,
      "angĠ": 4370,
      "pert": 4620,
      "ub": 4477,
      ")Ġ": 4535,
      "Ġmem": 4417,
      ".ĠS": 4420,
      "an,Ġ": 4443,
      "ikaĠ": 4669,
      "ion": 2415,
      "emat": 443,
      "ok": 4393,
      "amaĠ": 4381,
      "bahasaĠ": 4596,
      "ritaniaĠ": 447,
      "ĠdenganĠ": 4438,
      "ektr": 449,
      "tahun": 4449,
      "alĠ": 4379,
      "virus": 452,
      "ny": 4426,
      "eĠ": 4543,
      "don": 455,
      "anyaĠ": 4447,
      "any": 4462,
      "ib": 4416,
      "i,Ġ": 4435,
      "og": 4434,
      "Ġper": 4414,
      "ep": 4481,
      "atĠ": 4348,
      "Ġdalam": 4676,
      "anĠm": 465,
      "caraĠ": 4432,
      "sebut": 4408,
      "ĠĠ2": 4385,
      "ebih": 469,
      "Indon": 470,
      "ingg": 4547,
      "Indones": 4493,
      "Ġ1ĠĠ": 4404,
      "elektr": 474,
      "ataĠ": 4506,
      "art": 4606,
      "adalahĠ": 4451,
      "jug": 4565,
      "ĠS": 4431,
      "atemat": 480,
      "ĠP": 4437,
      "jar": 4155,
      "gunakanĠ": 4743,
      "ritaniaĠR": 484,
      "od": 4441,
      "jadiĠ": 4471,
      "anĠp": 487,
      "elektron": 488,
      "ilik": 4507,
      "angg": 4461,
      "ig": 4578,
      "Ġh": 492,
      "neg": 4726,
      "esar": 3093,
      "aliĠ": 4579,
      "mu": 496,
      "atauĠ": 4601,
      "mas": 4475,
      "ĠĠ0ĠĠ0ĠĠ": 4957,
      ".ĠK": 4479,
      "bah": 4365,
      "pertiĠ": 4615,
      "aĠp": 503,
      "Ġ2": 4452,
      "ĠĠ1ĠĠ9ĠĠ": 4545,
      "amp": 4472,
      "anyak": 3150,
      ".ĠB": 4948,
      "ilikiĠ": 4575,
      "isĠ": 4715,
      "land": 2576,
      "ic": 4598,
      "lain": 4524,
      "aĠk": 514,
      "itas": 4761,
      "atau": 4967,
      "ĠA": 4649,
      "eber": 4558,
      "itu": 4478,
      "st": 4467,
      "imiaĠ": 521,
      "anganĠ": 4495,
      "uanĠ": 4612,
      "diĠ": 4961,
      "sek": 4542,
      "ial": 2716,
      "Ġdapat": 3930,
      ".ĠD": 4473,
      "entuk": 2572,
      "gr": 2622,
      "aren": 4489,
      "men": 4378,
      "ikanĠ": 4422,
      "isiĠ": 4428,
      "orang": 4561,
      "elah": 3208,
      "erup": 4504,
      "op": 4555,
      "sel": 4496,
      "tidak": 4645,
      "eberap": 3856,
      ".ĠM": 4808,
      "adalah": 3146,
      "ukanĠ": 4476,
      "ĠbahasaĠ": 545,
      "ritaniaĠRayaĠ": 546,
      "IndonesiaĠ": 4679,
      "kon": 4750,
      "meng": 4466,
      "sat": 4528,
      "omp": 4946,
      "olehĠ": 4459,
      "erupakanĠ": 4508,
      "ser": 4515,
      "etap": 4491,
      "ac": 4531,
      "enyeb": 557,
      "ew": 4518,
      "uat": 4483,
      "ĠM": 4503,
      "ĠĠ0Ġ": 3063,
      "pen": 4401,
      "iv": 2580,
      "emp": 4486,
      "asar": 2762,
      "ia.Ġ": 2635,
      "ob": 4529,
      "Ġr": 568,
      "Ġ|": 569,
      "ukt": 570,
      "akt": 3008,
      "iniĠ": 4425,
      "yangĠdi": 4599,
      "waĠ": 4407,
      "ĠK": 4617,
      "asil": 2837,
      "a-": 4512,
      "iĠdalam": 578,
      "ĠT": 4573,
      "Ġdit": 4533,
      "oh": 4541,
      "ingk": 4810,
      "eor": 583,
      "anj": 4502,
      "af": 4614,
      "Ġtidak": 4691,
      "ind": 4602,
      "sepertiĠ": 4690,
      "negaraĠ": 2775,
      "),Ġ": 4559,
      "uayaĠ": 591,
      "lebih": 4949,
      "air": 4000,
      "Ġdik": 4656,
      "kanĠd": 4572,
      "Ġpeng": 4901,
      "pr": 4469,
      "peng": 4514,
      "Ing": 2846,
      ".ĠA": 2701,
      "besar": 4858,
      "Ġmel": 4580,
      "Inggr": 2858,
      "nya,Ġ": 4636,
      "olog": 4797,
      "ikĠ": 4587,
      "secaraĠ": 4647,
      "eks": 4644,
      "atematik": 609,
      "ari": 2819,
      "yangĠber": 4551,
      "hasil": 4895,
      "kot": 2469,
      "of": 2524,
      "alahĠ": 4403,
      "elay": 616,
      "ener": 4256,
      "angk": 4546,
      "umum": 4897,
      "ikel": 620,
      "atom": 621,
      "8ĠĠ": 4576,
      "kin": 623,
      "agianĠ": 4783,
      "Ã¢": 625,
      "7ĠĠ": 4632,
      "antaraĠ": 4574,
      "BritaniaĠRayaĠ": 628,
      ".ĠPadaĠ": 4814,
      "uar": 3090,
      "Ġuntuk": 3660,
      "landiaĠ": 632,
      "ia,Ġ": 2770,
      "annyaĠ": 4509,
      "erek": 4490,
      "uj": 4775,
      "âĢ": 4500,
      "enyebab": 638,
      "atematikaĠ": 639,
      "Ġ1ĠĠ9ĠĠ": 4642,
      "angs": 4675,
      "ula": 2899,
      ",Ġm": 4844,
      "Ġlebih": 644,
      "ya": 4648,
      "artikel": 646,
      "ional": 3492,
      "Inggris": 3397,
      "hingg": 649,
      "amb": 4536,
      "arenaĠ": 4539,
      "ĠiniĠ": 4856,
      "Ġpenyakit": 653,
      "dapat": 4871,
      "uiĠ": 4668,
      "Per": 4727,
      "Ġmas": 2880,
      "re": 2614,
      "di": 659,
      "anĠk": 660,
      "BahasaĠ": 2882,
      "uml": 662,
      "int": 2729,
      ".ĠT": 4891,
      "ont": 2656,
      "Un": 4789,
      "anak": 4951,
      "sep": 4920,
      "nya.Ġ": 4609,
      "ĠyangĠber": 3307,
      "atas": 4880,
      "emer": 672,
      "aks": 4870,
      "6ĠĠ": 4628,
      ",Ġk": 675,
      "iĠdariĠ": 4803,
      "ec": 2689,
      "ej": 4526,
      "itar": 679,
      "ĠH": 2982,
      "est": 4893,
      "tent": 4774,
      "ias": 4791,
      "tetap": 4583,
      "sejar": 3566,
      "Ġlain": 686,
      "Ir": 2741,
      "Melay": 688,
      "gen": 689,
      "ilm": 4910,
      "ef": 4890,
      "abad": 4613,
      "Wal": 693,
      "Ġj": 694,
      "onom": 3099,
      "istem": 2666,
      "har": 4474,
      "astr": 4700,
      "anĠdanĠ": 4603,
      "uaĠ": 4470,
      "Ġc": 701,
      "ĠD": 4625,
      "ĠmemilikiĠ": 4809,
      "ong": 4716,
      "5ĠĠ": 4577,
      "eberapaĠ": 4597,
      "Ġ.Ġ": 4540,
      "emilikiĠ": 708,
      "BaliĠ": 709,
      "danĠ": 4678,
      "idup": 4732,
      "iĠk": 712,
      "energ": 713,
      "ĠsebagaiĠ": 4869,
      "jugaĠ": 4673,
      "embang": 2620,
      "ungkin": 3200,
      "ĠC": 4968,
      "bahwaĠ": 4463,
      "ump": 720,
      "ĠR": 3279,
      "set": 722,
      "aranĠ": 4456,
      "ĠmenjadiĠ": 4735,
      "inf": 725,
      "bed": 4934,
      "4ĠĠ": 4563,
      "ses": 2891,
      "res": 4626,
      "ibat": 730,
      "sem": 4550,
      "ĠyangĠdi": 732,
      "amaĠd": 733,
      "iĠdenganĠ": 4864,
      "ahun": 3559,
      "banyak": 3481,
      "ĠL": 4892,
      "las": 738,
      "Ġ%": 4927,
      "penyakit": 740,
      "tahunĠĠ1ĠĠ9ĠĠ": 4944,
      "anaĠ": 4513,
      "amun": 3167,
      "ia": 3583,
      "anĠdenganĠ": 4731,
      "war": 4742,
      "Ġmemb": 4610,
      "ahanĠ": 4733,
      "etah": 3140,
      "ĠG": 2933,
      "elas": 751,
      "uniaĠ": 2929,
      "upun": 753,
      "ers": 2616,
      "Ġke-": 4769,
      "olek": 756,
      ",Ġd": 2901,
      "ism": 4607,
      ",Ġyang": 759,
      "had": 4778,
      "gan": 761,
      "aling": 3802,
      "sp": 2966,
      "ituĠ": 4600,
      "tersebut": 4552,
      "bag": 4538,
      "str": 2860,
      "ĠĠ2ĠĠ0ĠĠ0ĠĠ": 2868,
      "etik": 769,
      "enter": 770,
      "imp": 4824,
      "jugaĠm": 772,
      "atif": 2768,
      "uas": 3741,
      "inyaĠ": 4687,
      "ilay": 2527,
      "ens": 3078,
      ")Ġ|": 778,
      "masuk": 4745,
      "Ġn": 780,
      "arak": 781,
      "akh": 4520,
      "aer": 4843,
      "abadĠke-": 4906,
      "Wales": 785,
      "3ĠĠ": 4516,
      "uduk": 2663,
      "iĠdanĠ": 4595,
      "-k": 789,
      "juml": 790,
      "ekonom": 3949,
      "ustr": 2828,
      "imb": 793,
      "fis": 3633,
      "esk": 4759,
      "satuĠ": 4846,
      "anĠyang": 797,
      "ifik": 3855,
      "Ġof": 3558,
      "dalam": 800,
      "aĠyang": 801,
      "imor": 802,
      "istr": 2998,
      "ulis": 4517,
      "eksiĠ": 805,
      "olekul": 806,
      "aksiĠ": 807,
      "orm": 2660,
      "ran": 4592,
      "Bal": 810,
      "Ġmeny": 4532,
      "Ġtahun": 812,
      "Ġsel": 4960,
      "empat": 4816,
      "iĠdiĠ": 4800,
      "Ġpen": 4730,
      "ng": 817,
      "Ã¨": 818,
      "emud": 4537,
      "mer": 2465,
      "hadap": 821,
      "ert": 4872,
      "ingkat": 3613,
      "Ġkon": 824,
      "ilmu": 825,
      "aĠdanĠ": 4458,
      "denganĠ": 4757,
      "Ġg": 828,
      "ĠmerupakanĠ": 4790,
      "heĠ": 2683,
      "asal": 4976,
      "ontoh": 3034,
      "dang": 833,
      "i.Ġ": 4618,
      "ubung": 835,
      "isal": 836,
      "tar": 4705,
      "i-": 4977,
      "ern": 2980,
      "IrlandiaĠ": 3179,
      "energiĠ": 841,
      "sa": 4487,
      "pro": 2758,
      "bentuk": 4954,
      "teor": 845,
      "elahĠ": 4815,
      "awanĠ": 4835,
      "an.Ġ": 4662,
      "asional": 849,
      "endir": 4826,
      "lik": 851,
      "dasar": 852,
      "ov": 3586,
      "ilih": 3294,
      "perk": 4952,
      "sif": 2830,
      "ianĠd": 3793,
      "aĠ(": 4994,
      "utamaĠ": 2960,
      "unj": 3232,
      "organ": 861,
      "aru": 862,
      "urun": 4781,
      "enduduk": 3155,
      "av": 3806,
      "aik": 4830,
      "iĠb": 867,
      "umb": 868,
      "satu": 4916,
      "ĠsepertiĠ": 870,
      "sekitar": 2970,
      "ch": 4016,
      "inter": 3072,
      "wilay": 2578,
      "akhir": 4608,
      "Ġtersebut": 4629,
      "ĠsecaraĠ": 4993,
      "Skot": 878,
      "ĠdigunakanĠ": 4097,
      "rop": 2924,
      "ilahĠ": 3022,
      "enal": 882,
      "zat": 883,
      "ipun": 3380,
      "sebu": 2591,
      "ritaniaĠRay": 886,
      "an-": 4594,
      "hinggaĠ": 4604,
      "uranĠ": 4670,
      "sert": 890,
      "termasuk": 4932,
      "ĠE": 892,
      "anding": 893,
      "isme": 2691,
      "ĠiniĠm": 895,
      "Ġpert": 4641,
      "etikaĠ": 3810,
      "jugaĠd": 3644,
      "kanĠk": 899,
      "9Ġ": 900,
      "seh": 3598,
      "yarak": 3029,
      "iasanyaĠ": 903,
      "ukum": 904,
      "eskipun": 3631,
      "Ġf": 906,
      "ahĠp": 907,
      "omb": 3916,
      "ikat": 909,
      "telah": 4905,
      "rot": 911,
      "iĠyang": 912,
      "yak": 4697,
      "ĠyangĠter": 914,
      "alis": 3149,
      "ĠadalahĠ": 2943,
      "sistem": 2796,
      "ĠatauĠ": 3444,
      "uruh": 919,
      "ort": 2985,
      "jen": 3822,
      "asi": 4448,
      "NA": 923,
      "Ġtelah": 3330,
      "ahkanĠ": 4834,
      "iap": 926,
      "Ġbanyak": 927,
      "iĠdi": 4226,
      "aluiĠ": 3212,
      "ejar": 930,
      "ulauĠ": 2402,
      "antar": 4945,
      "ater": 933,
      "ode": 934,
      "kimiaĠ": 935,
      ".ĠDalam": 936,
      "unc": 2931,
      "elum": 4635,
      "dir": 4989,
      "urang": 940,
      "usiaĠ": 941,
      "MelayuĠ": 942,
      "1Ġ": 943,
      "iniĠm": 944,
      "ĠdanĠm": 945,
      "raf": 946,
      "istor": 3476,
      "berk": 948,
      "ayo": 949,
      "anggot": 950,
      "ev": 4499,
      "ĠN": 4875,
      ".ĠSeb": 3234,
      "elaj": 954,
      "urut": 4747,
      "a.ĠS": 4643,
      "hasilkanĠ": 957,
      "ron": 958,
      "Ġvirus": 959,
      "aĠs": 960,
      "orangĠ": 4534,
      "aupun": 4980,
      "Erop": 3194,
      "ialek": 964,
      "aĠb": 965,
      "ilak": 966,
      "son": 3780,
      "-Ġ|": 968,
      "bagaiĠ": 969,
      "ans": 3265,
      "enting": 3348,
      "Ġ\"": 4971,
      "ĠĠ0Ġ,Ġ": 3130,
      "le": 3759,
      "Is": 2453,
      "angat": 976,
      "hanyaĠ": 4741,
      "Ġbesar": 978,
      "usus": 979,
      ",Ġb": 980,
      "untukĠmeng": 3030,
      "emik": 3170,
      "ograf": 3375,
      "Ġsek": 984,
      "Ġ2ĠĠ0ĠĠ0ĠĠ": 3057,
      "yaitu": 3062,
      "uktur": 3010,
      "erj": 4553,
      "Ġdis": 3473,
      "ĠJ": 3243,
      "ananĠ": 4708,
      "iĠp": 992,
      "elomp": 993,
      "lin": 994,
      "fisik": 995,
      "Timor": 3141,
      "ĠkarenaĠ": 4933,
      "sebagianĠ": 3355,
      "unjuk": 999,
      "erm": 3624,
      "enalĠ": 1001,
      "kec": 3065,
      "Ch": 3486,
      "ku": 2720,
      "emen": 4923,
      "sen": 4787,
      "8Ġ": 1007,
      "intah": 1008,
      "6Ġ": 1009,
      "ensiĠ": 2885,
      "enc": 3024,
      ",Ġdi": 3128,
      "arkanĠ": 4611,
      "suat": 4655,
      "ĠĠ2ĠĠ0ĠĠ": 2803,
      "sebab": 1016,
      "jak": 1017,
      "1Ġ,Ġ": 3362,
      "a.ĠP": 4866,
      "ĠĠ2ĠĠ": 4557,
      "ger": 3333,
      "aruh": 1022,
      ".ĠN": 3372,
      "enjadiĠ": 1024,
      "sejarah": 1025,
      "agn": 1026,
      "untukĠmen": 4984,
      "emerintah": 1028,
      "a,ĠdanĠ": 4722,
      "jut": 1030,
      "Ġbah": 1031,
      "hubung": 3064,
      "ologiĠ": 2878,
      "etr": 4008,
      "udiĠ": 1035,
      "ein": 1036,
      "gant": 2884,
      "anĠdiĠ": 4884,
      "akibat": 1039,
      "imur": 1040,
      "ĠyangĠs": 1041,
      "aĠdenganĠ": 4704,
      "elain": 1043,
      "emuk": 1044,
      "tahunĠĠ1ĠĠ": 2967,
      "ukuĠ": 2865,
      "an,ĠdanĠ": 2778,
      "itis": 1048,
      "Ġmer": 2553,
      "eraj": 1050,
      "anĠdalam": 1051,
      "nasional": 3303,
      "adang": 1053,
      "elompok": 4018,
      "akter": 1055,
      "und": 2764,
      "adi": 1057,
      "alaĠ": 4876,
      "aut": 1059,
      "luar": 1060,
      "Ġdip": 3352,
      ",Ġse": 1062,
      "yarakat": 1063,
      "Ġadalah": 1064,
      "tingg": 2851,
      "ekt": 1066,
      "arl": 1067,
      "unt": 1068,
      "wilayahĠ": 2651,
      "umpul": 4108,
      "utur": 3878,
      "Ġpaling": 1072,
      "yangĠter": 4831,
      "tangg": 1074,
      "sifat": 1075,
      "adaanĠ": 1076,
      "Ġ2ĠĠ0ĠĠ": 2926,
      "Gayo": 1078,
      "Ġelektron": 1079,
      "sid": 1080,
      "asanĠ": 4777,
      "wakt": 1082,
      "salahĠ": 3026,
      ",ĠdenganĠ": 3173,
      "BritaniaĠRay": 1085,
      "ikut": 4683,
      "ipt": 3458,
      "anggap": 1088,
      "ionalĠ": 3097,
      "Amer": 3032,
      "Ġdib": 4974,
      "erap": 1092,
      "kanĠoleh": 1093,
      "agam": 2969,
      "sur": 3506,
      "ĠmenggunakanĠ": 3754,
      "au": 4684,
      "odern": 3126,
      "bit": 1099,
      "tahunĠĠ2ĠĠ0ĠĠ0ĠĠ": 3490,
      "infeksiĠ": 1101,
      "ium": 1102,
      "ual": 1103,
      "hal": 2777,
      "2ĠĠ": 3023,
      "tetapiĠ": 4677,
      "asalĠdariĠ": 3753,
      "ilanganĠ": 1108,
      "masing": 4006,
      "ĠbuayaĠ": 1110,
      "ĠkimiaĠ": 1111,
      "Yah": 2731,
      "Ar": 4566,
      "eluar": 1114,
      "olah": 1115,
      "ivers": 2799,
      "anjang": 1117,
      ".ĠH": 3190,
      "perl": 3801,
      "-L": 1120,
      "osit": 1121,
      "Ġmatematik": 1122,
      "IrlandiaĠU": 1123,
      "mel": 4688,
      "enyebabkanĠ": 1125,
      "arat": 4046,
      "sendir": 4975,
      "e,Ġ": 3241,
      "husus": 1129,
      "is,Ġ": 2916,
      "a)": 4765,
      "emukanĠ": 1132,
      ".ĠE": 3853,
      "sering": 3280,
      "ĠW": 4163,
      "-Ġ": 2476,
      "Il": 1137,
      "partikel": 1138,
      "namaĠ": 4589,
      "ĠadaĠ": 1140,
      "kanĠdenganĠ": 3674,
      "ejarahĠ": 3804,
      "jelas": 1143,
      "Ġatau": 1144,
      "airil": 1145,
      "ĠBaliĠ": 1146,
      "ton": 1147,
      "ael": 1148,
      "mem": 4581,
      "ian,Ġ": 3533,
      "anĠdariĠ": 4665,
      "itus": 1152,
      "elit": 1153,
      "Ġv": 1154,
      "dasarkanĠ": 1155,
      "sebuahĠ": 4886,
      "jenis": 1157,
      "ekan": 1158,
      "Ser": 3124,
      "itu,Ġ": 4953,
      "uf": 1161,
      "atakanĠ": 4736,
      "ungg": 3147,
      "aerahĠ": 2490,
      "aĠdiĠ": 4560,
      "âĢĵ": 4646,
      "ell": 1167,
      "atur": 2748,
      "Mad": 2956,
      "ifikasiĠ": 4205,
      "Ġpengetah": 1171,
      "struktur": 3214,
      "ĠmatematikaĠ": 1173,
      "ĠAn": 3779,
      "entaraĠ": 2950,
      "negar": 3399,
      "ender": 3548,
      "Ġumum": 1178,
      "ampaiĠ": 3359,
      "memilikiĠ": 2728,
      "Ġsejar": 1181,
      "5Ġ": 1182,
      ":Ġ": 4755,
      "idang": 1184,
      "asus": 1185,
      "ies": 1186,
      "ath": 1187,
      "Virus": 1188,
      "uatanĠ": 1189,
      "anc": 4767,
      "seluruh": 3608,
      "AmerikaĠ": 3195,
      "uku": 1193,
      "ubah": 2925,
      "istilahĠ": 3374,
      "engk": 3923,
      "iĠ(": 3794,
      "gar": 4839,
      "taraĠ": 4947,
      "Ġinf": 1200,
      "ĠF": 1201,
      "uisiĠ": 1202,
      "ilmuĠ": 3340,
      ".ĠPenyakit": 1204,
      "ĠBritaniaĠRayaĠ": 1205,
      "kal": 4746,
      "iter": 4990,
      "Ġ2ĠĠ": 4694,
      "kataĠ": 2607,
      "berbagaiĠ": 3253,
      "unjukkanĠ": 1211,
      "uncul": 3226,
      "samaĠ": 3103,
      "sum": 4930,
      "opul": 3186,
      "0ĠĠ0ĠĠ0ĠĠ": 1216,
      "Ġkec": 1217,
      "Ġkomp": 1218,
      "buayaĠ": 1219,
      "-Lest": 1220,
      "seorang": 4862,
      "Ġdid": 1222,
      "terhadap": 3815,
      "erekaĠ": 4621,
      "cap": 1225,
      "Indonesia.Ġ": 3833,
      "iw": 3472,
      "sejarahĠ": 3658,
      "a\"": 4754,
      "amanĠ": 4795,
      "urn": 1231,
      "epat": 1232,
      "semu": 1233,
      "muatanĠ": 1234,
      "kuant": 1235,
      "perc": 3637,
      "aianĠ": 1237,
      "ast": 4801,
      ".ĠI": 1239,
      "iniĠd": 4718,
      "contoh": 3268,
      "terk": 1242,
      "ge": 3827,
      "gel": 3990,
      "enalĠsebagaiĠ": 1245,
      "nyaĠd": 4701,
      "ulaiĠ": 4681,
      "Ġpro": 1248,
      "man": 1249,
      "itik": 1250,
      "olus": 1251,
      "Ġseb": 1252,
      "ins": 3331,
      "alah": 2914,
      "angsaĠ": 1255,
      "asing": 1256,
      "sebagianĠbesar": 1257,
      "iĠmeng": 1258,
      "erajaanĠ": 1259,
      "aryaĠ": 1260,
      "Mar": 4823,
      "ĠBahasaĠ": 1262,
      "Ġser": 1263,
      "fung": 3283,
      "yaituĠ": 4919,
      "yakn": 3449,
      ".ĠG": 4254,
      "trans": 3788,
      "Madur": 3296,
      "bert": 3870,
      "istrik": 1271,
      "esir": 3978,
      "ij": 3418,
      "memb": 4904,
      "ust": 1275,
      "iar": 1276,
      "utamaĠd": 1277,
      "saat": 1278,
      "bahw": 3994,
      "Ġdisebut": 1280,
      "isalnyaĠ": 1281,
      "rom": 1282,
      ".ĠPer": 3228,
      "istik": 1284,
      "Pran": 1285,
      "alu": 2827,
      "uis": 1287,
      "An": 4850,
      "ĠyangĠmeng": 1289,
      "ian": 3102,
      "a.ĠD": 4717,
      "lak": 2983,
      "iny": 3006,
      "aim": 2771,
      "abil": 1295,
      "dik": 1296,
      "Melayu": 1297,
      "abadĠke-Ġ1ĠĠ": 3570,
      "Ġpem": 4911,
      "jal": 4851,
      "Ġmend": 3622,
      "osial": 1302,
      "th": 3595,
      "uang": 1304,
      "-anak": 1305,
      "ilmuĠpengetah": 1306,
      "SkotlandiaĠ": 1307,
      "adat": 1308,
      "igaĠ": 4234,
      "pemb": 4825,
      "gaĠ": 4392,
      "aĠdalam": 1312,
      "sam": 4707,
      "angkanĠ": 4852,
      "beberapaĠ": 4686,
      "terutamaĠ": 3984,
      "Austr": 3098,
      "gh": 1318,
      "ĠhanyaĠ": 1319,
      "emudianĠ": 4658,
      "bud": 3045,
      "pend": 4667,
      "As": 3235,
      "berikanĠ": 4817,
      "awaĠ": 4521,
      "ord": 2957,
      "ewanĠ": 3776,
      "pem": 4549,
      "Ġst": 1329,
      "-Leste": 1330,
      "ĠdalamĠ": 4497,
      "Ġoleh": 1332,
      "ihat": 4848,
      "aan": 3169,
      "oritas": 3969,
      "bahasaĠIndonesiaĠ": 1336,
      "akan": 1337,
      "aham": 1338,
      "Ġbag": 1339,
      "gunaanĠ": 3526,
      "a:": 1341,
      "anjut": 3708,
      "enar": 1343,
      "unsur": 1344,
      "ukup": 3577,
      "uhanĠ": 2608,
      "efin": 3210,
      "-b": 1348,
      "Chairil": 1349,
      "aruĠ": 1350,
      "edu": 1351,
      "sin": 1352,
      "spes": 4174,
      "Ol": 1354,
      "tentu": 2898,
      "wis": 2999,
      "fer": 1357,
      "cat": 4197,
      "ish": 1359,
      "kanĠolehĠ": 4137,
      "oton": 1361,
      "BritaniaĠ": 3719,
      "matematik": 1363,
      "ĠyangĠlebih": 1364,
      "Or": 4939,
      "aĠmeng": 4640,
      "fakt": 1367,
      "apanĠ": 3088,
      "al,Ġ": 2945,
      "masaĠ": 3420,
      "eland": 1371,
      "ikatanĠ": 1372,
      "jumlah": 1373,
      "artiĠ": 3037,
      "Ġberk": 1375,
      ")ĠdanĠ": 3419,
      "Ġpul": 1377,
      "ĠĠ1": 1378,
      "-masing": 1379,
      "ĠĠ0Ġ-": 1380,
      "idik": 1381,
      "namun": 1382,
      "-t": 1383,
      "perkir": 1384,
      "tan": 2881,
      "aĠpenyakit": 1386,
      "astro": 1387,
      "yangĠmeng": 2873,
      "terb": 1389,
      "sertaĠ": 2962,
      "7Ġ": 1391,
      "arah": 1392,
      "unganĠ": 4885,
      ".ĠIn": 1394,
      "terdapat": 1395,
      "lainnyaĠ": 3068,
      "uny": 1397,
      "yangĠs": 1398,
      "Contoh": 1399,
      "ehidup": 1400,
      "ulit": 1401,
      "etode": 1402,
      "bi": 2783,
      "anak-anak": 1404,
      "Ã«": 1405,
      "Ġtetap": 1406,
      "ult": 3640,
      "3Ġ": 1408,
      "ĠI": 1409,
      "lam": 1410,
      "enaiĠ": 4913,
      "9Ġ,Ġ": 3455,
      "iversitas": 1413,
      "ivitas": 1414,
      "min": 4837,
      "aerah": 1416,
      "\",Ġ": 3007,
      "hat": 1418,
      ",ĠsepertiĠ": 3593,
      "amin": 1420,
      "hukum": 3668,
      "Neg": 2937,
      "enj": 1423,
      "ografiĠ": 4257,
      "Ġmasih": 1425,
      "li": 1426,
      "ow": 4066,
      "gerak": 1428,
      "duk": 3460,
      "Ġpartikel": 1430,
      "teoriĠ": 3270,
      "anggotaĠ": 1432,
      "ĠPer": 4219,
      "i,ĠdanĠ": 3049,
      "terl": 3184,
      "negara-": 1436,
      "negara-negaraĠ": 1437,
      "ket": 4710,
      "beberap": 4216,
      "ĠdiĠd": 3005,
      "ilang": 1441,
      "Ġhidup": 1442,
      ".ĠBahasaĠ": 3830,
      "alamiĠ": 3766,
      "merupakanĠ": 2872,
      "ait": 4883,
      "ular": 1447,
      "esis": 1448,
      "PulauĠ": 2479,
      ".ĠNamun": 1450,
      "rasiĠ": 1451,
      "ĠpertamaĠ": 1452,
      "cab": 3874,
      "red": 1454,
      "atus": 1455,
      "jumlahĠ": 3402,
      "oc": 3544,
      "auh": 1458,
      "Ġmungkin": 1459,
      "4Ġ": 1460,
      "padaĠtahunĠĠ1ĠĠ9ĠĠ": 4118,
      "ĠdiĠdalam": 1462,
      "ary": 1463,
      "diriĠdariĠ": 1464,
      ",ĠĠ1ĠĠ9ĠĠ": 1465,
      "Ġ=": 1466,
      "Ġman": 1467,
      "obat": 1468,
      "kuantum": 1469,
      "Skotland": 1470,
      "rael": 2696,
      "waktu": 3403,
      "a.ĠM": 1473,
      "ĠolehĠ": 1474,
      "ĠBritaniaĠ": 1475,
      "awal": 4749,
      "cipt": 1477,
      "elajar": 1478,
      "ĠtheĠ": 3113,
      "elat": 1480,
      "tingkat": 1481,
      "ang,Ġ": 3367,
      "bahasaĠMelayuĠ": 1483,
      "aat": 1484,
      "iĠoleh": 1485,
      "ĠjugaĠ": 3540,
      "baw": 3192,
      "ĠbiasanyaĠ": 1488,
      "a.ĠK": 4674,
      "sub": 3582,
      "tern": 1491,
      "Ġkecil": 1492,
      "tor": 3263,
      "hidup": 4764,
      "oy": 4094,
      "med": 1496,
      "Ġsp": 1497,
      "iz": 4776,
      "ard": 3629,
      "posit": 1500,
      "Ġmolekul": 1501,
      "organik": 1502,
      "sehatanĠ": 4263,
      "arlemen": 4095,
      "ĠyangĠmen": 1505,
      "ekonomiĠ": 1506,
      "ahl": 1507,
      "ĠdanĠk": 1508,
      "isasiĠ": 1509,
      "terp": 1510,
      "pas": 4865,
      "imaĠ": 4744,
      "Mal": 2920,
      "Ġtingg": 1514,
      "ortug": 1515,
      "uno": 1516,
      "ata-k": 1517,
      "ĠmelaluiĠ": 1518,
      "menjadiĠ": 4756,
      "atr": 1520,
      "dariĠ": 4206,
      "gelomb": 1522,
      "jelaskanĠ": 3774,
      "aĠdariĠ": 4854,
      "ekn": 3693,
      "iranĠ": 2903,
      "itaĠ": 1527,
      "gej": 1528,
      "omen": 1529,
      "kanĠpadaĠ": 1530,
      "gantung": 3516,
      "entukanĠ": 3942,
      "trad": 2921,
      "ase": 1534,
      "ank": 1535,
      "omin": 2977,
      "lu": 4763,
      "Jerm": 4159,
      "ondon": 1539,
      "athemat": 1540,
      "athematic": 1541,
      "astroenter": 1542,
      "ĠAnwar": 1543,
      "Israel": 2698,
      "untukĠmem": 4096,
      "aiĠdenganĠ": 1546,
      "unyaĠ": 3669,
      "pol": 3890,
      "ĠdariĠĠ": 1549,
      "lah": 4562,
      "meny": 4734,
      "uruf": 3811,
      "hit": 1553,
      "atu": 2655,
      ".ĠJ": 3876,
      "Ġbaru": 1556,
      "Teng": 2831,
      "leks": 1558,
      "ĠdapatĠdi": 3786,
      "a.ĠB": 3546,
      "dis": 1561,
      "sed": 4713,
      "etak": 3101,
      "Ġterhadap": 1564,
      "perkirakanĠ": 1565,
      "ngk": 1566,
      "ekat": 1567,
      "iks": 1568,
      "evolus": 1569,
      "Mesir": 1570,
      "aĠdi": 4833,
      "faktor": 1572,
      "Ġdil": 1573,
      "ataupun": 1574,
      "iput": 1575,
      "sebelum": 4840,
      "resm": 3578,
      "engaruh": 1578,
      "unia.Ġ": 3521,
      "angsung": 1580,
      "ĠiniĠd": 1581,
      "konsep": 3432,
      "agamaĠ": 2793,
      ".ĠDiĠ": 3084,
      "suatu": 1585,
      ".ĠR": 3554,
      "mak": 2659,
      "rum": 2989,
      "bukt": 4215,
      ".ĠSelain": 1590,
      "kr": 3701,
      "aten": 1592,
      "Ġterk": 1593,
      "ĠakanĠ": 1594,
      ")ĠK": 1595,
      "ajianĠ": 3639,
      "ident": 4204,
      "yl": 1598,
      "cer": 1599,
      "ukuranĠ": 1600,
      "Ilm": 1601,
      "agnetik": 1602,
      "rotein": 1603,
      "ebas": 1604,
      "elak": 1605,
      "Al": 4436,
      "ĠdanĠd": 3209,
      "Ġkek": 1608,
      "umpulanĠp": 1609,
      "ulanĠ": 1610,
      "Ag": 3799,
      "ĠyangĠtidak": 1612,
      "omun": 2765,
      "AmerikaĠSer": 1614,
      "ĠkataĠ": 1615,
      "ulauanĠ": 3198,
      "akart": 3599,
      "kep": 3225,
      "enurut": 1619,
      "log": 4793,
      "setelahĠ": 4969,
      "embanganĠ": 1622,
      "keb": 1623,
      "ilaiĠ": 1624,
      "Peng": 1625,
      "astraĠ": 1626,
      "form": 3407,
      "aiĠd": 3755,
      "vari": 1629,
      "ĠĠ2ĠĠ0ĠĠ1ĠĠ": 4922,
      "ilmi": 1631,
      "awab": 1632,
      "amatanĠ": 1633,
      "Ġdim": 3512,
      "komp": 3285,
      "ukur": 1636,
      "terbesar": 1637,
      "su": 4738,
      "lasifikasiĠ": 1639,
      "Ġsering": 1640,
      "IlmuĠ": 1641,
      "ipot": 1642,
      "suatuĠ": 2550,
      "Menter": 1644,
      "amaĠdenganĠ": 1645,
      "Ġpr": 4847,
      ".ĠPen": 1647,
      "iliter": 1648,
      "3Ġ,Ġ": 1649,
      ",ĠS": 1650,
      "emudianĠd": 1651,
      "amat": 4054,
      "uatuĠ": 1653,
      "salahĠsatu": 1654,
      "sejak": 1655,
      "yangĠdigunakanĠ": 1656,
      "tempat": 1657,
      "ujuk": 3749,
      ".ĠL": 3424,
      "asi,Ġ": 3773,
      "ialĠ": 3290,
      "tahunĠĠ1ĠĠ8ĠĠ": 1662,
      "Ġsekitar": 1663,
      "sumber": 1664,
      "bedaanĠ": 1665,
      "ampak": 1666,
      "harus": 3457,
      "yakniĠ": 3703,
      "disiĠ": 1669,
      "i:": 1670,
      "biasanyaĠ": 4106,
      "jek": 3108,
      "ator": 1673,
      "Kec": 1674,
      "abup": 1675,
      "abupaten": 3388,
      "esaĠ": 1677,
      "ajak": 1678,
      "saĠ": 1679,
      "Th": 1680,
      "Ġbi": 1681,
      "analis": 1682,
      "eter": 2844,
      "ĠdariĠt": 1684,
      "vir": 1685,
      "jab": 3836,
      "aniĠ": 2845,
      "aku": 2894,
      ".ĠSebagaiĠ": 4255,
      "eaksiĠ": 1690,
      "kanĠdiĠ": 3394,
      "akar": 1692,
      "ĠkepadaĠ": 3377,
      "anĠmeng": 1694,
      "Beland": 1695,
      "Ġpemb": 1696,
      "menggunakanĠ": 3267,
      "SejarahĠ": 1698,
      "Nus": 1699,
      "usat": 1700,
      "andar": 1701,
      "karenaĠ": 4784,
      "jutaĠ": 1703,
      "fungsiĠ": 3662,
      "fr": 2807,
      "Ġmasyarakat": 1706,
      "auĠ": 2350,
      "terjadiĠ": 4129,
      "Ġand": 1709,
      "otal": 1710,
      "roc": 1711,
      "rocod": 1712,
      "astroenteritis": 1713,
      "Ġket": 4903,
      "7Ġ,Ġ": 3480,
      "DuniaĠ": 4117,
      "kek": 1717,
      "Kep": 3120,
      "dek": 1719,
      "Ġmerek": 3921,
      "ĠbahasaĠIndonesiaĠ": 1721,
      "sedang": 1722,
      "Indonesia,Ġ": 1723,
      "sangat": 1724,
      "udah": 1725,
      "Ġpenting": 1726,
      "Ġmenyeb": 1727,
      "ĠbahwaĠ": 1728,
      "emungkin": 1729,
      "PadaĠ": 4047,
      "berkembang": 1731,
      "Ġdilak": 1732,
      "arus": 1733,
      "khusus": 3196,
      "kan": 3483,
      "NegaraĠ": 3110,
      "andung": 1737,
      "ey": 1738,
      "vin": 1739,
      "ĠĠ0Ġ.Ġ": 1740,
      "osisiĠ": 1741,
      "tradis": 3351,
      "ubuh": 1743,
      "enyair": 1744,
      "lektr": 1745,
      "tentang": 1746,
      "asam": 1747,
      "Ġsejarah": 1748,
      "YahudiĠ": 3281,
      "Timor-Leste": 1750,
      "IrlandiaĠUtaraĠ": 1751,
      "iden": 1752,
      "akil": 4262,
      "8Ġ,Ġ": 3845,
      "Ġsem": 4151,
      "umumnyaĠ": 3427,
      "Ġsert": 1757,
      "perd": 3574,
      "olon": 1759,
      "BahasaĠIndonesiaĠ": 1760,
      "sekolah": 1761,
      "ata-kataĠ": 1762,
      "utam": 3061,
      ".ĠSem": 3847,
      "bagianĠ": 4996,
      "arang": 3152,
      "Ġbentuk": 1767,
      ".ĠPeng": 4027,
      "2Ġ": 1769,
      "Ġ(p": 1770,
      "Ġpopul": 1771,
      "endapat": 1772,
      "endah": 1773,
      "ini,Ġ": 2942,
      "Pranc": 1775,
      "urunanĠ": 1776,
      "andingkanĠdenganĠ": 1777,
      "kanĠdalam": 1778,
      "istory": 1779,
      "vinsiĠ": 1780,
      "Ġsep": 1781,
      "Ad": 3436,
      "i.ĠK": 3962,
      "tanggung": 1784,
      "rist": 2557,
      "ĠkeĠ": 1786,
      "usik": 1787,
      "luk": 1788,
      "iniĠber": 1789,
      "Ġbis": 1790,
      "Ġ|-Ġ|": 1791,
      "yÃ¢": 1792,
      "Ġkaren": 1793,
      "ĠCh": 1794,
      "asikanĠ": 3127,
      "ils": 1796,
      "molekul": 1797,
      "avirus": 1798,
      "Yahud": 4805,
      "ajaĠ": 4714,
      "ach": 1801,
      "Ġluas": 1802,
      "ĠmenyebabkanĠ": 1803,
      "yangĠdip": 1804,
      "emerintahanĠ": 1805,
      "gangg": 1806,
      "asiĠm": 1807,
      "iĠmed": 1808,
      "ĠjugaĠm": 1809,
      "aul": 3975,
      "anyakanĠ": 1811,
      "InggrisĠdanĠ": 1812,
      "Ġpenduduk": 3584,
      "Ind": 4453,
      "bagiĠ": 4991,
      "alik": 3713,
      "nah": 1817,
      ".ĠF": 1818,
      ",Ġp": 1819,
      "ubl": 4702,
      "berdasarkanĠ": 3756,
      "ayaanĠ": 3690,
      "Ġ(Ġ1ĠĠ9ĠĠ": 1823,
      "dang-": 1824,
      "gamb": 1825,
      "likasiĠ": 1826,
      "Ġsub": 1827,
      ",Ġatau": 1828,
      "odeĠ": 3134,
      "Ġ2ĠĠ0ĠĠ1ĠĠ": 3723,
      "alĠ(": 1831,
      "agen": 1832,
      "osis": 1833,
      "Ġ1": 3475,
      "alanĠ": 2917,
      "aripadaĠ": 4088,
      "epatanĠ": 1837,
      "lektron": 1838,
      "ĠyangĠdik": 1839,
      "Ġmater": 1840,
      "ĠdapatĠber": 1841,
      "Ġkasus": 1842,
      "ation": 3933,
      "iom": 1844,
      "IrlandiaĠUtar": 1845,
      "iĠErop": 1846,
      "ekerj": 1847,
      "ĠtahunĠĠ1ĠĠ9ĠĠ": 1848,
      "En": 3349,
      "gab": 3287,
      "radi": 1851,
      "kepadaĠ": 4867,
      "lok": 4982,
      "ry": 1854,
      "Namun": 1855,
      "ataranĠ": 3905,
      "ign": 1857,
      "Jaw": 2480,
      "AmerikaĠSerikat": 1859,
      "Portug": 1860,
      "uĠ(": 1861,
      "Indonesia": 1862,
      "Ġini,Ġ": 1863,
      "emikian,Ġ": 1864,
      "asiĠd": 1865,
      "ilah": 1866,
      "isalnya,Ġ": 1867,
      "eduaĠ": 1868,
      "ampir": 1869,
      "KerajaanĠ": 3221,
      "awasanĠ": 2864,
      "an)": 3663,
      ",Ġs": 1873,
      "jam": 1874,
      "utr": 1875,
      "inam": 1876,
      "ilihanĠ": 3893,
      "ri": 3236,
      "tulis": 3450,
      "jikaĠ": 1880,
      "ahas": 1881,
      "6Ġ,Ġ": 1882,
      "gejal": 1883,
      "sebutĠsebagaiĠ": 1884,
      "ĠV": 3862,
      "Rep": 1886,
      "baik": 4025,
      "Untuk": 1888,
      "sifatĠ": 3112,
      "erh": 1890,
      "Oleh": 1891,
      "uĠk": 4585,
      "Pen": 1893,
      ".ĠBer": 1894,
      "i)Ġ": 1895,
      "yangĠmem": 3393,
      "ida": 1897,
      "Ġsistem": 1898,
      "emu": 4208,
      "ĠĠ2Ġ,Ġ": 1900,
      "bis": 3156,
      "imbol": 3968,
      "harg": 1903,
      "ĠyangĠberbed": 1904,
      "|-Ġ|": 1905,
      "jÃ¢": 1906,
      "ngkatanĠ": 1907,
      "ich": 1908,
      "negatif": 1909,
      "Ġatom": 1910,
      "eoriĠ": 4028,
      "reaksiĠ": 1912,
      "tim": 2776,
      "tanggungĠj": 1914,
      "tanggungĠjawab": 1915,
      "Ġbakter": 1916,
      "Ġpenyebab": 1917,
      "ovirus": 1918,
      "aanĠd": 1919,
      "Ġsejak": 1920,
      "akibatkanĠ": 1921,
      "PerangĠ": 1922,
      "Ġdir": 1923,
      "ember": 3109,
      "asionalĠ": 1925,
      "iputiĠ": 3258,
      "Ġset": 1927,
      "stitus": 1928,
      "bahas": 2547,
      "ubahanĠ": 3437,
      "proses": 1931,
      "abadĠke-Ġ2": 1932,
      "baru": 4077,
      "ambah": 1934,
      "iĠber": 1935,
      "ones": 4492,
      "pulauĠ": 3947,
      "akaiĠ": 3695,
      "asiĠdariĠ": 1939,
      "5Ġ,Ġ": 3864,
      "esat": 1941,
      "ĠBal": 1942,
      "Ġ.Ġ0ĠĠ0ĠĠ0ĠĠ": 3085,
      "sebag": 2895,
      "olong": 1945,
      "capaiĠ": 1946,
      "tak": 1947,
      "Ke": 3278,
      "tentuĠ": 1949,
      "apiĠ": 3314,
      "TheĠ": 4246,
      "alkanĠ": 3721,
      "sebanyak": 3880,
      "semb": 1954,
      "i.ĠM": 1955,
      "bahasaĠBaliĠ": 1956,
      "muk": 1957,
      "mon": 3581,
      "emikianĠ": 1959,
      "film": 1960,
      "olahĠ": 3435,
      "ektif": 1962,
      "atuĠ": 2429,
      "spesies": 1964,
      "erang": 1965,
      "genetik": 1966,
      "ohn": 1967,
      "imbul": 1968,
      "embangkanĠ": 3434,
      "idro": 1970,
      "odel": 1971,
      "orbit": 1972,
      "ikaĠkuantum": 1973,
      "studiĠ": 1974,
      "Ġterjad": 1975,
      "apsid": 1976,
      "NAĠ": 1977,
      ".ĠSet": 1978,
      "aĠber": 4970,
      "Ġpas": 1980,
      "ĠTimur": 1981,
      "efer": 1982,
      "yangĠpaling": 1983,
      "akuiĠ": 1984,
      "Ġmaupun": 1985,
      "ĠĠ0Ġ%": 4240,
      "aĠmen": 4482,
      "uter": 4855,
      "peri": 3501,
      ",Ġt": 1990,
      "internasional": 1991,
      "emah": 1992,
      "intahĠ": 1993,
      "tanggal": 3288,
      "Kon": 2761,
      "jud": 1996,
      "judul": 1997,
      "penduduk": 2946,
      "ĠlainnyaĠ": 1999,
      "AsiaĠ": 3638,
      "endidik": 2001,
      "aftar": 2002,
      "sonanĠ": 2003,
      "/,Ġ": 2004,
      "/,Ġ/": 2005,
      "umbuh": 2006,
      "hubunganĠ": 2007,
      "antaraĠlain": 3489,
      "dukt": 2009,
      "unung": 2010,
      "Ber": 2011,
      "ilanĠ": 3551,
      "Ġitu,Ġ": 2013,
      "apak": 2014,
      "sosial": 3244,
      "ĠAr": 3360,
      "are": 2017,
      "lap": 2018,
      "\"Ġ(": 2019,
      "rocodyl": 2020,
      "perilak": 2021,
      "usim": 2022,
      "kanĠdariĠ": 3392,
      "jung": 2024,
      "nilaiĠ": 4154,
      "oper": 4091,
      "s,Ġ": 3448,
      "ilmuĠpengetahuanĠ": 2028,
      "arb": 2029,
      "tiv": 2030,
      "bakter": 2031,
      "ĠPenyakit": 2032,
      "istori": 2033,
      ";Ġ": 3164,
      "residen": 2035,
      "ĠpadaĠtahunĠĠ1ĠĠ9ĠĠ": 2036,
      "danaĠ": 2037,
      "âĢĶ": 4917,
      "II": 3091,
      "aky": 2040,
      "asih": 2041,
      "Islam": 2886,
      "sal": 4773,
      "apun": 4055,
      "ĠduniaĠ": 2045,
      "ayoritas": 2046,
      "neger": 3550,
      "terutamaĠd": 2048,
      "etn": 2049,
      "ĠbeberapaĠ": 2050,
      "Ġsemu": 2051,
      "dit": 2052,
      "irip": 2053,
      "Pol": 2054,
      "ecaraĠ": 2055,
      "udut": 2056,
      "ariĠd": 2057,
      "sampaiĠ": 3863,
      "etahuiĠ": 2059,
      "Ġkehidup": 2060,
      "misalnyaĠ": 3915,
      "dikit": 2062,
      "ianĠdariĠ": 2063,
      "emerintahĠ": 2064,
      "kecil": 3612,
      "Jakart": 2066,
      "enalĠdenganĠ": 2067,
      "kem": 4836,
      "sepert": 2535,
      "ublikĠ": 2070,
      "ementer": 2071,
      "paraĠ": 4567,
      "BB": 2073,
      "unyaiĠ": 2074,
      "bers": 2075,
      "sis": 2076,
      "jiw": 2077,
      "menghasilkanĠ": 2078,
      "engah": 2079,
      "artaiĠ": 2080,
      "lainnya.Ġ": 3714,
      "anĠ(": 4227,
      "emuanĠ": 2083,
      "ingkatanĠ": 2084,
      "ometr": 2085,
      "sekitarĠĠ": 3938,
      "Ġker": 2087,
      "ĠU": 2088,
      ")ĠS": 2089,
      "iot": 2090,
      "sebabkanĠoleh": 2091,
      "ark": 2897,
      "oment": 2093,
      "foton": 2094,
      "fisikawanĠ": 2095,
      "kim": 2096,
      "ukle": 2097,
      "semuaĠ": 3262,
      "enyaw": 2099,
      "efinisiĠ": 4035,
      "jungtiv": 2101,
      "aksiom": 2102,
      "UniĠErop": 2103,
      "to": 3772,
      "Ġsen": 2105,
      "MenteriĠ": 3872,
      "insip": 3881,
      "Arab": 3132,
      "seorangĠ": 4813,
      "Ak": 2110,
      "gabung": 3510,
      "a.ĠPadaĠ": 4217,
      ".ĠKetikaĠ": 2113,
      "alĠiniĠm": 2114,
      "Ġ1ĠĠ9ĠĠ9ĠĠ": 4245,
      "ampu": 4167,
      "Ġbert": 2117,
      "ikanĠp": 2118,
      "adanyaĠ": 2119,
      "KepulauanĠ": 3564,
      "ari-": 2121,
      "aĠdapat": 2122,
      "Ġkat": 2123,
      "Ġmerujuk": 2124,
      "cak": 2125,
      "inc": 2126,
      "ini": 2870,
      "tat": 3426,
      "araanĠ": 2129,
      "-d": 2130,
      "pel": 4992,
      "ĠterjadiĠ": 2132,
      "aĠpeng": 2133,
      "bawahĠ": 3423,
      "sehat": 2135,
      "ĠdanĠt": 2136,
      "ChairilĠAnwar": 2137,
      "ĠdilakukanĠ": 2138,
      "ingkatĠ": 2995,
      "SM": 2843,
      ",ĠyaituĠ": 2141,
      "yangĠdit": 2142,
      "aĠmem": 4634,
      "ibus": 2144,
      "âĢĻ": 2145,
      "aan,Ġ": 4135,
      "elitianĠ": 2147,
      "Ġbidang": 2148,
      "adang-k": 2149,
      ",Ġyaitu": 2150,
      "Ġtertentu": 2151,
      "ĠĠ0Ġ.Ġ0ĠĠ0ĠĠ0ĠĠ": 2152,
      "5Ġ%": 2153,
      "keadaanĠ": 2154,
      "DesaĠ": 2155,
      "terjad": 3764,
      "iĠmanaĠ": 2157,
      "utuh": 2158,
      "KecamatanĠ": 2159,
      "rag": 2160,
      "gantungĠpadaĠ": 2161,
      "Ġbaik": 2162,
      "anĠB": 2163,
      "gayaĠ": 2164,
      "ciptakanĠ": 2165,
      "iĠdapat": 2166,
      "ediaĠ": 4024,
      "epas": 2168,
      "atauĠlebih": 2169,
      "MaduraĠ": 2170,
      "uluh": 2171,
      "Yun": 3133,
      "arg": 2173,
      "akut": 2174,
      "anas": 2175,
      "ĠdaripadaĠ": 2176,
      "cah": 2177,
      "listrik": 2178,
      "ĠbermuatanĠ": 2179,
      "ekanikaĠkuantum": 2180,
      "ipotesis": 2181,
      "Ġmembentuk": 2182,
      "Ġmenular": 2183,
      "penyebab": 2184,
      "matematikaĠ": 2185,
      "our": 2186,
      "London": 2187,
      "Ab": 3220,
      "Ġdu": 2189,
      ".ĠPadaĠtahunĠĠ1ĠĠ9ĠĠ": 2190,
      "atang": 2191,
      "embag": 2877,
      "embaliĠ": 2193,
      "impin": 3357,
      "Ġtan": 2195,
      "salahĠsatuĠ": 3274,
      "mil": 3737,
      "sebuah": 2198,
      "Ġal": 2199,
      "4Ġ,Ġ": 4073,
      "avid": 2201,
      "masalahĠ": 2202,
      "adaĠdiĠ": 3650,
      "asp": 3676,
      "Austral": 3291,
      "pengaruh": 2206,
      "langsung": 2207,
      "akuĠ": 3523,
      "annya,Ġ": 2209,
      "arianĠ": 2210,
      "elatif": 2211,
      "Ġbeberap": 2212,
      "Austrones": 2213,
      "ai": 2214,
      "ĠO": 2215,
      "ĠyangĠdit": 2216,
      "Ġitu": 2217,
      "lasik": 2218,
      "ĠpulaĠ": 2219,
      "batas": 3320,
      "iriĠ": 2769,
      "erbit": 2222,
      "jaanĠ": 2223,
      "usun": 2224,
      "semak": 2225,
      "Ġcukup": 2226,
      "isĠdanĠ": 2227,
      "InggrisĠ": 3934,
      "elaluiĠ": 2229,
      ",ĠdiĠ": 3017,
      "esm": 2231,
      "ham": 2232,
      "aya,Ġ": 2233,
      "lainnya,Ġ": 2234,
      "yangĠmen": 2939,
      "objek": 3785,
      "waktuĠ": 2237,
      "Ġdasar": 2238,
      "ujuanĠ": 2239,
      "oks": 2240,
      "selamaĠ": 4983,
      "eĠB": 2242,
      "industr": 2243,
      "ata-": 2244,
      "ĠyangĠk": 2245,
      "Ġlog": 2246,
      "izin": 2247,
      "tanp": 2248,
      "ilikiĠm": 2249,
      "usia.Ġ": 2250,
      "Ġtungg": 2251,
      "umpulanĠ": 2252,
      "omentum": 2253,
      "idrogen": 2254,
      "fisikaĠ": 2255,
      "fase": 2256,
      "ogen": 2257,
      "oksid": 2258,
      "Penyakit": 2259,
      "Ġinang": 2260,
      "Irland": 2849,
      "perium": 2262,
      "ĠBritaniaĠRay": 2263,
      "ĠSkot": 2264,
      ".ĠAn": 2265,
      "ubahĠ": 3414,
      "aĠkon": 2267,
      "usah": 4879,
      "antu": 3154,
      "setelah": 2270,
      "lag": 4918,
      "Ter": 2272,
      "Ġ1ĠĠ9ĠĠ7ĠĠ": 2273,
      "ĠofĠtheĠ": 2274,
      "tu": 4799,
      "yangĠ": 4356,
      "amĠ": 2344,
      "alamĠ": 4375,
      "hĠ": 4359,
      "akĠ": 4384,
      "ole": 4406,
      "arĠ": 4418,
      "asĠ": 4584,
      "Tim": 2450,
      "ju": 4421,
      "enĠ": 2459,
      "jid": 2460,
      "erus": 2475,
      "alem": 2478,
      "erusalem": 2483,
      "Timur": 2484,
      "ĠyangĠ": 4878,
      "JawaĠ": 4909,
      "erej": 4782,
      "tid": 2504,
      "tur": 4907,
      "Yerusalem": 2509,
      "apaĠ": 4519,
      "fil": 2544,
      "rov": 2546,
      "erin": 4622,
      "rovin": 2556,
      "sej": 4556,
      "berb": 4724,
      "yangĠd": 4807,
      "erejaĠ": 2569,
      "tel": 4457,
      "sĠ": 2574,
      "JawaĠTimur": 2577,
      "asjid": 2588,
      "ihĠ": 4698,
      "saf": 2595,
      "leb": 4638,
      "kotaĠ": 2601,
      "upakanĠ": 2602,
      "oĠ": 4682,
      "ĠPulauĠ": 2618,
      "upat": 2619,
      "asion": 4857,
      "anus": 2626,
      "yar": 2628,
      "abupat": 2629,
      "masjid": 2630,
      "GerejaĠ": 2633,
      "ra": 2637,
      "bes": 4637,
      "empatĠ": 2646,
      "itasĠ": 2647,
      "yĠ": 2648,
      "kel": 4689,
      "ker": 4739,
      "tidakĠ": 4751,
      "ekaĠ": 2662,
      "lahĠ": 4571,
      "Pap": 2667,
      "yangĠm": 2671,
      "apatĠ": 4973,
      "erintah": 4863,
      "Bar": 4671,
      "kat": 2680,
      "safatĠ": 2681,
      "ogyak": 2684,
      "ogyakart": 2685,
      "ka": 2687,
      "hil": 2690,
      "bang": 2692,
      "Ġ-Ġ": 2693,
      "Isl": 2694,
      "kh": 4899,
      "unĠ": 4554,
      "rovinsiĠ": 2702,
      "bany": 4703,
      "Yogyakart": 2706,
      "utĠ": 2707,
      "usĠ": 4498,
      "otaĠ": 4631,
      "iĠdalamĠ": 2717,
      "DI": 2719,
      "DIY": 2726,
      "Krist": 2733,
      "umĠ": 2734,
      "bar": 4950,
      "abupatenĠ": 2742,
      "tempatĠ": 2743,
      "entu": 2747,
      "PapuaĠ": 2752,
      "apĠ": 4719,
      "ti": 4672,
      "inĠ": 4663,
      "ingu": 2759,
      "nasion": 2767,
      "berbed": 2772,
      "entangĠ": 2773,
      "aatĠ": 2779,
      "uc": 4908,
      "lim": 2781,
      "bat": 2782,
      "oph": 2784,
      "unanĠ": 2785,
      "ang-": 2786,
      "ked": 4819,
      "oriĠ": 2789,
      "hing": 2790,
      "ertaĠ": 2795,
      "sekit": 2797,
      "te": 2798,
      "osoph": 2801,
      "irĠ": 2802,
      "pul": 4659,
      "hilosoph": 2808,
      "lebihĠ": 2811,
      "terd": 2812,
      "Sur": 2814,
      "Sel": 2815,
      "olit": 2818,
      "umlahĠ": 4860,
      "kemb": 2823,
      "o,Ġ": 2824,
      "ungk": 4956,
      "uru": 4570,
      "inguist": 2829,
      "aĠdalamĠ": 4931,
      "DaerahĠ": 2833,
      "manus": 2834,
      "filsafatĠ": 2835,
      "Nug": 2836,
      "wak": 4874,
      "Gus": 2842,
      "KabupatenĠ": 2850,
      "arahĠ": 4902,
      "Ġ)": 4912,
      "apatĠdi": 2859,
      "TuhanĠ": 2861,
      "Gusm": 2862,
      "Ã£": 2863,
      "GusmÃ£": 2869,
      "Ġ.Ġ0": 4894,
      "\"Ġ": 2879,
      "abadĠke": 2883,
      "Rom": 2889,
      "hub": 2890,
      "seg": 2893,
      "antaiĠ": 2896,
      "sos": 2900,
      "telahĠ": 4696,
      "at,Ġ": 2904,
      "merekaĠ": 2905,
      "erd": 2907,
      "linguist": 2908,
      "YogyakartaĠ": 2909,
      "KotaĠ": 2911,
      "aup": 4760,
      "ungĠ": 4958,
      "rovins": 2919,
      "1ĠĠ0ĠĠ": 2922,
      "ik,Ġ": 2927,
      "umatĠ": 2928,
      "manaĠ": 2932,
      "ĠĠ0ĠĠ0": 2934,
      "ken": 2936,
      "Fil": 2938,
      "erintahanĠ": 2940,
      "pertamaĠ": 2947,
      "untukĠ": 2948,
      "ompok": 2952,
      "komun": 2953,
      "uslim": 2954,
      "ajaanĠ": 4997,
      "lem": 2958,
      "ingĠ": 4812,
      "berad": 2961,
      "sul": 2963,
      "anggal": 4959,
      "kl": 2971,
      "erint": 2972,
      "erintahĠ": 4964,
      "ikasiĠ": 2974,
      "Ġmasjid": 2975,
      "ismeĠ": 2978,
      "Ker": 2981,
      "khus": 2988,
      "reen": 2990,
      "osof": 2991,
      "Men": 2993,
      "reenland": 3000,
      "abadĠke-Ġ": 3001,
      "anĠdalamĠ": 3002,
      "naĠ": 4654,
      "ba": 3011,
      "Kat": 3012,
      "kemud": 3014,
      ".ĠDalamĠ": 4926,
      "banyakĠ": 3016,
      "ewaĠ": 3021,
      "Surab": 3025,
      "bagi": 3027,
      "atkanĠ": 3028,
      "Masjid": 3038,
      "lis": 3039,
      "pus": 3040,
      "utiĠ": 3043,
      "tentangĠ": 3046,
      "ĠPhilosoph": 3047,
      "atiĠ": 4936,
      "Univers": 3051,
      "ond": 3052,
      "jel": 3056,
      "Greenland": 3058,
      "NuginiĠ": 3059,
      "isyar": 3060,
      "la": 3067,
      "atĠK": 3069,
      "GusmÃ£o": 3070,
      "buk": 4853,
      "ihatĠ": 3074,
      "at-": 3075,
      "utanĠ": 3076,
      "menc": 3077,
      "filosof": 3079,
      "tertentu": 3080,
      "Kristen": 4771,
      "sebutĠ": 3086,
      "asarkanĠ": 3087,
      "Romaw": 3089,
      "uhĠ": 4818,
      "urĠ": 3096,
      "aĠPulauĠ": 3100,
      "saatĠ": 4680,
      "polit": 3105,
      "ais": 3106,
      "epubl": 3107,
      "kes": 4955,
      "utu": 3114,
      "Ġtid": 3115,
      "itĠ": 3116,
      "aimanaĠ": 3121,
      "pun": 3122,
      "suaraĠ": 3123,
      "Katol": 3125,
      "pengar": 3131,
      "Republ": 3135,
      "huk": 3136,
      "ah,Ġ": 3137,
      "jem": 3138,
      "ormatanĠ": 3142,
      "Ng": 3143,
      "atasĠ": 3144,
      "ru": 3145,
      "iaĠdanĠ": 3151,
      "provins": 3153,
      "atuanĠ": 3157,
      "eisme": 3158,
      "oj": 3159,
      "Daf": 3160,
      "ibuĠ": 3161,
      "Kek": 3162,
      "estin": 3165,
      "Ib": 4768,
      "ogr": 4711,
      "terhad": 3175,
      "Ut": 3176,
      "suf": 3177,
      "yĠof": 3178,
      "kad": 3180,
      "Konsul": 3181,
      "Istim": 3182,
      "Surabay": 3183,
      "resid": 3185,
      "sehinggaĠ": 3188,
      "iaĠd": 3191,
      "kotaanĠ": 3197,
      "tuju": 3201,
      "alestin": 3203,
      "aniaĠ": 3204,
      "anĠdi": 3205,
      "KristenĠ": 3206,
      "raĠ": 4623,
      "kir": 3211,
      "kur": 3213,
      "bias": 3216,
      "ehormatanĠ": 3217,
      "orf": 3218,
      "eaĠ": 3219,
      "kaum": 3222,
      "akukanĠ": 4794,
      "stat": 3224,
      "Gun": 3227,
      "uhiĠ": 3229,
      "Ġmemper": 3230,
      "halĠ": 3231,
      "iĠP": 3237,
      "RepublikĠ": 3238,
      "ProvinsiĠ": 3239,
      "mat": 3240,
      "kelompok": 3242,
      "manusiaĠ": 3245,
      "Ġ(Konsul": 3246,
      "atĠKehormatanĠ": 3247,
      "iken": 3248,
      "DalamĠ": 3250,
      "IslamĠ": 3251,
      "sang": 4937,
      "mend": 3254,
      "ani": 3255,
      "berd": 3256,
      "ukĠ": 3257,
      "Ġmanus": 3259,
      "askanĠ": 3264,
      "jaĠ": 3266,
      "Tuh": 3269,
      "uw": 3271,
      "bern": 3272,
      "JawaĠTimurĠ": 3273,
      "risten": 3275,
      "u,Ġ": 4898,
      "sud": 3277,
      ".ĠBeberapaĠ": 3282,
      "ibad": 3284,
      "ikĠdanĠ": 3286,
      "pelaj": 3292,
      "hales": 3293,
      "ubern": 3295,
      "IstimewaĠ": 3297,
      "Sul": 3298,
      "kit": 3299,
      "bol": 3300,
      "tahunĠĠ": 3301,
      "asarĠ": 3302,
      "memper": 3304,
      "mis": 3305,
      "Sum": 3306,
      "luarĠ": 3308,
      "uatĠ": 3309,
      "-s": 3311,
      "keku": 3312,
      "bul": 3315,
      "perkotaanĠ": 3316,
      "liĠ": 3317,
      "wisataĠ": 3318,
      "Ġ(KonsulatĠKehormatanĠ": 3319,
      "arlem": 3321,
      "nasionalĠ": 3322,
      "terdapatĠ": 3323,
      "tahunĠĠ2ĠĠ0ĠĠ": 3324,
      "ankanĠ": 3326,
      "enganĠd": 3327,
      "selur": 3328,
      "Barat": 3336,
      "Pem": 3337,
      "ainĠ": 3338,
      ".ĠC": 3339,
      "bagaimanaĠ": 3341,
      "bahasaĠd": 3342,
      "tataĠ": 3343,
      "YerusalemĠ": 3344,
      "ahĠd": 3345,
      "egun": 3346,
      "ill": 3347,
      "an\"": 3350,
      "pusatĠ": 3353,
      "besarĠ": 3354,
      "ris": 3356,
      "Ġmenc": 3358,
      ".ĠSel": 3361,
      "rat": 3363,
      "kawasanĠ": 3364,
      "stitu": 3365,
      "istim": 3366,
      "embangunanĠ": 3368,
      "andanganĠ": 3369,
      "UniversitasĠ": 3371,
      "ilĠ": 3378,
      "icar": 3379,
      "provinsiĠ": 3381,
      "ika,Ġ": 3382,
      "eksp": 3383,
      "FilsafatĠ": 3384,
      "PulauĠB": 3385,
      "tingkatĠ": 3386,
      "DaerahĠIstimewaĠ": 3387,
      "GuaĠ": 3389,
      "yangĠp": 3390,
      "keĠ": 3391,
      "yangĠberbed": 3395,
      "kemudianĠ": 3396,
      "ah-": 3398,
      "bagianĠdariĠ": 3400,
      "keberad": 3401,
      "Brit": 3404,
      "Inter": 3406,
      "kar": 4882,
      "pertany": 3409,
      "adanĠ": 3410,
      "apatĠd": 3411,
      "ĠmerekaĠ": 3413,
      "sedangkanĠ": 3415,
      "ama": 3416,
      "iriĠdariĠ": 3417,
      "peny": 4841,
      "o-": 3422,
      "akup": 3425,
      "teriĠ": 3428,
      "sebesar": 3429,
      "bend": 3430,
      "Nasion": 3431,
      "Kal": 3433,
      "lew": 3438,
      "kalim": 3439,
      "ahĠdanĠ": 3440,
      "send": 3441,
      "antaranyaĠ": 3442,
      "entukĠ": 3443,
      "ras": 4721,
      "gunak": 3446,
      "anahĠ": 3447,
      "sementaraĠ": 3451,
      "az": 3453,
      "hariĠ": 4935,
      "udd": 3456,
      "ben": 4693,
      "pelajariĠ": 3461,
      "Hind": 3462,
      "ĠPhilosophy": 3463,
      "les": 3464,
      "bahasa,Ġ": 3465,
      "linguistikĠ": 3466,
      "etakĠdiĠ": 3467,
      "egununganĠ": 3468,
      "pern": 3469,
      "pemerintahanĠ": 3470,
      "rad": 3471,
      "sangatĠ": 3474,
      "rel": 3477,
      ",ĠĠ": 3479,
      "Um": 3482,
      "agaĠ": 4859,
      "mb": 3487,
      "andangĠ": 3488,
      "filsuf": 3491,
      "aturanĠ": 3493,
      "ajar": 3494,
      "PapuaĠNuginiĠ": 3495,
      "lewatĠ": 3496,
      "semest": 3497,
      "tigaĠ": 3498,
      "orang-": 3500,
      "takĠ": 3503,
      "masyarak": 3504,
      "misal": 3505,
      "atĠdiĠ": 3507,
      "bum": 3508,
      "paĠ": 3511,
      "nil": 3513,
      "yangĠdik": 3514,
      ",ĠT": 3515,
      "Ul": 3517,
      "sejumlahĠ": 3518,
      "bisaĠ": 3519,
      "mark": 3520,
      "segalaĠ": 3522,
      ".Ġ(": 3524,
      "meter": 3525,
      "sebutĠdenganĠ": 3527,
      ".ĠMasjid": 3528,
      "suc": 3529,
      "aud": 3530,
      "sukuĠ": 3531,
      "janj": 3532,
      "Palestin": 3534,
      "univers": 3535,
      "abĠ": 3536,
      "urutĠ": 3537,
      "met": 3538,
      "arangĠ": 3539,
      "bel": 3541,
      "bangs": 3542,
      "sesu": 3543,
      "seti": 3547,
      "gerejaĠ": 3549,
      "aus": 3552,
      "uniĠ": 3553,
      "Serik": 3555,
      "residenĠ": 3556,
      "pec": 3557,
      "Den": 3560,
      "kembanganĠ": 3561,
      "uddh": 3562,
      "sistemĠ": 3563,
      "ax": 3565,
      "Lam": 3567,
      "sejakĠ": 3568,
      "awalĠ": 3569,
      "orang-orangĠ": 3571,
      "mad": 3572,
      "menyeb": 3573,
      "kul": 3575,
      "YunaniĠ": 3576,
      "atakanĠbahwaĠ": 3579,
      "Ġmak": 3580,
      "Me": 3587,
      "Ġterd": 3588,
      "admin": 3589,
      "erdek": 3590,
      "usiĠ": 3592,
      "Ġ)Ġ": 3594,
      "maknaĠ": 3596,
      "suar": 3597,
      "perm": 3600,
      "alĠsebagaiĠ": 3601,
      "Muslim": 3602,
      "tarĠ": 3603,
      "idir": 3604,
      "ahĠdiĠ": 3605,
      "on-": 3606,
      "uruhĠ": 3607,
      "al-": 3609,
      "keluar": 3610,
      "pos": 3611,
      "embangun": 3615,
      "etelahĠ": 3616,
      "aisaranĠ": 3617,
      "RomawiĠ": 3618,
      "Pr": 3619,
      "gerej": 3620,
      "tuh": 3621,
      "kanĠuntuk": 3623,
      "ang-und": 3626,
      "kait": 3627,
      "tus": 3628,
      "tion": 3630,
      "Denmark": 3632,
      "pertanyaanĠ": 3634,
      "BaratĠ": 3635,
      "Gerej": 4928,
      "istimew": 3641,
      "PantaiĠ": 3642,
      "enomin": 3643,
      "anggapĠ": 3645,
      "iwaĠ": 3646,
      "entang": 3647,
      "pertam": 3648,
      "ĠdaerahĠ": 3649,
      "yangĠmemilikiĠ": 3651,
      "popul": 3652,
      "anyaĠd": 3653,
      "kaliĠ": 3654,
      "seluruhĠ": 3655,
      "\"d": 3656,
      "cukup": 3657,
      "eraĠ": 3659,
      "ukkanĠ": 3661,
      "nya": 3664,
      "apaiĠ": 3665,
      "Ed": 3666,
      "hamp": 3667,
      ".ĠMen": 3671,
      "melaluiĠ": 3672,
      "abkanĠ": 3673,
      "iliĠ": 3675,
      "administr": 3677,
      "tumb": 3678,
      "merek": 3679,
      "aanĠdanĠ": 3680,
      "ranc": 3681,
      "onĠ": 3682,
      "St": 3683,
      "ĠPro": 3684,
      "tif": 3685,
      "Tahun": 3686,
      "ĠĠ2Ġ.Ġ": 3687,
      "iatanĠ": 3688,
      "ajaranĠ": 3689,
      "Buddh": 3691,
      "iĠPulauĠ": 3692,
      "ubernur": 3694,
      "kas": 3696,
      "morf": 3697,
      "punĠ": 3698,
      "ekar": 3699,
      "imanĠ": 3700,
      "Gunung": 3702,
      "teng": 3704,
      ",ĠdiĠmanaĠ": 3705,
      "alĠdiĠ": 3706,
      "Ġ3": 3707,
      "Din": 3710,
      "pis": 3711,
      "Wilay": 3712,
      "sm": 3715,
      "kembang": 3716,
      "ĠâĢĵ": 4720,
      "her": 3718,
      "kedu": 3720,
      "yangĠmel": 3724,
      "Ref": 3725,
      "ĠbyĠ": 3726,
      "ster": 3727,
      "tug": 3729,
      "etahu": 3730,
      "odok": 3731,
      "egor": 3732,
      "a-bahasaĠ": 3733,
      "axim": 3734,
      "alamĠsemest": 3735,
      "andiĠ": 3736,
      "tradisiĠ": 3738,
      "ibuĠkotaĠ": 3739,
      "Sal": 3740,
      "Mak": 3742,
      "ĠĠ1ĠĠ9ĠĠ4ĠĠ": 3743,
      "lembag": 3745,
      "non-": 3746,
      "temp": 3747,
      "nam": 4748,
      "umber": 3750,
      "Utar": 3751,
      "us,Ġ": 4829,
      "keduaĠ": 3757,
      "ĠĠ3": 3758,
      "org": 3760,
      "perbed": 3761,
      "kol": 3763,
      "kenalĠ": 3765,
      "etaĠ": 3767,
      "untukĠmeny": 3768,
      "UtaraĠ": 3769,
      "erensiĠ": 3770,
      "sedik": 3771,
      "Ġ3ĠĠ": 3775,
      "lainĠ": 3777,
      "pulaĠ": 3778,
      "Und": 3781,
      "otest": 3782,
      ".ĠSelainĠ": 3783,
      "UU": 3784,
      "enom": 3787,
      "Daftar": 3789,
      "oĠPulauĠ": 3790,
      "JawaĠTeng": 3791,
      "yangĠmanaĠ": 3792,
      "janjianĠ": 3795,
      "Allah": 4827,
      "Sh": 3797,
      "Yord": 3798,
      "use": 3800,
      "atauĠ\"": 3803,
      "lat": 3805,
      "pendapatĠ": 3807,
      "meliputiĠ": 3808,
      "keberadaanĠ": 3809,
      "adaĠd": 3812,
      "berl": 3813,
      "yah": 3814,
      "atĠdanĠ": 3816,
      "bulanĠ": 3817,
      "Afr": 3818,
      "Pas": 3819,
      "atifĠ": 3820,
      "Mand": 3821,
      "AmerikaĠSerik": 3824,
      "alitas": 3825,
      "atĠm": 3826,
      "Selat": 3828,
      "NasionalĠ": 3829,
      "alek": 3831,
      "perkembanganĠ": 3832,
      "elemen": 3834,
      "Papu": 3835,
      "ars": 3837,
      "vok": 3838,
      "kerjaĠ": 3839,
      "Gres": 3840,
      "anjangĠ": 3841,
      "kembaliĠ": 3842,
      "kotaĠiniĠ": 3843,
      "akanĠd": 3844,
      "YerusalemĠTimur": 3846,
      "Perd": 3848,
      "pemerintahĠ": 3849,
      "kend": 3851,
      "gum": 3852,
      "anis": 3854,
      "utaraĠ": 3857,
      "onganĠ": 3858,
      "aikanĠ": 3859,
      "KekaisaranĠ": 3860,
      "kekuas": 3861,
      "he": 3866,
      ".ĠPem": 3867,
      "angkaĠ": 3868,
      "ahĠdariĠ": 3869,
      "Bany": 3871,
      "budayaĠ": 3873,
      "iong": 3875,
      "Mas": 3877,
      "Ulster": 3879,
      "aksan": 3882,
      "igr": 3883,
      "filosofis": 3884,
      "baikĠ": 3885,
      "linguistik": 3886,
      "pemik": 3887,
      "fenom": 3888,
      "bentukĠ": 3889,
      "apuaĠ": 3891,
      "perubahanĠ": 3892,
      "ucap": 3894,
      "GerejaĠKatol": 3895,
      "ektur": 3896,
      "omor": 3897,
      "unit": 3898,
      "aximand": 3899,
      "awes": 3900,
      "ojok": 3901,
      "ĠPantaiĠ": 3902,
      "Al-": 3903,
      "terletakĠdiĠ": 3904,
      "rah": 3906,
      "ebut": 4986,
      "RajaĠ": 3908,
      "ĠPert": 3909,
      "Yes": 3910,
      "ĠAl": 3911,
      "aupunĠ": 3912,
      "penting": 3913,
      "bid": 3914,
      "ĠdalamĠbahasaĠ": 3918,
      "ologis": 3919,
      "perbedaanĠ": 3920,
      "utar": 3922,
      "huruf": 3924,
      "nyaĠdiĠ": 3925,
      "impinĠ": 3926,
      "luasĠ": 3927,
      "aram": 3928,
      "jema": 3929,
      "y,Ġ": 3931,
      "jum": 3932,
      "tand": 3935,
      "MeiĠ": 3936,
      "lingk": 3937,
      "eĠ(": 3939,
      "idikanĠ": 3940,
      "encanaĠ": 3941,
      "tujuanĠ": 3943,
      "Sek": 3944,
      "komunitasĠ": 3945,
      "IS": 3946,
      "pemerintah": 3948,
      "pengaruhiĠ": 3950,
      "yangĠmemb": 3951,
      "huj": 3953,
      "Inj": 3954,
      "Xan": 3955,
      "TimorĠL": 3956,
      "TimorĠLest": 3957,
      "RT": 3958,
      "tip": 3959,
      "ojokert": 3960,
      "abuhanĠ": 3961,
      "iniĠdi": 3963,
      "ikenalĠsebagaiĠ": 3964,
      "Situ": 3965,
      "anya,Ġ": 3966,
      "pembangunanĠ": 3967,
      "fl": 3970,
      "aratĠ": 3971,
      "Yerusalem,Ġ": 3972,
      "Mah": 3973,
      "alĠdanĠ": 3974,
      "tidakĠadaĠ": 3976,
      "Ibran": 4998,
      "luas": 3979,
      "Ked": 3980,
      "uĠpadaĠ": 3981,
      "in,Ġ": 3982,
      "Mel": 3983,
      "resmiĠ": 3985,
      "kaumĠ": 3988,
      "ĠdiĠdaerahĠ": 3989,
      "kompl": 3991,
      "emiĠ": 3992,
      ".ĠSe": 3993,
      "timur": 3995,
      "WilayahĠ": 3996,
      "pin": 3997,
      "Kar": 3998,
      "ungaiĠ": 3999,
      "Ġ1ĠĠ8ĠĠ": 4001,
      "4Ġ.Ġ": 4002,
      "ĠdiĠdalamĠ": 4003,
      "embagianĠ": 4004,
      "kemerdek": 4005,
      "a.ĠT": 4007,
      "pes": 4009,
      ".ĠKarenaĠ": 4010,
      "ationalĠ": 4011,
      "yangĠlebihĠ": 4012,
      "5ĠĠ0ĠĠ": 4013,
      "ĠPem": 4014,
      "EropaĠ": 4017,
      "Bel": 4019,
      "terhadapĠ": 4020,
      "makaĠ": 4021,
      "sekal": 4022,
      "selatanĠ": 4023,
      "keg": 4026,
      "Thales": 4029,
      "bu": 4030,
      "Tingg": 4031,
      "usanĠ": 4032,
      "RepublikĠIndonesiaĠ": 4033,
      "penggunaanĠ": 4034,
      "isyaratĠ": 4036,
      "makn": 4037,
      "Sulawes": 4038,
      "Pel": 4039,
      "Kul": 4040,
      "/M": 4041,
      "Yud": 4616,
      "sekitarĠ": 4043,
      "DaftarĠ": 4044,
      "Sep": 4045,
      "populasiĠ": 4048,
      "Sem": 4049,
      "muncul": 4050,
      "ikan": 4051,
      "iak": 4052,
      "i\"": 4053,
      "akhirĠ": 4056,
      "zamanĠ": 4057,
      "periodeĠ": 4058,
      "hubungkanĠ": 4059,
      "si": 4412,
      "ĠMuslim": 4061,
      "berbedaĠ": 4062,
      "penc": 4063,
      "akahĠ": 4064,
      "oĠ(": 4065,
      "adatĠ": 4067,
      "Ġdiper": 4068,
      "ĠparaĠ": 4845,
      "ipat": 4071,
      "baruĠ": 4072,
      "esĠ": 4074,
      "pendudukĠ": 4075,
      "afis": 4076,
      "bur": 4078,
      "Bangs": 4080,
      "ne": 4081,
      "tanpaĠ": 4082,
      "ĠĠ3ĠĠ": 4083,
      "isip": 4084,
      "undang-und": 4085,
      "sekarang": 4087,
      "Ġkomun": 4089,
      "Band": 4092,
      "qu": 4093,
      "ho": 4098,
      "krit": 4099,
      "sesuatuĠ": 4100,
      "amun,Ġ": 4101,
      "arj": 4102,
      "jugaĠdi": 4103,
      "kata-": 4104,
      "pulau": 4105,
      "itif": 4107,
      "kalimatĠ": 4109,
      "Ġtanggal": 4110,
      "aximandro": 4111,
      "ultananĠ": 4112,
      "CandiĠ": 4113,
      "uwang": 4114,
      "salatĠ": 4115,
      "embok": 4116,
      "radisiĠ": 4119,
      "an.ĠK": 4120,
      "samaĠdenganĠ": 4121,
      "kotaĠini": 4122,
      "anut": 4123,
      "i)": 4124,
      "TanahĠ": 4125,
      "lebihĠdariĠ": 4126,
      "bangsaĠ": 4127,
      "pendapatĠbahwaĠ": 4128,
      "Ram": 4130,
      "ketikaĠ": 4131,
      "akl": 4132,
      "Ġpemerintah": 4133,
      ".ĠSetelahĠ": 4134,
      "selat": 4136,
      "etĠ": 4138,
      "ohĠ": 4139,
      "ar,Ġ": 4140,
      "beradaĠdiĠ": 4141,
      "kekuasaanĠ": 4142,
      "limaĠ": 4143,
      "kanĠdalamĠ": 4144,
      "kanĠbahwaĠ": 4145,
      "setiapĠ": 4146,
      "yahĠ": 4147,
      "anyakĠ": 4148,
      "mencakup": 4149,
      "inanĠ": 4921,
      "banyakanĠ": 4152,
      "status": 4153,
      "ask": 4821,
      "ayananĠ": 4157,
      "Ġ),Ġ": 4158,
      "tinggiĠ": 4160,
      "sedikit": 4161,
      "hukumĠ": 4162,
      "enggar": 4164,
      "for": 4832,
      "sport": 4166,
      "ĠJerusalem": 4168,
      "ia,ĠdanĠ": 4169,
      "iahĠ": 4170,
      "atĠdenganĠ": 4171,
      "kont": 4172,
      "ĠKep": 4173,
      "\"ĠdanĠ": 4175,
      "kehidup": 4176,
      "aspek": 4177,
      "PapuaĠNug": 4178,
      "ĠProvinsiĠ": 4179,
      "bahkanĠ": 4180,
      "iĠdaerahĠ": 4181,
      "kultur": 4182,
      "gol": 4183,
      "kataĠbend": 4184,
      "itektur": 4185,
      "edik": 4186,
      "Kad": 4187,
      "eĠPulauĠ": 4188,
      "Banyuwang": 4189,
      "a)Ġ(KonsulatĠKehormatanĠ": 4190,
      "YogyakartaĠ(": 4191,
      "alĠdenganĠ": 4192,
      "PegununganĠ": 4193,
      "simbol": 4194,
      "Kekristen": 4195,
      "ammad": 4198,
      "wal": 4200,
      "Kud": 4201,
      "arlemenĠ": 4202,
      "lembagaĠ": 4203,
      ",ĠdanĠd": 4207,
      ":Ġ\"": 4209,
      "on,Ġ": 4210,
      "hak": 4211,
      "lain,Ġ": 4212,
      "keluargaĠ": 4213,
      "lih": 4214,
      "mengenaiĠ": 4218,
      "Ġmasuk": 4220,
      "ĠĠ1ĠĠ6ĠĠ": 4221,
      "camp": 4222,
      "wilayah": 4223,
      "ahĠmenjadiĠ": 4224,
      "eksĠ": 4225,
      "7Ġ.Ġ": 4228,
      "ĠpadaĠtahunĠĠ1ĠĠ": 4229,
      "ĠPr": 4231,
      "Bl": 4232,
      "Rum": 4233,
      "berlak": 4235,
      "rumahĠ": 4236,
      "areaĠ": 4237,
      "JuniĠ": 4238,
      "ruangĠ": 4239,
      "taĠ": 4494,
      "kok": 4242,
      "ĠY": 4657,
      "Jep": 4244,
      "useum": 4247,
      ")ĠadalahĠ": 4248,
      "prinsip": 4249,
      "komunitas": 4250,
      "isme,Ġ": 4251,
      "alĠiniĠ": 4252,
      "utaĠ": 4253,
      "aliranĠ": 4258,
      "IndiaĠ": 4259,
      "Philosoph": 4260,
      "ilaĠ": 4261,
      "XananaĠ": 4264,
      "GusmÃ£oĠ": 4265,
      "ampuanĠ": 4266,
      "morfem": 4267,
      "Sumat": 4268,
      "Kulon": 4269,
      "ekles": 4270,
      "Ġmodern": 4271,
      "aq": 4272,
      "Yesus": 4368,
      "statusĠ": 4274,
      "itab": 4362,
      "esus": 4366,
      "TV": 4372,
      "kitab": 4390,
      "RI": 4424,
      "TVRI": 4439,
      "tiĠ": 4450,
      "Kr": 4501,
      "jil": 4505,
      "Injil": 4510,
      "ĠĠ2ĠĠ0": 4525,
      "inggaĠ": 4530,
      "ipr": 4544,
      "Pand": 4548,
      "TI": 4564,
      "idakĠ": 4568,
      "Alkitab": 4569,
      "CTI": 4582,
      "Ġ2ĠĠ0": 4586,
      "RCTI": 4588,
      "YesusĠ": 4590,
      "anon": 4593,
      "evisiĠ": 4619,
      "Ġtel": 4624,
      "Ġ-": 4633,
      "isten": 4639,
      "Kor": 4651,
      "Indonesi": 4652,
      "jun": 4653,
      "-kitab": 4660,
      "Sipr": 4661,
      "Arjun": 4664,
      "bal": 4666,
      "siaranĠ": 4685,
      ").Ġ": 4692,
      "put": 4695,
      "ohan": 4699,
      "lob": 4706,
      "erit": 4709,
      "unan": 4712,
      "acaraĠ": 4723,
      "ati": 4725,
      "Pandaw": 4728,
      "ahud": 4729,
      "Glob": 4737,
      "stasi": 4740,
      "Yudist": 4752,
      "Yudistir": 4753,
      "Dr": 4762,
      "apar": 4766,
      "GlobalĠ": 4770,
      "ohanes": 4772,
      "anjianĠ": 4779,
      "urbal": 4780,
      "has": 4785,
      "Kres": 4786,
      "erjanjianĠ": 4788,
      "aĠmeny": 4792,
      "isahĠ": 4796,
      "Yunan": 4798,
      "Jak": 4802,
      "GlobalĠTV": 4804,
      "isi": 4806,
      "uahĠ": 4811,
      "ahab": 4820,
      "Bism": 4822,
      "sw": 4828,
      "televisiĠ": 4838,
      "ayang": 4842,
      "ver": 4849,
      "Ġtah": 4861,
      "kitab-kitab": 4868,
      "ogram": 4873,
      "aĠmerupakanĠ": 4877,
      "ahabhar": 4881,
      "akaw": 4887,
      "Kitab": 4888,
      "ublik": 4889,
      "a,": 4900,
      "Dur": 4914,
      "tahĠ": 4915,
      "isti": 4924,
      "Koraw": 4925,
      "okanon": 4929,
      "cerit": 4938,
      "yod": 4940,
      "Ġ/": 4941,
      "euter": 4942,
      "stasiun": 4943,
      "artaĠ": 4962,
      "ahir": 4963,
      "inganĠ": 4965,
      "siar": 4966,
      "Am": 4972,
      "Siprus": 4978,
      "Nam": 4979,
      "adem": 4985,
      "ĠtidakĠ": 4987,
      "astiĠ": 4988,
      "Ġ:": 4995,
      "euterokanon": 4999
    },
    "merges": [
      "an Ġ",
      "an g",
      "y ang",
      "en g",
      "t er",
      "y aĠ",
      "Ġd anĠ",
      "k anĠ",
      "i aĠ",
      "ah Ġ",
      "in g",
      "ad aĠ",
      "p er",
      "se b",
      "b er",
      "iĠ d",
      "ĠĠ 0",
      "Ġ yang",
      "Ġd i",
      "al am",
      "ar aĠ",
      "as aĠ",
      "a iĠ",
      "ar iĠ",
      "ak anĠ",
      "en y",
      "1 ĠĠ",
      "Ġb er",
      "eng anĠ",
      "un g",
      "t uk",
      "ah asaĠ",
      "a .Ġ",
      "a ,Ġ",
      "aĠ d",
      "anĠ d",
      "Ġ se",
      "n yaĠ",
      "Ġ ter",
      "an d",
      "at a",
      "Ġm en",
      "iĠ m",
      "em b",
      "un tuk",
      "an t",
      "ag aiĠ",
      "a yaĠ",
      "aĠ m",
      "9 ĠĠ",
      "ad al",
      ", ĠdanĠ",
      "a in",
      "Ġd ariĠ",
      "Ġm eng",
      "i anĠ",
      "ap at",
      "t ah",
      "en d",
      "ĠĠ0 ĠĠ",
      "ol eh",
      "r it",
      "Ġ in",
      "en t",
      "a anĠ",
      "at anĠ",
      "as iĠ",
      ".Ġ P",
      "Ġd iĠ",
      "p adaĠ",
      "ak it",
      "is t",
      "seb agaiĠ",
      "ĠĠ 1ĠĠ",
      "ir us",
      "Ġk e",
      "id ak",
      "g un",
      "rit an",
      "Ġ ,Ġ",
      "s iĠ",
      "eny akit",
      "j ad",
      "Ġp adaĠ",
      "ang Ġ",
      "per t",
      "Ġm em",
      ".Ġ S",
      "an ,Ġ",
      "ik aĠ",
      "i on",
      "em at",
      "am aĠ",
      "b ahasaĠ",
      "ritan iaĠ",
      "Ġd enganĠ",
      "ek tr",
      "tah un",
      "al Ġ",
      "v irus",
      "d on",
      "an yaĠ",
      "an y",
      "i ,Ġ",
      "Ġp er",
      "at Ġ",
      "Ġd alam",
      "anĠ m",
      "c araĠ",
      "seb ut",
      "ĠĠ 2",
      "eb ih",
      "In don",
      "ing g",
      "Indon es",
      "Ġ 1ĠĠ",
      "el ektr",
      "at aĠ",
      "ar t",
      "adal ahĠ",
      "j ug",
      "at emat",
      "j ar",
      "gun akanĠ",
      "ritaniaĠ R",
      "jad iĠ",
      "anĠ p",
      "elektr on",
      "il ik",
      "ang g",
      "Ġ h",
      "n eg",
      "es ar",
      "al iĠ",
      "m u",
      "ata uĠ",
      "m as",
      "ĠĠ0 ĠĠ0ĠĠ",
      ".Ġ K",
      "b ah",
      "pert iĠ",
      "aĠ p",
      "ĠĠ1ĠĠ 9ĠĠ",
      "am p",
      "any ak",
      ".Ġ B",
      "ilik iĠ",
      "is Ġ",
      "l and",
      "l ain",
      "aĠ k",
      "it as",
      "ata u",
      "e ber",
      "it u",
      "im iaĠ",
      "ang anĠ",
      "u anĠ",
      "d iĠ",
      "se k",
      "i al",
      "Ġd apat",
      ".Ġ D",
      "en tuk",
      "ar en",
      "m en",
      "ik anĠ",
      "is iĠ",
      "or ang",
      "el ah",
      "er up",
      "se l",
      "t idak",
      "eber ap",
      ".Ġ M",
      "adal ah",
      "uk anĠ",
      "Ġb ahasaĠ",
      "ritaniaĠR ayaĠ",
      "Indones iaĠ",
      "k on",
      "m eng",
      "s at",
      "om p",
      "oleh Ġ",
      "erup akanĠ",
      "s er",
      "et ap",
      "eny eb",
      "u at",
      "ĠĠ0 Ġ",
      "p en",
      "em p",
      "as ar",
      "i a.Ġ",
      "Ġ r",
      "Ġ |",
      "uk t",
      "ak t",
      "in iĠ",
      "yang Ġdi",
      "w aĠ",
      "as il",
      "iĠd alam",
      "Ġd it",
      "ing k",
      "e or",
      "an j",
      "Ġt idak",
      "in d",
      "se pertiĠ",
      "neg araĠ",
      ") ,Ġ",
      "u ayaĠ",
      "l ebih",
      "a ir",
      "Ġd ik",
      "kanĠ d",
      "Ġp eng",
      "p eng",
      "In g",
      ".Ġ A",
      "b esar",
      "Ġm el",
      "Ing gr",
      "ny a,Ġ",
      "ol og",
      "ik Ġ",
      "se caraĠ",
      "ek s",
      "atemat ik",
      "ar i",
      "yang Ġber",
      "h asil",
      "k ot",
      "al ahĠ",
      "el ay",
      "en er",
      "ang k",
      "um um",
      "ik el",
      "at om",
      "8 ĠĠ",
      "k in",
      "ag ianĠ",
      "Ã ¢",
      "7 ĠĠ",
      "ant araĠ",
      "B ritaniaĠRayaĠ",
      ".ĠP adaĠ",
      "u ar",
      "Ġ untuk",
      "land iaĠ",
      "i a,Ġ",
      "an nyaĠ",
      "er ek",
      "enyeb ab",
      "atemat ikaĠ",
      "Ġ1ĠĠ 9ĠĠ",
      "ang s",
      "ul a",
      ",Ġ m",
      "Ġl ebih",
      "art ikel",
      "ion al",
      "Inggr is",
      "h ingg",
      "am b",
      "aren aĠ",
      "Ġin iĠ",
      "Ġp enyakit",
      "d apat",
      "u iĠ",
      "P er",
      "Ġm as",
      "d i",
      "anĠ k",
      "B ahasaĠ",
      "um l",
      "in t",
      ".Ġ T",
      "on t",
      "an ak",
      "se p",
      "ny a.Ġ",
      "Ġyang Ġber",
      "at as",
      "em er",
      "ak s",
      "6 ĠĠ",
      ",Ġ k",
      "iĠd ariĠ",
      "it ar",
      "es t",
      "t ent",
      "i as",
      "t etap",
      "se jar",
      "Ġl ain",
      "M elay",
      "g en",
      "il m",
      "ab ad",
      "W al",
      "Ġ j",
      "on om",
      "ist em",
      "h ar",
      "as tr",
      "anĠd anĠ",
      "u aĠ",
      "Ġ c",
      "Ġmem ilikiĠ",
      "on g",
      "5 ĠĠ",
      "eberap aĠ",
      "Ġ .Ġ",
      "em ilikiĠ",
      "B aliĠ",
      "d anĠ",
      "id up",
      "iĠ k",
      "ener g",
      "Ġ sebagaiĠ",
      "jug aĠ",
      "emb ang",
      "ung kin",
      "bah waĠ",
      "um p",
      "se t",
      "ar anĠ",
      "Ġmen jadiĠ",
      "in f",
      "b ed",
      "4 ĠĠ",
      "se s",
      "r es",
      "ib at",
      "se m",
      "Ġyang Ġdi",
      "am aĠd",
      "iĠd enganĠ",
      "ah un",
      "b anyak",
      "l as",
      "p enyakit",
      "tahun ĠĠ1ĠĠ9ĠĠ",
      "an aĠ",
      "am un",
      "anĠd enganĠ",
      "w ar",
      "Ġm emb",
      "ah anĠ",
      "et ah",
      "el as",
      "un iaĠ",
      "up un",
      "er s",
      "Ġke -",
      "ol ek",
      ", Ġd",
      "is m",
      ",Ġ yang",
      "h ad",
      "g an",
      "al ing",
      "it uĠ",
      "ter sebut",
      "b ag",
      "s tr",
      "ĠĠ2 ĠĠ0ĠĠ0ĠĠ",
      "et ik",
      "en ter",
      "im p",
      "jug aĠm",
      "at if",
      "u as",
      "in yaĠ",
      "il ay",
      "en s",
      ")Ġ |",
      "mas uk",
      "Ġ n",
      "ar ak",
      "ak h",
      "a er",
      "abad Ġke-",
      "Wal es",
      "3 ĠĠ",
      "ud uk",
      "iĠd anĠ",
      "- k",
      "j uml",
      "ek onom",
      "us tr",
      "im b",
      "f is",
      "es k",
      "sat uĠ",
      "anĠ yang",
      "if ik",
      "Ġ of",
      "d alam",
      "aĠ yang",
      "im or",
      "is tr",
      "ul is",
      "ek siĠ",
      "olek ul",
      "ak siĠ",
      "or m",
      "r an",
      "B al",
      "Ġm eny",
      "Ġt ahun",
      "Ġse l",
      "emp at",
      "iĠd iĠ",
      "Ġp en",
      "n g",
      "Ã ¨",
      "em ud",
      "m er",
      "had ap",
      "er t",
      "ingk at",
      "Ġk on",
      "il mu",
      "aĠd anĠ",
      "d enganĠ",
      "Ġ g",
      "Ġm erupakanĠ",
      "h eĠ",
      "as al",
      "ont oh",
      "d ang",
      "i .Ġ",
      "ub ung",
      "is al",
      "t ar",
      "er n",
      "Ir landiaĠ",
      "energ iĠ",
      "p ro",
      "b entuk",
      "t eor",
      "el ahĠ",
      "aw anĠ",
      "an .Ġ",
      "as ional",
      "end ir",
      "l ik",
      "d asar",
      "il ih",
      "per k",
      "s if",
      "i anĠd",
      "aĠ (",
      "ut amaĠ",
      "un j",
      "or gan",
      "ar u",
      "ur un",
      "end uduk",
      "a ik",
      "iĠ b",
      "um b",
      "sat u",
      "Ġse pertiĠ",
      "sek itar",
      "in ter",
      "w ilay",
      "akh ir",
      "Ġter sebut",
      "Ġse caraĠ",
      "S kot",
      "Ġdi gunakanĠ",
      "ro p",
      "il ahĠ",
      "en al",
      "z at",
      "ip un",
      "seb u",
      "ritaniaĠR ay",
      "an -",
      "hingg aĠ",
      "ur anĠ",
      "ser t",
      "ter masuk",
      "Ġ E",
      "and ing",
      "ism e",
      "Ġin iĠm",
      "Ġper t",
      "et ikaĠ",
      "jug aĠd",
      "kanĠ k",
      "9 Ġ",
      "se h",
      "y arak",
      "ias anyaĠ",
      "uk um",
      "esk ipun",
      "Ġ f",
      "ah Ġp",
      "om b",
      "ik at",
      "t elah",
      "r ot",
      "iĠ yang",
      "y ak",
      "Ġyang Ġter",
      "al is",
      "Ġ adalahĠ",
      "s istem",
      "Ġ atauĠ",
      "ur uh",
      "or t",
      "j en",
      "as i",
      "N A",
      "Ġt elah",
      "ah kanĠ",
      "i ap",
      "Ġb anyak",
      "iĠd i",
      "al uiĠ",
      "e jar",
      "ula uĠ",
      "ant ar",
      "at er",
      "od e",
      "k imiaĠ",
      ".ĠD alam",
      "un c",
      "el um",
      "d ir",
      "ur ang",
      "us iaĠ",
      "Melay uĠ",
      "1 Ġ",
      "in iĠm",
      "ĠdanĠ m",
      "r af",
      "ist or",
      "ber k",
      "ay o",
      "angg ot",
      ".ĠS eb",
      "el aj",
      "ur ut",
      "a.Ġ S",
      "hasil kanĠ",
      "r on",
      "Ġ virus",
      "aĠ s",
      "or angĠ",
      "a upun",
      "E rop",
      "ial ek",
      "aĠ b",
      "il ak",
      "s on",
      "- Ġ|",
      "b agaiĠ",
      "an s",
      "ent ing",
      "ĠĠ0 Ġ,Ġ",
      "ang at",
      "h anyaĠ",
      "Ġb esar",
      "us us",
      ",Ġ b",
      "untuk Ġmeng",
      "em ik",
      "og raf",
      "Ġse k",
      "Ġ2 ĠĠ0ĠĠ0ĠĠ",
      "ya itu",
      "ukt ur",
      "er j",
      "Ġd is",
      "an anĠ",
      "iĠ p",
      "el omp",
      "l in",
      "fis ik",
      "T imor",
      "Ġk arenaĠ",
      "seb agianĠ",
      "unj uk",
      "er m",
      "en alĠ",
      "ke c",
      "em en",
      "s en",
      "8 Ġ",
      "in tah",
      "6 Ġ",
      "en siĠ",
      "en c",
      ", Ġdi",
      "ar kanĠ",
      "s uat",
      "ĠĠ2 ĠĠ0ĠĠ",
      "seb ab",
      "j ak",
      "1 Ġ,Ġ",
      "a.Ġ P",
      "ĠĠ2 ĠĠ",
      "g er",
      "ar uh",
      ".Ġ N",
      "en jadiĠ",
      "sejar ah",
      "ag n",
      "untuk Ġmen",
      "emer intah",
      "a ,ĠdanĠ",
      "j ut",
      "Ġb ah",
      "h ubung",
      "olog iĠ",
      "et r",
      "ud iĠ",
      "e in",
      "g ant",
      "anĠd iĠ",
      "ak ibat",
      "im ur",
      "Ġyang Ġs",
      "aĠd enganĠ",
      "el ain",
      "em uk",
      "tahun ĠĠ1ĠĠ",
      "uk uĠ",
      "an ,ĠdanĠ",
      "it is",
      "Ġm er",
      "er aj",
      "anĠd alam",
      "n asional",
      "ad ang",
      "elomp ok",
      "ak ter",
      "un d",
      "ad i",
      "al aĠ",
      "a ut",
      "l uar",
      "Ġdi p",
      ",Ġ se",
      "yarak at",
      "Ġ adalah",
      "t ingg",
      "ek t",
      "ar l",
      "un t",
      "wilay ahĠ",
      "ump ul",
      "ut ur",
      "Ġp aling",
      "yang Ġter",
      "t angg",
      "sif at",
      "ad aanĠ",
      "Ġ2 ĠĠ0ĠĠ",
      "G ayo",
      "Ġ elektron",
      "s id",
      "as anĠ",
      "w akt",
      "s alahĠ",
      ", ĠdenganĠ",
      "B ritaniaĠRay",
      "ik ut",
      "ip t",
      "angg ap",
      "ion alĠ",
      "A mer",
      "Ġdi b",
      "er ap",
      "kanĠ oleh",
      "ag am",
      "s ur",
      "Ġmeng gunakanĠ",
      "od ern",
      "b it",
      "tahun ĠĠ2ĠĠ0ĠĠ0ĠĠ",
      "inf eksiĠ",
      "i um",
      "u al",
      "h al",
      "2 ĠĠ",
      "tetap iĠ",
      "asal ĠdariĠ",
      "il anganĠ",
      "mas ing",
      "Ġb uayaĠ",
      "Ġk imiaĠ",
      "Y ah",
      "el uar",
      "ol ah",
      "iv ers",
      "anj ang",
      ".Ġ H",
      "per l",
      "- L",
      "os it",
      "Ġm atematik",
      "IrlandiaĠ U",
      "m el",
      "enyebab kanĠ",
      "ar at",
      "s endir",
      "e ,Ġ",
      "h usus",
      "is ,Ġ",
      "em ukanĠ",
      ".Ġ E",
      "ser ing",
      "I l",
      "p artikel",
      "n amaĠ",
      "Ġ adaĠ",
      "kanĠd enganĠ",
      "ejar ahĠ",
      "j elas",
      "Ġ atau",
      "air il",
      "ĠB aliĠ",
      "t on",
      "a el",
      "m em",
      "i an,Ġ",
      "anĠd ariĠ",
      "it us",
      "el it",
      "Ġ v",
      "dasar kanĠ",
      "sebu ahĠ",
      "jen is",
      "ek an",
      "S er",
      "itu ,Ġ",
      "u f",
      "at akanĠ",
      "ung g",
      "aer ahĠ",
      "aĠd iĠ",
      "âĢ ĵ",
      "el l",
      "at ur",
      "M ad",
      "ifik asiĠ",
      "Ġpeng etah",
      "str uktur",
      "Ġm atematikaĠ",
      "ĠA n",
      "ent araĠ",
      "neg ar",
      "end er",
      "Ġ umum",
      "amp aiĠ",
      "m emilikiĠ",
      "Ġse jar",
      "5 Ġ",
      "id ang",
      "as us",
      "i es",
      "at h",
      "V irus",
      "u atanĠ",
      "an c",
      "sel uruh",
      "Amer ikaĠ",
      "uk u",
      "ub ah",
      "ist ilahĠ",
      "eng k",
      "iĠ (",
      "g ar",
      "t araĠ",
      "Ġin f",
      "Ġ F",
      "u isiĠ",
      "ilm uĠ",
      ".ĠP enyakit",
      "ĠB ritaniaĠRayaĠ",
      "k al",
      "it er",
      "Ġ2 ĠĠ",
      "k ataĠ",
      "ber bagaiĠ",
      "unjuk kanĠ",
      "unc ul",
      "s amaĠ",
      "s um",
      "op ul",
      "0 ĠĠ0ĠĠ0ĠĠ",
      "Ġke c",
      "Ġk omp",
      "b uayaĠ",
      "-L est",
      "se orang",
      "Ġd id",
      "ter hadap",
      "erek aĠ",
      "c ap",
      "Indones ia.Ġ",
      "sejar ahĠ",
      "am anĠ",
      "ur n",
      "ep at",
      "se mu",
      "mu atanĠ",
      "ku ant",
      "per c",
      "a ianĠ",
      "as t",
      ".Ġ I",
      "in iĠd",
      "c ontoh",
      "ter k",
      "g el",
      "enalĠ sebagaiĠ",
      "nyaĠ d",
      "ul aiĠ",
      "Ġp ro",
      "m an",
      "it ik",
      "ol us",
      "Ġ seb",
      "in s",
      "al ah",
      "angs aĠ",
      "as ing",
      "sebagianĠ besar",
      "iĠm eng",
      "eraj aanĠ",
      "ar yaĠ",
      "M ar",
      "ĠB ahasaĠ",
      "Ġs er",
      "f ung",
      "ya ituĠ",
      "yak n",
      ".Ġ G",
      "tr ans",
      "Mad ur",
      "ber t",
      "istr ik",
      "es ir",
      "m emb",
      "us t",
      "i ar",
      "ut amaĠd",
      "sa at",
      "bah w",
      "Ġdi sebut",
      "isal nyaĠ",
      "r om",
      ".ĠP er",
      "ist ik",
      "P ran",
      "al u",
      "u is",
      "Ġyang Ġmeng",
      "i an",
      "a.Ġ D",
      "l ak",
      "in y",
      "a im",
      "ab il",
      "d ik",
      "Melay u",
      "abadĠke- Ġ1ĠĠ",
      "Ġp em",
      "j al",
      "Ġmen d",
      "os ial",
      "u ang",
      "- anak",
      "ilmu Ġpengetah",
      "Skot landiaĠ",
      "ad at",
      "ig aĠ",
      "p emb",
      "g aĠ",
      "aĠd alam",
      "s am",
      "ang kanĠ",
      "b eberapaĠ",
      "ter utamaĠ",
      "A ustr",
      "g h",
      "Ġh anyaĠ",
      "emud ianĠ",
      "b ud",
      "p end",
      "ber ikanĠ",
      "aw aĠ",
      "or d",
      "ew anĠ",
      "p em",
      "Ġs t",
      "-Lest e",
      "Ġdalam Ġ",
      "Ġ oleh",
      "ih at",
      "a an",
      "or itas",
      "bahasaĠ IndonesiaĠ",
      "ak an",
      "ah am",
      "Ġb ag",
      "gun aanĠ",
      "a :",
      "anj ut",
      "en ar",
      "un sur",
      "uk up",
      "uh anĠ",
      "ef in",
      "- b",
      "Ch airil",
      "ar uĠ",
      "ed u",
      "s in",
      "sp es",
      "O l",
      "tent u",
      "w is",
      "f er",
      "c at",
      "is h",
      "kanĠ olehĠ",
      "ot on",
      "B ritaniaĠ",
      "m atematik",
      "Ġyang Ġlebih",
      "aĠm eng",
      "f akt",
      "ap anĠ",
      "al ,Ġ",
      "m asaĠ",
      "el and",
      "ik atanĠ",
      "juml ah",
      "art iĠ",
      "Ġber k",
      ") ĠdanĠ",
      "Ġp ul",
      "ĠĠ 1",
      "- masing",
      "ĠĠ0Ġ -",
      "id ik",
      "n amun",
      "- t",
      "perk ir",
      "t an",
      "aĠp enyakit",
      "astr o",
      "yang Ġmeng",
      "ter b",
      "sert aĠ",
      "7 Ġ",
      "ar ah",
      "ung anĠ",
      ".Ġ In",
      "ter dapat",
      "lain nyaĠ",
      "un y",
      "yang Ġs",
      "C ontoh",
      "eh idup",
      "ul it",
      "et ode",
      "anak -anak",
      "Ã «",
      "Ġt etap",
      "ul t",
      "3 Ġ",
      "Ġ I",
      "l am",
      "en aiĠ",
      "9 Ġ,Ġ",
      "ivers itas",
      "iv itas",
      "m in",
      "aer ah",
      "\" ,Ġ",
      "h at",
      ",Ġ sepertiĠ",
      "am in",
      "h ukum",
      "N eg",
      "en j",
      "ograf iĠ",
      "Ġmas ih",
      "l i",
      "ger ak",
      "d uk",
      "Ġp artikel",
      "teor iĠ",
      "anggot aĠ",
      "ĠP er",
      "i ,ĠdanĠ",
      "ter l",
      "negar a-",
      "negara- negaraĠ",
      "k et",
      "b eberap",
      "Ġd iĠd",
      "il ang",
      "Ġh idup",
      ".ĠB ahasaĠ",
      "alam iĠ",
      "m erupakanĠ",
      "a it",
      "ul ar",
      "es is",
      "P ulauĠ",
      ".ĠN amun",
      "r asiĠ",
      "Ġpert amaĠ",
      "c ab",
      "r ed",
      "at us",
      "juml ahĠ",
      "a uh",
      "Ġm ungkin",
      "4 Ġ",
      "padaĠ tahunĠĠ1ĠĠ9ĠĠ",
      "Ġd iĠdalam",
      "ar y",
      "dir iĠdariĠ",
      ", ĠĠ1ĠĠ9ĠĠ",
      "Ġ =",
      "Ġm an",
      "ob at",
      "kuant um",
      "Skot land",
      "r ael",
      "wakt u",
      "a.Ġ M",
      "Ġ olehĠ",
      "ĠB ritaniaĠ",
      "aw al",
      "c ipt",
      "elaj ar",
      "Ġt heĠ",
      "el at",
      "t ingkat",
      "ang ,Ġ",
      "bahasaĠ MelayuĠ",
      "a at",
      "iĠ oleh",
      "Ġ jugaĠ",
      "b aw",
      "Ġb iasanyaĠ",
      "a.Ġ K",
      "s ub",
      "ter n",
      "Ġkec il",
      "t or",
      "h idup",
      "m ed",
      "Ġs p",
      "ar d",
      "p osit",
      "Ġm olekul",
      "organ ik",
      "seh atanĠ",
      "arl emen",
      "Ġyang Ġmen",
      "ekonom iĠ",
      "ah l",
      "ĠdanĠ k",
      "is asiĠ",
      "ter p",
      "p as",
      "im aĠ",
      "M al",
      "Ġt ingg",
      "ort ug",
      "un o",
      "ata -k",
      "Ġmel aluiĠ",
      "men jadiĠ",
      "at r",
      "d ariĠ",
      "gel omb",
      "jelas kanĠ",
      "aĠd ariĠ",
      "ek n",
      "ir anĠ",
      "it aĠ",
      "g ej",
      "om en",
      "kanĠ padaĠ",
      "gant ung",
      "entuk anĠ",
      "tr ad",
      "as e",
      "an k",
      "om in",
      "J erm",
      "on don",
      "ath emat",
      "athemat ic",
      "astro enter",
      "ĠAn war",
      "Is rael",
      "untuk Ġmem",
      "a iĠdenganĠ",
      "un yaĠ",
      "p ol",
      "ĠdariĠ Ġ",
      "l ah",
      "m eny",
      "ur uf",
      "h it",
      "at u",
      ".Ġ J",
      "Ġb aru",
      "T eng",
      "l eks",
      "Ġdapat Ġdi",
      "a.Ġ B",
      "d is",
      "se d",
      "et ak",
      "Ġter hadap",
      "perkir akanĠ",
      "ng k",
      "ek at",
      "ik s",
      "ev olus",
      "M esir",
      "aĠd i",
      "fakt or",
      "Ġd il",
      "ata upun",
      "ip ut",
      "seb elum",
      "res m",
      "eng aruh",
      "un ia.Ġ",
      "angs ung",
      "Ġin iĠd",
      "kon sep",
      "ag amaĠ",
      ".ĠD iĠ",
      "suat u",
      ".Ġ R",
      "m ak",
      "r um",
      "b ukt",
      ".ĠS elain",
      "at en",
      "Ġter k",
      "Ġ akanĠ",
      ")Ġ K",
      "aj ianĠ",
      "id ent",
      "y l",
      "c er",
      "uk uranĠ",
      "Il m",
      "agn etik",
      "rot ein",
      "eb as",
      "el ak",
      "ĠdanĠ d",
      "Ġk ek",
      "umpul anĠp",
      "ul anĠ",
      "Ġyang Ġtidak",
      "om un",
      "AmerikaĠ Ser",
      "Ġk ataĠ",
      "ula uanĠ",
      "ak art",
      "ke p",
      "en urut",
      "l og",
      "set elahĠ",
      "emb anganĠ",
      "k eb",
      "il aiĠ",
      "P eng",
      "astr aĠ",
      "f orm",
      "a iĠd",
      "v ari",
      "ĠĠ2ĠĠ0ĠĠ 1ĠĠ",
      "ilm i",
      "aw ab",
      "am atanĠ",
      "Ġd im",
      "k omp",
      "uk ur",
      "ter besar",
      "las ifikasiĠ",
      "Ġser ing",
      "Ilm uĠ",
      "ip ot",
      "suat uĠ",
      "M enter",
      "amaĠd enganĠ",
      "Ġp r",
      ".ĠP en",
      "il iter",
      "3 Ġ,Ġ",
      ",Ġ S",
      "emud ianĠd",
      "am at",
      "uat uĠ",
      "salahĠ satu",
      "se jak",
      "yangĠdi gunakanĠ",
      "t empat",
      "uj uk",
      ".Ġ L",
      "as i,Ġ",
      "i alĠ",
      "tahunĠĠ1ĠĠ 8ĠĠ",
      "Ġsek itar",
      "sum ber",
      "bed aanĠ",
      "amp ak",
      "har us",
      "yakn iĠ",
      "d isiĠ",
      "i :",
      "b iasanyaĠ",
      "j ek",
      "at or",
      "K ec",
      "ab up",
      "abup aten",
      "es aĠ",
      "aj ak",
      "s aĠ",
      "T h",
      "Ġb i",
      "an alis",
      "e ter",
      "ĠdariĠ t",
      "v ir",
      "j ab",
      "an iĠ",
      "ak u",
      ".ĠSeb agaiĠ",
      "e aksiĠ",
      "kanĠ diĠ",
      "ak ar",
      "Ġke padaĠ",
      "anĠm eng",
      "B eland",
      "Ġp emb",
      "meng gunakanĠ",
      "S ejarahĠ",
      "N us",
      "us at",
      "and ar",
      "k arenaĠ",
      "jut aĠ",
      "fung siĠ",
      "Ġmas yarakat",
      "a uĠ",
      "ter jadiĠ",
      "Ġ and",
      "ot al",
      "ro c",
      "roc od",
      "astroenter itis",
      "Ġk et",
      "7 Ġ,Ġ",
      "D uniaĠ",
      "k ek",
      "K ep",
      "d ek",
      "Ġm erek",
      "ĠbahasaĠ IndonesiaĠ",
      "se dang",
      "Indones ia,Ġ",
      "s angat",
      "ud ah",
      "Ġp enting",
      "Ġm enyeb",
      "Ġbah waĠ",
      "em ungkin",
      "P adaĠ",
      "berk embang",
      "Ġd ilak",
      "ar us",
      "k husus",
      "k an",
      "Neg araĠ",
      "and ung",
      "e y",
      "v in",
      "ĠĠ0Ġ .Ġ",
      "os isiĠ",
      "trad is",
      "ub uh",
      "eny air",
      "l ektr",
      "tent ang",
      "as am",
      "Ġsejar ah",
      "Yah udiĠ",
      "Timor -Leste",
      "IrlandiaĠU taraĠ",
      "id en",
      "ak il",
      "8 Ġ,Ġ",
      "Ġse m",
      "umum nyaĠ",
      "Ġs ert",
      "per d",
      "ol on",
      "BahasaĠ IndonesiaĠ",
      "sek olah",
      "ata-k ataĠ",
      "ut am",
      ".ĠS em",
      "b agianĠ",
      "ar ang",
      "Ġb entuk",
      ".ĠP eng",
      "2 Ġ",
      "Ġ( p",
      "Ġp opul",
      "end apat",
      "end ah",
      "in i,Ġ",
      "Pran c",
      "urun anĠ",
      "anding kanĠdenganĠ",
      "kanĠd alam",
      "istor y",
      "vin siĠ",
      "Ġse p",
      "i .ĠK",
      "tangg ung",
      "r ist",
      "Ġke Ġ",
      "us ik",
      "l uk",
      "iniĠ ber",
      "Ġb is",
      "Ġ| -Ġ|",
      "y Ã¢",
      "Ġk aren",
      "ĠC h",
      "as ikanĠ",
      "il s",
      "m olekul",
      "a virus",
      "Yah ud",
      "aj aĠ",
      "ac h",
      "Ġl uas",
      "Ġm enyebabkanĠ",
      "yangĠdi p",
      "emerintah anĠ",
      "g angg",
      "as iĠm",
      "iĠm ed",
      "Ġ jugaĠm",
      "a ul",
      "any akanĠ",
      "Inggris ĠdanĠ",
      "Ġp enduduk",
      "In d",
      "bag iĠ",
      "al ik",
      "n ah",
      ".Ġ F",
      ",Ġ p",
      "ub l",
      "ber dasarkanĠ",
      "ay aanĠ",
      "Ġ( Ġ1ĠĠ9ĠĠ",
      "dang -",
      "g amb",
      "lik asiĠ",
      "Ġs ub",
      ",Ġ atau",
      "od eĠ",
      "Ġ2ĠĠ0ĠĠ 1ĠĠ",
      "al Ġ(",
      "ag en",
      "os is",
      "al anĠ",
      "ari padaĠ",
      "ep atanĠ",
      "lektr on",
      "Ġyang Ġdik",
      "Ġm ater",
      "Ġdapat Ġber",
      "Ġk asus",
      "at ion",
      "i om",
      "IrlandiaĠU tar",
      "iĠ Erop",
      "ek erj",
      "Ġtahun ĠĠ1ĠĠ9ĠĠ",
      "g ab",
      "r adi",
      "ke padaĠ",
      "l ok",
      "r y",
      "N amun",
      "at aranĠ",
      "ig n",
      "J aw",
      "AmerikaĠSer ikat",
      "P ortug",
      "uĠ (",
      "Indones ia",
      "Ġin i,Ġ",
      "emik ian,Ġ",
      "as iĠd",
      "il ah",
      "isal nya,Ġ",
      "ed uaĠ",
      "amp ir",
      "K erajaanĠ",
      "aw asanĠ",
      "an )",
      ",Ġ s",
      "j am",
      "ut r",
      "in am",
      "ilih anĠ",
      "t ulis",
      "j ikaĠ",
      "ah as",
      "6 Ġ,Ġ",
      "gej al",
      "sebut ĠsebagaiĠ",
      "R ep",
      "b aik",
      "Un tuk",
      "sif atĠ",
      "er h",
      "Ol eh",
      "u Ġk",
      "P en",
      ".ĠB er",
      "i )Ġ",
      "yang Ġmem",
      "id a",
      "Ġs istem",
      "em u",
      "ĠĠ2 Ġ,Ġ",
      "b is",
      "imb ol",
      "har g",
      "ĠyangĠber bed",
      "| -Ġ|",
      "j Ã¢",
      "ngk atanĠ",
      "ic h",
      "neg atif",
      "Ġ atom",
      "eor iĠ",
      "re aksiĠ",
      "t im",
      "tanggung Ġj",
      "tanggungĠj awab",
      "Ġb akter",
      "Ġp enyebab",
      "o virus",
      "a anĠd",
      "Ġse jak",
      "akibat kanĠ",
      "Per angĠ",
      "Ġd ir",
      "em ber",
      "as ionalĠ",
      "iput iĠ",
      "Ġse t",
      "st itus",
      "bah as",
      "ub ahanĠ",
      "pro ses",
      "abadĠke- Ġ2",
      "b aru",
      "am bah",
      "iĠ ber",
      "on es",
      "p ulauĠ",
      "ak aiĠ",
      "as iĠdariĠ",
      "5 Ġ,Ġ",
      "es at",
      "ĠB al",
      "Ġ.Ġ 0ĠĠ0ĠĠ0ĠĠ",
      "seb ag",
      "ol ong",
      "cap aiĠ",
      "t ak",
      "tent uĠ",
      "ap iĠ",
      "T heĠ",
      "al kanĠ",
      "seb anyak",
      "sem b",
      "i .ĠM",
      "bahasaĠ BaliĠ",
      "m uk",
      "m on",
      "emik ianĠ",
      "f ilm",
      "ol ahĠ",
      "ekt if",
      "at uĠ",
      "spes ies",
      "er ang",
      "gen etik",
      "oh n",
      "imb ul",
      "embang kanĠ",
      "id ro",
      "od el",
      "or bit",
      "ikaĠ kuantum",
      "st udiĠ",
      "Ġter jad",
      "ap sid",
      "NA Ġ",
      ".ĠS et",
      "aĠ ber",
      "Ġp as",
      "ĠT imur",
      "ef er",
      "yang Ġpaling",
      "ak uiĠ",
      "Ġm aupun",
      "ĠĠ0Ġ %",
      "aĠm en",
      "u ter",
      "per i",
      ",Ġ t",
      "inter nasional",
      "em ah",
      "int ahĠ",
      "tangg al",
      "K on",
      "j ud",
      "jud ul",
      "p enduduk",
      "Ġlain nyaĠ",
      "As iaĠ",
      "end idik",
      "af tar",
      "son anĠ",
      "/ ,Ġ",
      "/,Ġ /",
      "umb uh",
      "hubung anĠ",
      "antaraĠ lain",
      "d ukt",
      "un ung",
      "B er",
      "il anĠ",
      "Ġ itu,Ġ",
      "ap ak",
      "s osial",
      "ĠA r",
      "ar e",
      "l ap",
      "\" Ġ(",
      "rocod yl",
      "per ilak",
      "us im",
      "kanĠd ariĠ",
      "j ung",
      "n ilaiĠ",
      "o per",
      "s ,Ġ",
      "ilmuĠpengetah uanĠ",
      "ar b",
      "t iv",
      "b akter",
      "ĠP enyakit",
      "istor i",
      "res iden",
      "ĠpadaĠ tahunĠĠ1ĠĠ9ĠĠ",
      "d anaĠ",
      "âĢ Ķ",
      "ak y",
      "as ih",
      "Is lam",
      "s al",
      "ap un",
      "Ġd uniaĠ",
      "ay oritas",
      "neg er",
      "ter utamaĠd",
      "et n",
      "Ġb eberapaĠ",
      "Ġse mu",
      "d it",
      "ir ip",
      "P ol",
      "e caraĠ",
      "ud ut",
      "ar iĠd",
      "s ampaiĠ",
      "etah uiĠ",
      "Ġk ehidup",
      "m isalnyaĠ",
      "dik it",
      "ianĠd ariĠ",
      "emer intahĠ",
      "kec il",
      "J akart",
      "enal ĠdenganĠ",
      "k em",
      "se pert",
      "ubl ikĠ",
      "em enter",
      "p araĠ",
      "B B",
      "uny aiĠ",
      "ber s",
      "s is",
      "j iw",
      "meng hasilkanĠ",
      "eng ah",
      "art aiĠ",
      "lain nya.Ġ",
      "anĠ (",
      "em uanĠ",
      "ingk atanĠ",
      "om etr",
      "sekitar ĠĠ",
      "Ġk er",
      "Ġ U",
      ")Ġ S",
      "i ot",
      "sebab kanĠoleh",
      "ar k",
      "om ent",
      "f oton",
      "fisik awanĠ",
      "k im",
      "uk le",
      "semu aĠ",
      "eny aw",
      "efin isiĠ",
      "jung tiv",
      "aks iom",
      "Un iĠErop",
      "Ġs en",
      "Menter iĠ",
      "ins ip",
      "Ar ab",
      "se orangĠ",
      "A k",
      "gab ung",
      "a.ĠP adaĠ",
      ".ĠK etikaĠ",
      "al ĠiniĠm",
      "Ġ1ĠĠ9ĠĠ 9ĠĠ",
      "amp u",
      "Ġber t",
      "ik anĠp",
      "ad anyaĠ",
      "Kep ulauanĠ",
      "ari -",
      "aĠd apat",
      "Ġk at",
      "Ġmer ujuk",
      "c ak",
      "in c",
      "in i",
      "t at",
      "ar aanĠ",
      "- d",
      "p el",
      "Ġter jadiĠ",
      "aĠp eng",
      "baw ahĠ",
      "seh at",
      "ĠdanĠ t",
      "Chairil ĠAnwar",
      "Ġdilak ukanĠ",
      "ingk atĠ",
      ",Ġ yaituĠ",
      "yang Ġdit",
      "aĠm em",
      "ib us",
      "âĢ Ļ",
      "a an,Ġ",
      "elit ianĠ",
      "Ġb idang",
      "adang -k",
      ",Ġ yaitu",
      "Ġter tentu",
      "ĠĠ0Ġ.Ġ 0ĠĠ0ĠĠ0ĠĠ",
      "5 Ġ%",
      "ke adaanĠ",
      "D esaĠ",
      "ter jad",
      "iĠm anaĠ",
      "ut uh",
      "Kec amatanĠ",
      "r ag",
      "gantung ĠpadaĠ",
      "Ġb aik",
      "anĠ B",
      "g ayaĠ",
      "cipt akanĠ",
      "iĠd apat",
      "ed iaĠ",
      "ep as",
      "atauĠ lebih",
      "Madur aĠ",
      "ul uh",
      "Y un",
      "ar g",
      "ak ut",
      "an as",
      "Ġd aripadaĠ",
      "c ah",
      "l istrik",
      "Ġber muatanĠ",
      "ekan ikaĠkuantum",
      "ipot esis",
      "Ġmemb entuk",
      "Ġmen ular",
      "p enyebab",
      "m atematikaĠ",
      "o ur",
      "L ondon",
      "Ġd u",
      ".ĠPadaĠ tahunĠĠ1ĠĠ9ĠĠ",
      "at ang",
      "emb ag",
      "emb aliĠ",
      "imp in",
      "Ġt an",
      "salahĠ satuĠ",
      "m il",
      "sebu ah",
      "Ġ al",
      "4 Ġ,Ġ",
      "av id",
      "mas alahĠ",
      "adaĠ diĠ",
      "as p",
      "Austr al",
      "peng aruh",
      "l angsung",
      "ak uĠ",
      "an nya,Ġ",
      "ar ianĠ",
      "el atif",
      "Ġb eberap",
      "Austr ones",
      "a i",
      "Ġ O",
      "Ġyang Ġdit",
      "Ġ itu",
      "las ik",
      "Ġpul aĠ",
      "b atas",
      "ir iĠ",
      "er bit",
      "j aanĠ",
      "us un",
      "sem ak",
      "Ġc ukup",
      "is ĠdanĠ",
      "Inggr isĠ",
      "el aluiĠ",
      ", ĠdiĠ",
      "es m",
      "h am",
      "ay a,Ġ",
      "lain nya,Ġ",
      "yang Ġmen",
      "ob jek",
      "wakt uĠ",
      "Ġd asar",
      "uj uanĠ",
      "ok s",
      "sel amaĠ",
      "e ĠB",
      "ind ustr",
      "ata -",
      "Ġyang Ġk",
      "Ġl og",
      "iz in",
      "tan p",
      "ilik iĠm",
      "us ia.Ġ",
      "Ġt ungg",
      "umpul anĠ",
      "oment um",
      "idro gen",
      "fis ikaĠ",
      "f ase",
      "og en",
      "ok sid",
      "P enyakit",
      "Ġin ang",
      "Ir land",
      "per ium",
      "ĠB ritaniaĠRay",
      "ĠS kot",
      ".ĠA n",
      "ub ahĠ",
      "aĠk on",
      "us ah",
      "ant u",
      "set elah",
      "l ag",
      "T er",
      "Ġ1ĠĠ9ĠĠ 7ĠĠ",
      "Ġof ĠtheĠ",
      "an Ġ",
      "an g",
      "en g",
      "ah Ġ",
      "y ang",
      "b er",
      "t er",
      "at Ġ",
      "aĠ d",
      "Ġd anĠ",
      "k anĠ",
      "p er",
      "se b",
      "ĠĠ 0",
      "yang Ġ",
      "b ah",
      "ar iĠ",
      "y aĠ",
      "iĠ d",
      "ad aĠ",
      "ar aĠ",
      "in g",
      "a iĠ",
      "am Ġ",
      "anĠ d",
      "1 ĠĠ",
      "a uĠ",
      "un g",
      "ang Ġ",
      "as aĠ",
      "Ġd i",
      "a ,Ġ",
      "eng anĠ",
      ", ĠdanĠ",
      "a .Ġ",
      "ak anĠ",
      "is t",
      "Ġd iĠ",
      "al amĠ",
      "an d",
      "i aĠ",
      "tu k",
      "em b",
      "Ġm en",
      "m en",
      "an t",
      "al Ġ",
      "ĠĠ0 ĠĠ",
      "t ah",
      "bah asaĠ",
      "r o",
      "a anĠ",
      "n yaĠ",
      "ak Ġ",
      "al ahĠ",
      "ag aiĠ",
      "Ġd ariĠ",
      "en d",
      "p adaĠ",
      "un tuk",
      "9 ĠĠ",
      "i anĠ",
      "ul auĠ",
      "am aĠ",
      "j ad",
      "en t",
      "ĠĠ 1ĠĠ",
      "a in",
      "per t",
      "seb agaiĠ",
      "as iĠ",
      "i on",
      "an y",
      "ĠĠ 2",
      "ol e",
      "Ġm eng",
      "ad alahĠ",
      "at aĠ",
      "s iĠ",
      "tah un",
      "g aĠ",
      "at uĠ",
      "i tu",
      "u aĠ",
      "m as",
      ".Ġ P",
      "i ,Ġ",
      "Ġm em",
      "ar Ġ",
      ".Ġ S",
      "as Ġ",
      "in iĠ",
      "jad iĠ",
      "an ,Ġ",
      "Ġd enganĠ",
      "seb ut",
      "T im",
      "ik Ġ",
      "at anĠ",
      "I s",
      "Ġ ,Ġ",
      "m eng",
      "ik anĠ",
      "en Ġ",
      "j id",
      "m em",
      "ar t",
      "w aĠ",
      "l ain",
      "m er",
      "Ġ .Ġ",
      "a er",
      "c araĠ",
      "k ot",
      "Ġ ke",
      "an aĠ",
      "b ag",
      "ole hĠ",
      "In d",
      "er us",
      "- Ġ",
      "at auĠ",
      "al em",
      "P ulauĠ",
      "J aw",
      "p eng",
      "erus alem",
      "Tim ur",
      "g un",
      "em p",
      "aĠd anĠ",
      "aer ahĠ",
      ".Ġ K",
      "ĠĠ0 ĠĠ0ĠĠ",
      "Ġ yangĠ",
      "se k",
      "il ik",
      "Ġ ber",
      "Jaw aĠ",
      "aĠd iĠ",
      "er ej",
      "t id",
      "tu r",
      ".Ġ D",
      "se l",
      "on es",
      "Y erusalem",
      "an yaĠ",
      "Ġp adaĠ",
      "6 ĠĠ",
      "4 ĠĠ",
      "ilik iĠ",
      "Ġd alamĠ",
      "Ind ones",
      "8 ĠĠ",
      "am p",
      "p em",
      "ang anĠ",
      "o f",
      "il ay",
      "ap at",
      "u anĠ",
      "ang g",
      "Ġ ter",
      "yang Ġdi",
      "e ber",
      "ol og",
      "se pert",
      "ap aĠ",
      "kanĠ d",
      "p en",
      ".Ġ B",
      "es t",
      "bah waĠ",
      "er t",
      "f il",
      "ĠĠ1ĠĠ 9ĠĠ",
      "ro v",
      "bah as",
      "er in",
      "is m",
      "su atuĠ",
      "y ak",
      "ik aĠ",
      "Ġm er",
      "se caraĠ",
      "7 ĠĠ",
      "rov in",
      "r ist",
      "se j",
      "sepert iĠ",
      "r es",
      "k on",
      "ber b",
      "yang Ġd",
      "anĠd anĠ",
      "is Ġ",
      "Ġ 1ĠĠ",
      "n eg",
      "erej aĠ",
      "t el",
      "en tuk",
      ") ,Ġ",
      "s Ġ",
      "eber apaĠ",
      "l and",
      "JawaĠ Timur",
      "w ilay",
      "ju gaĠ",
      "i v",
      "ar anĠ",
      "an j",
      "al am",
      "5 ĠĠ",
      "ing g",
      "s em",
      "as jid",
      "i hĠ",
      "ing k",
      "seb u",
      "ant araĠ",
      "in d",
      "a yaĠ",
      "s af",
      "is iĠ",
      "ter sebut",
      "or angĠ",
      "l eb",
      "kot aĠ",
      "up akanĠ",
      "u kanĠ",
      "Ġmen jadiĠ",
      "men jadiĠ",
      "et ap",
      "k ataĠ",
      "uh anĠ",
      "k em",
      ".Ġ M",
      "as anĠ",
      "p end",
      "gun akanĠ",
      "r e",
      "er s",
      "ĠP ulauĠ",
      "up at",
      "emb ang",
      "as ion",
      "g r",
      "3 ĠĠ",
      "iĠd anĠ",
      "a ,ĠdanĠ",
      "an us",
      "sebu ahĠ",
      "y ar",
      "ab upat",
      "mas jid",
      "an anĠ",
      "aĠd i",
      "G erejaĠ",
      "ek s",
      "i a.Ġ",
      "r a",
      "b es",
      "um um",
      "om p",
      "Indones iaĠ",
      "P er",
      ".Ġ T",
      "emp atĠ",
      "it asĠ",
      "y Ġ",
      "ar en",
      "k el",
      "wilay ahĠ",
      "k er",
      "k al",
      "at u",
      "on t",
      "tid akĠ",
      "s atuĠ",
      "m ak",
      "or m",
      "iĠd iĠ",
      "ek aĠ",
      "ud uk",
      "l ahĠ",
      "h ar",
      "ist em",
      "P ap",
      "it as",
      "yang Ġm",
      "ap atĠ",
      "erin tah",
      "on g",
      "r an",
      "B ar",
      "m el",
      "yangĠ ber",
      "k at",
      "saf atĠ",
      "iĠd ariĠ",
      "h eĠ",
      "og yak",
      "ogyak art",
      "ung anĠ",
      "k a",
      "se d",
      "e c",
      "h il",
      "ism e",
      "b ang",
      "Ġ -Ġ",
      "Is l",
      "aren aĠ",
      "ra el",
      "Is rael",
      "un Ġ",
      "am anĠ",
      ".Ġ A",
      "rovin siĠ",
      "b any",
      "Y ogyakart",
      "ut Ġ",
      "se p",
      "us Ġ",
      "Ġmen y",
      "an -",
      "ot aĠ",
      "aĠd ariĠ",
      "i al",
      "iĠd alamĠ",
      "aĠd enganĠ",
      "D I",
      "k u",
      "anĠd iĠ",
      ".ĠP adaĠ",
      "ny a,Ġ",
      "ah asaĠ",
      "DI Y",
      "ab ad",
      "mem ilikiĠ",
      "in t",
      "im p",
      "Y ah",
      "b eberapaĠ",
      "K rist",
      "um Ġ",
      "t etap",
      "b ar",
      "l ah",
      "Ġmem ilikiĠ",
      "anĠd enganĠ",
      "as i",
      "I r",
      "abupat enĠ",
      "t empatĠ",
      "ny a.Ġ",
      "e h",
      "en tu",
      "at ur",
      "Yah ud",
      "tid ak",
      "ĠĠ2 ĠĠ",
      "Pap uaĠ",
      "ap Ġ",
      "in Ġ",
      "yangĠ ter",
      "anĠd ariĠ",
      "p ro",
      "ing u",
      "K on",
      "as ar",
      "ole h",
      "un d",
      "om un",
      "al aĠ",
      "n asion",
      "at if",
      "ir iĠ",
      "i a,Ġ",
      "a im",
      "berb ed",
      "ent angĠ",
      "Ġm el",
      "neg araĠ",
      "t im",
      "h al",
      "an ,ĠdanĠ",
      "a atĠ",
      "l im",
      "b at",
      "b i",
      "op h",
      "un anĠ",
      "ang -",
      "ak h",
      "ke d",
      "or iĠ",
      "h ing",
      "ang k",
      "h ad",
      "ag amaĠ",
      "al iĠ",
      "ert aĠ",
      "s istem",
      "sek it",
      "t e",
      "iv ers",
      "t ar",
      "os oph",
      "ir Ġ",
      "ĠĠ2 ĠĠ0ĠĠ",
      "b entuk",
      "p ul",
      "f r",
      "hil osoph",
      "bag iĠ",
      "tahun ĠĠ1ĠĠ9ĠĠ",
      "leb ihĠ",
      "ter d",
      "tel ah",
      "S ur",
      "S el",
      "men y",
      "hing gaĠ",
      "ol it",
      "ar i",
      "iĠd enganĠ",
      "um lahĠ",
      "p el",
      "k emb",
      "o ,Ġ",
      "ung k",
      "ur u",
      "al u",
      "us tr",
      "ingu ist",
      "s if",
      "T eng",
      "aĠd alamĠ",
      "D aerahĠ",
      "m anus",
      "fil safatĠ",
      "N ug",
      "as il",
      "s er",
      "w ak",
      "G us",
      "S M",
      "e ter",
      "an iĠ",
      "In g",
      "r it",
      "Ir land",
      "K abupatenĠ",
      "t ingg",
      "mas uk",
      "an nyaĠ",
      "ar ahĠ",
      "ah anĠ",
      "bag ianĠ",
      "Ing gr",
      "apat Ġdi",
      "s tr",
      "T uhanĠ",
      "Gus m",
      "Ã £",
      "aw asanĠ",
      "uk uĠ",
      "bes ar",
      "ĠĠ2 ĠĠ0ĠĠ0ĠĠ",
      "Gusm Ã£",
      "in i",
      "Ġ.Ġ 0",
      "mer upakanĠ",
      "yang Ġmeng",
      "ak s",
      "Ġmer upakanĠ",
      "Ġd ik",
      "emb ag",
      "olog iĠ",
      "\" Ġ",
      "Ġm as",
      "t an",
      "B ahasaĠ",
      "abad Ġke",
      "g ant",
      "en siĠ",
      "Isl am",
      "s am",
      "Ġp eng",
      "R om",
      "h ub",
      "se s",
      "ur ut",
      "se g",
      "ak u",
      "seb ag",
      "ant aiĠ",
      "ar k",
      "t entu",
      "ul a",
      "s os",
      ", Ġd",
      "tel ahĠ",
      "ir anĠ",
      "at ,Ġ",
      "mer ekaĠ",
      "k arenaĠ",
      "er d",
      "l inguist",
      "Yogyakart aĠ",
      "in iĠd",
      "K otaĠ",
      "a up",
      "Ġp em",
      "al ah",
      "ung Ġ",
      "is ,Ġ",
      "al anĠ",
      "ub l",
      "rovin s",
      "M al",
      "tr ad",
      "1 ĠĠ0ĠĠ",
      "id up",
      "ro p",
      "u bah",
      "Ġ2 ĠĠ0ĠĠ",
      "ik ,Ġ",
      "um atĠ",
      "un iaĠ",
      "un c",
      "m anaĠ",
      "Ġ G",
      "ĠĠ0 ĠĠ0",
      "âĢ ĵ",
      "k en",
      "N eg",
      "F il",
      "yang Ġmen",
      "erintah anĠ",
      "el ahĠ",
      "in i,Ġ",
      "Ġ adalahĠ",
      "ant ar",
      "al ,Ġ",
      "pend uduk",
      "pert amaĠ",
      "untuk Ġ",
      "tetap iĠ",
      "ent araĠ",
      "Ġm emb",
      "omp ok",
      "k omun",
      "us lim",
      "aj aanĠ",
      "M ad",
      "or d",
      "l em",
      "ing Ġ",
      "ut amaĠ",
      "ber ad",
      "s ertaĠ",
      "s ul",
      "angg al",
      "Ġ1ĠĠ 9ĠĠ",
      "s p",
      "tahun ĠĠ1ĠĠ",
      "h anyaĠ",
      "ag am",
      "sekit ar",
      "k l",
      "erin t",
      "erint ahĠ",
      "ik asiĠ",
      "Ġm asjid",
      "am b",
      "om in",
      "ism eĠ",
      "m emb",
      "er n",
      "K er",
      "Ġ H",
      "l ak",
      "leb ih",
      "or t",
      "at akanĠ",
      "kh us",
      "r um",
      "re en",
      "os of",
      "ter masuk",
      "M en",
      "n amaĠ",
      "ingk atĠ",
      "il m",
      "h idup",
      "ist r",
      "w is",
      "reen land",
      "abadĠke -Ġ",
      "anĠd alamĠ",
      "an .Ġ",
      "h asil",
      "Ġd iĠd",
      "in y",
      "\" ,Ġ",
      "ak t",
      "n aĠ",
      "uk tur",
      "b a",
      "K at",
      "at au",
      "kem ud",
      ".ĠD alamĠ",
      "bany akĠ",
      ", ĠdiĠ",
      "s atu",
      "in yaĠ",
      "Ġ sebagaiĠ",
      "e waĠ",
      "il ahĠ",
      "2 ĠĠ",
      "en c",
      "Sur ab",
      "s alahĠ",
      "bag i",
      "at kanĠ",
      "yar ak",
      "untuk Ġmeng",
      "A mer",
      "ont oh",
      "aj aĠ",
      "s al",
      "art iĠ",
      "M asjid",
      "l is",
      "p us",
      "ang s",
      "a.Ġ S",
      "ut iĠ",
      "m in",
      "b ud",
      "t entangĠ",
      "ĠP hilosoph",
      "ju g",
      "i ,ĠdanĠ",
      "at iĠ",
      "Un ivers",
      "on d",
      "untuk Ġmen",
      "as al",
      "b ed",
      "j el",
      "Ġ2 ĠĠ0ĠĠ0ĠĠ",
      "G reenland",
      "Nug iniĠ",
      "is yar",
      "ut am",
      "ya itu",
      "ĠĠ0 Ġ",
      "hub ung",
      "ke c",
      "a.Ġ P",
      "l a",
      "lain nyaĠ",
      "atĠ K",
      "GusmÃ£ o",
      "ang kanĠ",
      "in ter",
      "b uk",
      "ih atĠ",
      "at -",
      "ut anĠ",
      "men c",
      "en s",
      "fil osof",
      "ter tentu",
      "Krist en",
      "an c",
      "i .Ġ",
      ".ĠD iĠ",
      "Ġ.Ġ0 ĠĠ0ĠĠ0ĠĠ",
      "sebut Ġ",
      "asar kanĠ",
      "ap anĠ",
      "Rom aw",
      "u ar",
      "I I",
      "ke t",
      "es ar",
      "u hĠ",
      "p emb",
      "ur Ġ",
      "ion alĠ",
      "A ustr",
      "on om",
      "aĠ PulauĠ",
      "et ak",
      "i an",
      "s amaĠ",
      "s aatĠ",
      "p olit",
      "a is",
      "ep ubl",
      "j ek",
      "em ber",
      "Neg araĠ",
      "k es",
      "sif atĠ",
      "Ġt heĠ",
      "u tu",
      "Ġt id",
      "it Ġ",
      "as t",
      "at as",
      "el um",
      "K ep",
      "aim anaĠ",
      "p un",
      "su araĠ",
      "S er",
      "Kat ol",
      "od ern",
      "as ikanĠ",
      ", Ġdi",
      "j al",
      "ĠĠ0 Ġ,Ġ",
      "peng ar",
      "Ar ab",
      "Y un",
      "od eĠ",
      "R epubl",
      "h uk",
      "ah ,Ġ",
      "j em",
      "es k",
      "et ah",
      "Tim or",
      "orm atanĠ",
      "N g",
      "at asĠ",
      "r u",
      "ad alah",
      "ung g",
      "w ar",
      "al is",
      "any ak",
      "i aĠdanĠ",
      "ar ang",
      "p rovins",
      "an tu",
      "end uduk",
      "b is",
      "at uanĠ",
      "e isme",
      "o j",
      "D af",
      "ib uĠ",
      "K ek",
      "se telahĠ",
      "; Ġ",
      "est in",
      "am un",
      "p araĠ",
      "a an",
      "em ik",
      "og r",
      "g ar",
      ", ĠdenganĠ",
      "itu ,Ġ",
      "ter had",
      "U t",
      "su f",
      "yĠ of",
      "Irland iaĠ",
      "k ad",
      "Kon sul",
      "Is tim",
      "Surab ay",
      "ter l",
      "res id",
      "op ul",
      "ber ikanĠ",
      "se hinggaĠ",
      "akh ir",
      ".Ġ H",
      "i aĠd",
      "b aw",
      "E rop",
      "Amer ikaĠ",
      "khus us",
      "kot aanĠ",
      "ula uanĠ",
      "a it",
      "ungk in",
      "tu ju",
      "ke padaĠ",
      "al estin",
      "an iaĠ",
      "anĠd i",
      "Krist enĠ",
      "r aĠ",
      "el ah",
      "ĠdanĠ d",
      "ef in",
      "k ir",
      "alu iĠ",
      "k ur",
      "str uktur",
      "aup un",
      "bi as",
      "eh ormatanĠ",
      "or f",
      "e aĠ",
      "A b",
      "Ker ajaanĠ",
      "ka um",
      "ak ukanĠ",
      "st at",
      "ke p",
      "unc ul",
      "G un",
      ".ĠP er",
      "uh iĠ",
      "Ġmem per",
      "h alĠ",
      "un j",
      ".ĠS eb",
      "A s",
      "r i",
      "iĠ P",
      "Republ ikĠ",
      "P rovinsiĠ",
      "m at",
      "e ,Ġ",
      "kel ompok",
      "Ġ J",
      "sos ial",
      "manus iaĠ",
      "Ġ( Konsul",
      "atĠK ehormatanĠ",
      "ik en",
      "ny aĠd",
      "D alamĠ",
      "Isl amĠ",
      "s ang",
      "berb agaiĠ",
      "men d",
      "an i",
      "ber d",
      "uk Ġ",
      "ip utiĠ",
      "Ġm anus",
      "aw anĠ",
      "or ang",
      "sem uaĠ",
      "t or",
      "as kanĠ",
      "an s",
      "j aĠ",
      "meng gunakanĠ",
      "c ontoh",
      "T uh",
      "te oriĠ",
      "u w",
      "ber n",
      "JawaĠTimur Ġ",
      "salahĠ satuĠ",
      "rist en",
      "u ,Ġ",
      "s ud",
      "K e",
      "Ġ R",
      "ser ing",
      "Yahud iĠ",
      ".ĠB eberapaĠ",
      "f ung",
      "ib ad",
      "k omp",
      "ik ĠdanĠ",
      "g ab",
      "t anggal",
      "em en",
      "i alĠ",
      "Austr al",
      "pel aj",
      "hal es",
      "il ih",
      "u bern",
      "Mad ur",
      "Istim ewaĠ",
      "S ul",
      "k it",
      "b ol",
      "tahun ĠĠ",
      "as arĠ",
      "nasion al",
      "mem per",
      "m is",
      "S um",
      "ĠyangĠ ber",
      "lu arĠ",
      "u atĠ",
      "sel amaĠ",
      "- s",
      "ke ku",
      "l ok",
      "ap iĠ",
      "b ul",
      "per kotaanĠ",
      "l iĠ",
      "wis ataĠ",
      "Ġ(Konsul atĠKehormatanĠ",
      "bat as",
      "ar lem",
      "nasion alĠ",
      "terd apatĠ",
      "tahun ĠĠ2ĠĠ0ĠĠ",
      "aĠ (",
      "an kanĠ",
      "eng anĠd",
      "sel ur",
      "ah kanĠ",
      "Ġt elah",
      "in s",
      "se orangĠ",
      "g er",
      "Ġp r",
      "d iĠ",
      "Bar at",
      "P em",
      "ain Ġ",
      ".Ġ C",
      "ilm uĠ",
      "bag aimanaĠ",
      "bahas aĠd",
      "t ataĠ",
      "Yerusalem Ġ",
      "ah Ġd",
      "eg un",
      "il l",
      "ent ing",
      "E n",
      "an \"",
      "trad is",
      "Ġdi p",
      "pus atĠ",
      "bes arĠ",
      "sebag ianĠ",
      "r is",
      "imp in",
      "Ġmen c",
      "amp aiĠ",
      "ĠA r",
      ".ĠS el",
      "1 Ġ,Ġ",
      "r at",
      "k awasanĠ",
      "st itu",
      "ist im",
      "ang ,Ġ",
      "embang unanĠ",
      "and anganĠ",
      "Ġ per",
      "Univers itasĠ",
      ".Ġ N",
      "aw al",
      "ist ilahĠ",
      "ogr af",
      "ul aiĠ",
      "Ġke padaĠ",
      "il Ġ",
      "ic ar",
      "ip un",
      "p rovinsiĠ",
      "ik a,Ġ",
      "eks p",
      "Fil safatĠ",
      "PulauĠ B",
      "t ingkatĠ",
      "DaerahĠ IstimewaĠ",
      "abupat en",
      "G uaĠ",
      "yangĠ p",
      "ke Ġ",
      "kanĠd ariĠ",
      "yang Ġmem",
      "kanĠd iĠ",
      "yangĠ berbed",
      "kemud ianĠ",
      "Inggr is",
      "ah -",
      "neg ar",
      "bagi anĠdariĠ",
      "ke berad",
      "j umlahĠ",
      "wak tu",
      "B rit",
      "In ter",
      "f orm",
      "k ar",
      "pert any",
      "ad anĠ",
      "apat Ġd",
      "i ter",
      "Ġmer ekaĠ",
      "ub ahĠ",
      "sed angkanĠ",
      "am a",
      "ir iĠdariĠ",
      "i j",
      ") ĠdanĠ",
      "m asaĠ",
      "pen y",
      "o -",
      "baw ahĠ",
      ".Ġ L",
      "ak up",
      "t at",
      "umum nyaĠ",
      "ter iĠ",
      "seb esar",
      "b end",
      "N asion",
      "kon sep",
      "K al",
      "embang kanĠ",
      "ol ahĠ",
      "A d",
      "ubah anĠ",
      "l ew",
      "kal im",
      "ah ĠdanĠ",
      "s end",
      "antar anyaĠ",
      "entuk Ġ",
      "Ġ atauĠ",
      "r as",
      "gun ak",
      "an ahĠ",
      "s ,Ġ",
      "yak n",
      "tu lis",
      "sem entaraĠ",
      "ur anĠ",
      "a z",
      "h ariĠ",
      "9 Ġ,Ġ",
      "ud d",
      "har us",
      "ip t",
      "b en",
      "d uk",
      "pelaj ariĠ",
      "H ind",
      "ĠPhilosoph y",
      "l es",
      "bahas a,Ġ",
      "linguist ikĠ",
      "etak ĠdiĠ",
      "egun unganĠ",
      "per n",
      "pem erintahanĠ",
      "r ad",
      "i w",
      "Ġd is",
      "sang atĠ",
      "Ġ 1",
      "ist or",
      "r el",
      "Ġtid ak",
      ", ĠĠ",
      "7 Ġ,Ġ",
      "bany ak",
      "U m",
      "k an",
      "ik ut",
      "ag aĠ",
      "C h",
      "m b",
      "and angĠ",
      "antaraĠ lain",
      "tahun ĠĠ2ĠĠ0ĠĠ0ĠĠ",
      "fil suf",
      "ion al",
      "atur anĠ",
      "aj ar",
      "PapuaĠ NuginiĠ",
      "lew atĠ",
      "sem est",
      "ti gaĠ",
      "âĢ Ķ",
      "or ang-",
      "per i",
      "Ġp en",
      "t akĠ",
      "mas yarak",
      "mis al",
      "s ur",
      "at ĠdiĠ",
      "b um",
      "Ġ2 ĠĠ",
      "gab ung",
      "p aĠ",
      "Ġd im",
      "n il",
      "yangĠd ik",
      ",Ġ T",
      "gant ung",
      "U l",
      "sej umlahĠ",
      "bis aĠ",
      "m ark",
      "un ia.Ġ",
      "seg alaĠ",
      "ak uĠ",
      ".Ġ (",
      "m eter",
      "gun aanĠ",
      "sebut ĠdenganĠ",
      ".ĠM asjid",
      "su c",
      "a ud",
      "s ukuĠ",
      "j anj",
      "i an,Ġ",
      "P alestin",
      "un ivers",
      "ab Ġ",
      "ur utĠ",
      "m et",
      "ar angĠ",
      "Ġ jugaĠ",
      "b el",
      "bang s",
      "se su",
      "o c",
      "a.Ġ B",
      "se ti",
      "end er",
      "g erejaĠ",
      "neg er",
      "il anĠ",
      "a us",
      "un iĠ",
      ".Ġ R",
      "Ser ik",
      "resid enĠ",
      "p ec",
      "Ġ of",
      "ah un",
      "D en",
      "kemb anganĠ",
      "udd h",
      "sistem Ġ",
      "Kep ulauanĠ",
      "a x",
      "sej ar",
      "L am",
      "sej akĠ",
      "aw alĠ",
      "abadĠke-Ġ 1ĠĠ",
      "orang- orangĠ",
      "m ad",
      "meny eb",
      "per d",
      "k ul",
      "Yun aniĠ",
      "uk up",
      "res m",
      "atakanĠ bahwaĠ",
      "Ġm ak",
      "m on",
      "su b",
      "i a",
      "Ġp enduduk",
      "M ar",
      "o v",
      "M e",
      "Ġter d",
      "ad min",
      "erd ek",
      "s en",
      "us iĠ",
      ",Ġ sepertiĠ",
      "Ġ )Ġ",
      "t h",
      "mak naĠ",
      "su ar",
      "se h",
      "ak art",
      "per m",
      "alĠ sebagaiĠ",
      "M uslim",
      "t arĠ",
      "id ir",
      "ah ĠdiĠ",
      "on -",
      "uru hĠ",
      "selur uh",
      "al -",
      "kel uar",
      "p os",
      "kec il",
      "ingk at",
      "en aiĠ",
      "embang un",
      "et elahĠ",
      "ais aranĠ",
      "Romaw iĠ",
      "P r",
      "g erej",
      "tu h",
      "Ġmen d",
      "kanĠ untuk",
      "er m",
      "an ak",
      "ang- und",
      "ka it",
      "tu s",
      "ar d",
      "t ion",
      "esk ipun",
      "Den mark",
      "f is",
      "pertany aanĠ",
      "Bar atĠ",
      "G erej",
      "per c",
      "As iaĠ",
      "aj ianĠ",
      "ul t",
      "istim ew",
      "P antaiĠ",
      "en omin",
      "jug aĠd",
      "angg apĠ",
      "i waĠ",
      "ent ang",
      "pert am",
      "Ġd aerahĠ",
      "ad aĠdiĠ",
      "yang ĠmemilikiĠ",
      "p opul",
      "any aĠd",
      "kal iĠ",
      "sel uruhĠ",
      "\" d",
      "c ukup",
      "sej arahĠ",
      "er aĠ",
      "Ġ untuk",
      "uk kanĠ",
      "fung siĠ",
      "an )",
      "ny a",
      "ap aiĠ",
      "E d",
      "h amp",
      "huk um",
      "un yaĠ",
      "l ag",
      ".ĠM en",
      "mel aluiĠ",
      "ab kanĠ",
      "kanĠd enganĠ",
      "il iĠ",
      "as p",
      "admin istr",
      "tu mb",
      "mer ek",
      "a anĠdanĠ",
      "ran c",
      "on Ġ",
      "S t",
      "ĠP ro",
      "t if",
      "T ahun",
      "ĠĠ2 Ġ.Ġ",
      "i atanĠ",
      "aj aranĠ",
      "ay aanĠ",
      "B uddh",
      "iĠ PulauĠ",
      "ek n",
      "ubern ur",
      "ak aiĠ",
      "k as",
      "m orf",
      "p unĠ",
      "ek ar",
      "im anĠ",
      "k r",
      "Gun ung",
      "yakn iĠ",
      "t eng",
      ",ĠdiĠ manaĠ",
      "al ĠdiĠ",
      "Ġ 3",
      "anj ut",
      "Ġd it",
      "D in",
      "p is",
      "W ilay",
      "al ik",
      "lain nya.Ġ",
      "s m",
      "k embang",
      "Ġ âĢĵ",
      "h er",
      "Brit aniaĠ",
      "ked u",
      "al kanĠ",
      "seb elum",
      "Ġ2ĠĠ0ĠĠ 1ĠĠ",
      "yangĠm el",
      "R ef",
      "Ġb yĠ",
      "s ter",
      "a.Ġ D",
      "tu g",
      "etah u",
      "od ok",
      "eg or",
      "a- bahasaĠ",
      "ax im",
      "alamĠ semest",
      "and iĠ",
      "m il",
      "trad isiĠ",
      "ibuĠ kotaĠ",
      "S al",
      "u as",
      "M ak",
      "ĠĠ1ĠĠ9ĠĠ 4ĠĠ",
      "d anĠ",
      "l embag",
      "n on-",
      "t emp",
      "n am",
      "uj uk",
      "um ber",
      "U tar",
      "us ,Ġ",
      "asal ĠdariĠ",
      "Ġmeng gunakanĠ",
      "a iĠd",
      "berd asarkanĠ",
      "ked uaĠ",
      "ĠĠ 3",
      "l e",
      "or g",
      "per bed",
      "i as",
      "k ol",
      "ter jad",
      "ken alĠ",
      "alam iĠ",
      "et aĠ",
      "untuk Ġmeny",
      "Ut araĠ",
      "er ensiĠ",
      "sed ik",
      "t o",
      "as i,Ġ",
      "jel askanĠ",
      "Ġ 3ĠĠ",
      "ew anĠ",
      "lain Ġ",
      "pul aĠ",
      "ĠA n",
      "s on",
      "Un d",
      "ot est",
      ".ĠSel ainĠ",
      "U U",
      "ob jek",
      "Ġd apatĠdi",
      "en om",
      "tr ans",
      "Daf tar",
      "o ĠPulauĠ",
      "JawaĠ Teng",
      "yangĠm anaĠ",
      "i anĠd",
      "iĠ (",
      "janj ianĠ",
      "Al lah",
      "S h",
      "Y ord",
      "A g",
      "u se",
      "per l",
      "al ing",
      "atauĠ \"",
      "ej arahĠ",
      "l at",
      "a v",
      "pend apatĠ",
      "mel iputiĠ",
      "keberad aanĠ",
      "et ikaĠ",
      "uru f",
      "ad aĠd",
      "ber l",
      "y ah",
      "terhad ap",
      "at ĠdanĠ",
      "bul anĠ",
      "A fr",
      "P as",
      "atif Ġ",
      "M and",
      "j en",
      "us ah",
      "AmerikaĠ Serik",
      "al itas",
      "at Ġm",
      "g e",
      "Sel at",
      "Nasion alĠ",
      ".ĠB ahasaĠ",
      "al ek",
      "per kembanganĠ",
      "Indones ia.Ġ",
      "el emen",
      "Pap u",
      "j ab",
      "ar s",
      "v ok",
      "ker jaĠ",
      "G res",
      "anj angĠ",
      "kemb aliĠ",
      "kotaĠ iniĠ",
      "ak anĠd",
      "8 Ġ,Ġ",
      "YerusalemĠ Timur",
      ".ĠS em",
      "Per d",
      "pem erintahĠ",
      "im aĠ",
      "k end",
      "g um",
      ".Ġ E",
      "an is",
      "if ik",
      "eber ap",
      "ut araĠ",
      "ong anĠ",
      "a ikanĠ",
      "Kek aisaranĠ",
      "keku as",
      "Ġ V",
      "s ampaiĠ",
      "5 Ġ,Ġ",
      "er j",
      "h e",
      ".ĠP em",
      "angk aĠ",
      "ah ĠdariĠ",
      "ber t",
      "B any",
      "Men teriĠ",
      "bud ayaĠ",
      "c ab",
      "ion g",
      ".Ġ J",
      "M as",
      "u tur",
      "Ul ster",
      "seb anyak",
      "ins ip",
      "aks an",
      "i gr",
      "filosof is",
      "ba ikĠ",
      "linguist ik",
      "pem ik",
      "f enom",
      "bentuk Ġ",
      "p ol",
      "ap uaĠ",
      "per ubahanĠ",
      "ilih anĠ",
      "uc ap",
      "GerejaĠ Katol",
      "ek tur",
      "om or",
      "un it",
      "axim and",
      "aw es",
      "oj ok",
      "ĠP antaiĠ",
      "Al -",
      "terl etakĠdiĠ",
      "at aranĠ",
      "r ah",
      "eb ut",
      "R ajaĠ",
      "ĠP ert",
      "Y es",
      "ĠA l",
      "aup unĠ",
      "p enting",
      "b id",
      "misal nyaĠ",
      "om b",
      "ul is",
      "ĠdalamĠ bahasaĠ",
      "olog is",
      "perbed aanĠ",
      "Ġmer ek",
      "ut ar",
      "eng k",
      "h uruf",
      "ny aĠdiĠ",
      "imp inĠ",
      "lu asĠ",
      "ar am",
      "jem a",
      "Ġd apat",
      "y ,Ġ",
      "j um",
      "at ion",
      "Inggr isĠ",
      "t and",
      "Me iĠ",
      "l ingk",
      "sekitar ĠĠ",
      "eĠ (",
      "id ikanĠ",
      "enc anaĠ",
      "entu kanĠ",
      "tuju anĠ",
      "S ek",
      "komun itasĠ",
      "I S",
      "p ulauĠ",
      "pem erintah",
      "ek onom",
      "pengar uhiĠ",
      "yangĠm emb",
      "itu Ġ",
      "h uj",
      "In j",
      "X an",
      "Timor ĠL",
      "TimorĠL est",
      "R T",
      "t ip",
      "ojok ert",
      "ab uhanĠ",
      "i .ĠK",
      "iniĠd i",
      "iken alĠsebagaiĠ",
      "S itu",
      "any a,Ġ",
      "p embangunanĠ",
      "im bol",
      "or itas",
      "f l",
      "ar atĠ",
      "Yerusalem ,Ġ",
      "M ah",
      "al ĠdanĠ",
      "a ul",
      "tidakĠ adaĠ",
      "Ib ran",
      "es ir",
      "lu as",
      "K ed",
      "uĠ padaĠ",
      "in ,Ġ",
      "M el",
      "ter utamaĠ",
      "resm iĠ",
      "Ġ l",
      ",Ġ m",
      "ka umĠ",
      "ĠdiĠd aerahĠ",
      "g el",
      "komp l",
      "em iĠ",
      ".ĠS e",
      "bah w",
      "tim ur",
      "Wilay ahĠ",
      "p in",
      "K ar",
      "ung aiĠ",
      "a ir",
      "Ġ1ĠĠ 8ĠĠ",
      "4 Ġ.Ġ",
      "Ġd iĠdalamĠ",
      "embag ianĠ",
      "kem erdek",
      "mas ing",
      "a.Ġ T",
      "et r",
      "p es",
      ".ĠK arenaĠ",
      "at ionalĠ",
      "yangĠ lebihĠ",
      "5 ĠĠ0ĠĠ",
      "ĠP em",
      "a.Ġ K",
      "c h",
      "Erop aĠ",
      "el ompok",
      "B el",
      "terhad apĠ",
      "mak aĠ",
      "sek al",
      "sel atanĠ",
      "ed iaĠ",
      "ba ik",
      "ke g",
      ".ĠP eng",
      "e oriĠ",
      "T hales",
      "b u",
      "T ingg",
      "us anĠ",
      "RepublikĠ IndonesiaĠ",
      "peng gunaanĠ",
      "efin isiĠ",
      "isyar atĠ",
      "mak n",
      "Sul awes",
      "P el",
      "K ul",
      "/ M",
      "Y ud",
      "sekit arĠ",
      "Daf tarĠ",
      "S ep",
      "ar at",
      "P adaĠ",
      "popul asiĠ",
      "S em",
      "m uncul",
      "ik an",
      "i ak",
      "i \"",
      "am at",
      "ap un",
      "akh irĠ",
      "z amanĠ",
      "peri odeĠ",
      "hubung kanĠ",
      "ĠM uslim",
      "berbed aĠ",
      "pen c",
      "ak ahĠ",
      "o Ġ(",
      "o w",
      "ad atĠ",
      "Ġdi per",
      "Ġd alam",
      "Ġp araĠ",
      "ip at",
      "bar uĠ",
      "4 Ġ,Ġ",
      "es Ġ",
      "penduduk Ġ",
      "af is",
      "bar u",
      "b ur",
      "se orang",
      "B angs",
      "n e",
      "tan paĠ",
      "ĠĠ 3ĠĠ",
      "is ip",
      "und ang-und",
      "as tr",
      "sek arang",
      "ari padaĠ",
      "Ġk omun",
      "l og",
      "o per",
      "B and",
      "q u",
      "o y",
      "arlem en",
      "untuk Ġmem",
      "Ġdi gunakanĠ",
      "h o",
      "k rit",
      "se suatuĠ",
      "amun ,Ġ",
      "ar j",
      "jug aĠdi",
      "kat a-",
      "pul au",
      "bias anyaĠ",
      "it if",
      "um pul",
      "kalim atĠ",
      "Ġt anggal",
      "aximand ro",
      "ult ananĠ",
      "C andiĠ",
      "uw ang",
      "sal atĠ",
      "emb ok",
      "D uniaĠ",
      "padaĠ tahunĠĠ1ĠĠ9ĠĠ",
      "rad isiĠ",
      "an .ĠK",
      "sam aĠdenganĠ",
      "kotaĠ ini",
      "an ut",
      "i )",
      "T anahĠ",
      "lebih ĠdariĠ",
      "bangs aĠ",
      "pendapatĠ bahwaĠ",
      "ter jadiĠ",
      "R am",
      "ket ikaĠ",
      "ak l",
      "Ġpem erintah",
      ".ĠS etelahĠ",
      "a an,Ġ",
      "sel at",
      "kanĠ olehĠ",
      "et Ġ",
      "o hĠ",
      "ar ,Ġ",
      "berad aĠdiĠ",
      "kekuas aanĠ",
      "lim aĠ",
      "kanĠd alamĠ",
      "kanĠ bahwaĠ",
      "seti apĠ",
      "y ahĠ",
      "any akĠ",
      "menc akup",
      "in anĠ",
      "Ġs em",
      "bany akanĠ",
      "stat us",
      "nil aiĠ",
      "j ar",
      "as k",
      "ay ananĠ",
      "Ġ ),Ġ",
      "J erm",
      "tingg iĠ",
      "sedik it",
      "huk umĠ",
      "Ġ W",
      "eng gar",
      "f or",
      "sp ort",
      "amp u",
      "ĠJ erusalem",
      "i a,ĠdanĠ",
      "i ahĠ",
      "at ĠdenganĠ",
      "kon t",
      "ĠK ep",
      "sp es",
      "\" ĠdanĠ",
      "ke hidup",
      "asp ek",
      "PapuaĠ Nug",
      "ĠP rovinsiĠ",
      "bah kanĠ",
      "iĠd aerahĠ",
      "kul tur",
      "g ol",
      "kataĠ bend",
      "it ektur",
      "ed ik",
      "K ad",
      "e ĠPulauĠ",
      "Bany uwang",
      "a) Ġ(KonsulatĠKehormatanĠ",
      "YogyakartaĠ (",
      "al ĠdenganĠ",
      "P egununganĠ",
      "s imbol",
      "Kek risten",
      "send ir",
      "c at",
      "am mad",
      "em ud",
      "w al",
      "K ud",
      "arlem enĠ",
      "lembag aĠ",
      "id ent",
      "if ikasiĠ",
      "d ariĠ",
      ",ĠdanĠ d",
      "em u",
      ":Ġ \"",
      "on ,Ġ",
      "h ak",
      "lain ,Ġ",
      "keluar gaĠ",
      "l ih",
      "buk t",
      "b eberap",
      "a.ĠP adaĠ",
      "meng enaiĠ",
      "ĠP er",
      "Ġmas uk",
      "ĠĠ1ĠĠ 6ĠĠ",
      "c amp",
      "wilay ah",
      "ah ĠmenjadiĠ",
      "ek sĠ",
      "iĠd i",
      "anĠ (",
      "7 Ġ.Ġ",
      "ĠpadaĠ tahunĠĠ1ĠĠ",
      "Ġ iniĠ",
      "ĠP r",
      "B l",
      "R um",
      "i gaĠ",
      "ber lak",
      "rum ahĠ",
      "ar eaĠ",
      "J uniĠ",
      "ru angĠ",
      "ĠĠ0 Ġ%",
      "t aĠ",
      "k ok",
      "J ep",
      "Ġ1ĠĠ9ĠĠ 9ĠĠ",
      "T heĠ",
      "use um",
      ")Ġ adalahĠ",
      "pr insip",
      "komun itas",
      "isme ,Ġ",
      "alĠ iniĠ",
      "ut aĠ",
      ".Ġ G",
      ".ĠSeb agaiĠ",
      "en er",
      "ograf iĠ",
      "al iranĠ",
      "Ind iaĠ",
      "P hilosoph",
      "il aĠ",
      "ak il",
      "seh atanĠ",
      "Xan anaĠ",
      "GusmÃ£ oĠ",
      "amp uanĠ",
      "morf em",
      "Sum at",
      "Kul on",
      "ek les",
      "Ġm odern",
      "a q",
      "Yes us",
      "stat usĠ",
      "a n",
      "a Ġ",
      "an Ġ",
      "i Ġ",
      "e r",
      "e n",
      "a r",
      "Ġ Ġ",
      "a h",
      "a t",
      "an g",
      "Ġ d",
      "a l",
      ", Ġ",
      "a k",
      "a s",
      "i n",
      "s e",
      ". Ġ",
      "a m",
      "u n",
      "e m",
      "a d",
      "Ġ m",
      "i t",
      "i s",
      "u s",
      "i k",
      "en g",
      "e s",
      "y ang",
      "e l",
      "b er",
      "ah Ġ",
      "u k",
      "u r",
      "a p",
      "y aĠ",
      "Ġ p",
      "Ġ k",
      "u t",
      "i l",
      "a g",
      "Ġ t",
      "a b",
      "o n",
      "i r",
      "k anĠ",
      "aĠ d",
      "Ġd anĠ",
      "se b",
      "o r",
      "a w",
      "u l",
      "ar aĠ",
      "1 ĠĠ",
      "e t",
      "in g",
      "a iĠ",
      "p er",
      "a ,Ġ",
      "ar iĠ",
      "aĠ m",
      "a .Ġ",
      "ĠĠ 0",
      "u Ġ",
      "al am",
      "e k",
      "u m",
      "u d",
      "i d",
      "ak anĠ",
      "ad aĠ",
      "at Ġ",
      "o l",
      "n yaĠ",
      "i m",
      "t er",
      "iĠ d",
      "eng anĠ",
      "Ġm en",
      "yang Ġ",
      "anĠ d",
      "em b",
      "h Ġ",
      "k e",
      "u p",
      "it ab",
      "Ġd i",
      "an d",
      "b ah",
      "es us",
      "un g",
      "Y esus",
      "I n",
      "ang Ġ",
      "ĠĠ 1ĠĠ",
      "T V",
      "i anĠ",
      "t uk",
      "alam Ġ",
      "an t",
      "a j",
      "m en",
      "al Ġ",
      "i p",
      "am aĠ",
      "ag aiĠ",
      "is t",
      "ak Ġ",
      "ĠĠ 2",
      "a y",
      "Ġt er",
      "Ġk e",
      "9 ĠĠ",
      "k itab",
      "i h",
      "g aĠ",
      "o k",
      "i aĠ",
      "Ġd iĠ",
      "un tuk",
      "seb agaiĠ",
      "e b",
      "o t",
      ", ĠdanĠ",
      "p en",
      "Ġ (",
      "al ahĠ",
      "Ġ 1ĠĠ",
      "Ġ se",
      "ol e",
      "w aĠ",
      "seb ut",
      "t ah",
      "e d",
      "Ġd ariĠ",
      "s i",
      "Ġm eng",
      "Ġp er",
      "p adaĠ",
      "i b",
      "Ġm em",
      "ar Ġ",
      "o m",
      ".Ġ S",
      "j u",
      "ik anĠ",
      "a anĠ",
      "R I",
      "in iĠ",
      "n y",
      "as aĠ",
      "is iĠ",
      "a in",
      "u h",
      "Ġ S",
      "c araĠ",
      "Ġ yang",
      "o g",
      "i ,Ġ",
      "A l",
      "Ġ P",
      "Ġd enganĠ",
      "TV RI",
      "j ad",
      "o d",
      "Ġ s",
      "an ,Ġ",
      ".Ġ P",
      "e g",
      "t r",
      "an yaĠ",
      "as i",
      "tah un",
      "t iĠ",
      "ad alahĠ",
      "Ġ 2",
      "In d",
      "ĠĠ0 ĠĠ",
      "at a",
      "ar anĠ",
      "t el",
      "aĠd anĠ",
      "ole hĠ",
      "Ġ ,Ġ",
      "ang g",
      "an y",
      "bah waĠ",
      "en d",
      "en t",
      "m eng",
      "s t",
      "Ġ ber",
      "p r",
      "u aĠ",
      "jad iĠ",
      "am p",
      ".Ġ D",
      "h ar",
      "m as",
      "uk anĠ",
      "u b",
      "it u",
      ".Ġ K",
      "id ak",
      "e p",
      "aĠm en",
      "u at",
      "Ġ b",
      "s iĠ",
      "em p",
      "s a",
      "Ġp adaĠ",
      "ar en",
      "er ek",
      "et ap",
      "on es",
      "Ind ones",
      "t aĠ",
      "ang anĠ",
      "se l",
      "Ġd alamĠ",
      "us Ġ",
      "e v",
      "â Ģ",
      "K r",
      "an j",
      "Ġ M",
      "er up",
      "j il",
      "at aĠ",
      "il ik",
      "erup akanĠ",
      "an nyaĠ",
      "In jil",
      "ap at",
      "a -",
      "an aĠ",
      "p eng",
      "s er",
      "3 ĠĠ",
      "ul is",
      "e w",
      "ap aĠ",
      "ak h",
      "aw aĠ",
      "i f",
      "as iĠ",
      "l ain",
      "ĠĠ2 ĠĠ0",
      "e j",
      "o s",
      "s at",
      "o b",
      "ing gaĠ",
      "a c",
      "Ġmen y",
      "Ġd it",
      "or angĠ",
      ") Ġ",
      "am b",
      "em ud",
      "b ag",
      "aren aĠ",
      "Ġ .Ġ",
      "o h",
      "se k",
      "e Ġ",
      "ip r",
      "ĠĠ1ĠĠ 9ĠĠ",
      "ang k",
      "ing g",
      "P and",
      "p em",
      "se m",
      "yangĠ ber",
      "ter sebut",
      "er j",
      "un Ġ",
      "o p",
      "se j",
      "ĠĠ2 ĠĠ",
      "e ber",
      ") ,Ġ",
      "aĠd iĠ",
      "or ang",
      "l ah",
      "4 ĠĠ",
      "T I",
      "ju g",
      "A r",
      "p araĠ",
      "id akĠ",
      "Al kitab",
      "ur u",
      "l ahĠ",
      "kanĠ d",
      "Ġ T",
      "ant araĠ",
      "ilik iĠ",
      "8 ĠĠ",
      "5 ĠĠ",
      "i g",
      "al iĠ",
      "Ġm el",
      "m em",
      "C TI",
      "t etap",
      "as Ġ",
      "u Ġk",
      "Ġ2 ĠĠ0",
      "ik Ġ",
      "R CTI",
      "n amaĠ",
      "Yesus Ġ",
      "at anĠ",
      "r an",
      "an on",
      "an -",
      "iĠd anĠ",
      "bah asaĠ",
      "eber apaĠ",
      "i c",
      "yang Ġdi",
      "it uĠ",
      "ata uĠ",
      "in d",
      "anĠd anĠ",
      "h inggaĠ",
      "Ġ B",
      "ar t",
      "is m",
      "akh ir",
      "ny a.Ġ",
      "Ġm emb",
      "ar kanĠ",
      "u anĠ",
      "ab ad",
      "a f",
      "per tiĠ",
      "Y ud",
      "Ġ K",
      "i .Ġ",
      "ev isiĠ",
      "per t",
      "erek aĠ",
      "er in",
      "r aĠ",
      "Ġt el",
      "Ġ D",
      "r es",
      "a yaĠ",
      "6 ĠĠ",
      "Ġter sebut",
      "g un",
      "ot aĠ",
      "7 ĠĠ",
      "Ġ -",
      "aĠm em",
      "el um",
      "ny a,Ġ",
      "b es",
      "l eb",
      "ist en",
      "aĠm eng",
      "Ġper t",
      "Ġ1ĠĠ 9ĠĠ",
      "a.Ġ S",
      "ek s",
      "t idak",
      "âĢ ĵ",
      "se caraĠ",
      "y a",
      "Ġ A",
      "ole h",
      "K or",
      "Indones i",
      "j un",
      "n aĠ",
      "s uat",
      "Ġd ik",
      "Ġ Y",
      "emud ianĠ",
      "p ul",
      "- kitab",
      "S ipr",
      "an .Ġ",
      "in Ġ",
      "Ar jun",
      "anĠd ariĠ",
      "b al",
      "pen d",
      "u iĠ",
      "ik aĠ",
      "ur anĠ",
      "B ar",
      "t i",
      "ju gaĠ",
      "a.Ġ K",
      "ang s",
      "Ġd alam",
      "tetap iĠ",
      "d anĠ",
      "Indones iaĠ",
      "sa atĠ",
      "ul aiĠ",
      "o Ġ",
      "ik ut",
      "a u",
      "si aranĠ",
      "b eberapaĠ",
      "in yaĠ",
      "m el",
      "k el",
      "se pertiĠ",
      "Ġt idak",
      ") .Ġ",
      "b en",
      "Ġ2 ĠĠ",
      "p ut",
      "tel ahĠ",
      "y ak",
      "i hĠ",
      "oh an",
      "as tr",
      "nyaĠ d",
      "ub l",
      "b any",
      "aĠd enganĠ",
      "t ar",
      "l ob",
      "s am",
      "an anĠ",
      "er it",
      "k et",
      "og r",
      "un an",
      "se d",
      "aj aĠ",
      "is Ġ",
      "on g",
      "a.Ġ D",
      "in iĠd",
      "ap Ġ",
      "Ġ âĢĵ",
      "r as",
      "a ,ĠdanĠ",
      "a caraĠ",
      "ber b",
      "at i",
      "n eg",
      "P er",
      "Pand aw",
      "ah ud",
      "Ġp en",
      "anĠd enganĠ",
      "id up",
      "ah anĠ",
      "men y",
      "Ġmen jadiĠ",
      "at akanĠ",
      "G lob",
      "s u",
      "k er",
      "st asi",
      "h anyaĠ",
      "w ar",
      "gun akanĠ",
      "im aĠ",
      "mas uk",
      "k al",
      "ur ut",
      "n am",
      "aw al",
      "k on",
      "t idakĠ",
      "Yud ist",
      "Yudist ir",
      "a \"",
      ": Ġ",
      "men jadiĠ",
      "d enganĠ",
      "iĠ m",
      "es k",
      "a up",
      "it as",
      "D r",
      "l u",
      "h idup",
      "a )",
      "ap ar",
      "an c",
      "I b",
      "Ġke -",
      "Glob alĠ",
      "Kr isten",
      "ohan es",
      "s al",
      "t ent",
      "u j",
      "i z",
      "as anĠ",
      "h ad",
      "anj ianĠ",
      "ur bal",
      "ur un",
      "er ej",
      "ag ianĠ",
      "k arenaĠ",
      "h as",
      "Kr es",
      "s en",
      "erj anjianĠ",
      "U n",
      "Ġm erupakanĠ",
      "i as",
      "aĠmen y",
      "l og",
      "ak ukanĠ",
      "am anĠ",
      "is ahĠ",
      "ol og",
      "Y unan",
      "t u",
      "iĠd iĠ",
      "as t",
      "J ak",
      "iĠd ariĠ",
      "GlobalĠ TV",
      "Y ahud",
      "is i",
      "yang Ġd",
      ".Ġ M",
      "Ġmem ilikiĠ",
      "ing k",
      "u ahĠ",
      "ing Ġ",
      "se orangĠ",
      ".ĠP adaĠ",
      "el ahĠ",
      "emp at",
      "ber ikanĠ",
      "u hĠ",
      "ke d",
      "ah ab",
      "as k",
      "B ism",
      "M ar",
      "im p",
      "p emb",
      "end ir",
      "Al lah",
      "s w",
      "us ,Ġ",
      "a ik",
      "yang Ġter",
      "f or",
      "aĠd i",
      "ah kanĠ",
      "aw anĠ",
      "k em",
      "m in",
      "tel evisiĠ",
      "g ar",
      "seb elum",
      "pen y",
      "a yang",
      "a er",
      ",Ġ m",
      "Ġp araĠ",
      "sat uĠ",
      "Ġp r",
      "ih at",
      "v er",
      "A n",
      "j al",
      "ang kanĠ",
      "b uk",
      "aĠd ariĠ",
      "ut er",
      "Ġ iniĠ",
      "asi on",
      "bes ar",
      "ag aĠ",
      "um lahĠ",
      "Ġt ah",
      "se orang",
      "erin tah",
      "iĠd enganĠ",
      "p as",
      "a.Ġ P",
      "ke padaĠ",
      "kitab -kitab",
      "Ġ sebagaiĠ",
      "ak s",
      "d apat",
      "er t",
      "ogr am",
      "w ak",
      "Ġ N",
      "al aĠ",
      "aĠm erupakanĠ",
      "Ġ yangĠ",
      "us ah",
      "at as",
      "ahab har",
      "k ar",
      "a it",
      "anĠd iĠ",
      "ung anĠ",
      "seb uahĠ",
      "ak aw",
      "K itab",
      "ubl ik",
      "e f",
      ".Ġ T",
      "Ġ L",
      "es t",
      "Ġ.Ġ 0",
      "has il",
      "u g",
      "um um",
      "u ,Ġ",
      "k h",
      "a ,",
      "Ġp eng",
      "ar ahĠ",
      "Ġk et",
      "m emb",
      "tel ah",
      "abad Ġke-",
      "t ur",
      "u c",
      "J awaĠ",
      "il m",
      "Ġp em",
      "Ġ )",
      "en aiĠ",
      "D ur",
      "t ahĠ",
      "sat u",
      "âĢ Ķ",
      "l ag",
      "ya ituĠ",
      "se p",
      "in anĠ",
      "ĠĠ2ĠĠ0 ĠĠ1ĠĠ",
      "em en",
      "ist i",
      "Kor aw",
      ".ĠD alamĠ",
      "Ġ %",
      "G erej",
      "ok anon",
      "s um",
      "aĠd alamĠ",
      "ter masuk",
      "Ġk arenaĠ",
      "b ed",
      "h ariĠ",
      "at iĠ",
      "s ang",
      "c erit",
      "O r",
      "y od",
      "Ġ /",
      "e uter",
      "stasi un",
      "tahun ĠĠ1ĠĠ9ĠĠ",
      "ant ar",
      "om p",
      "t araĠ",
      ".Ġ B",
      "leb ih",
      "b ar",
      "an ak",
      "per k",
      "itu ,Ġ",
      "ben tuk",
      "k es",
      "ung k",
      "ĠĠ0 ĠĠ0ĠĠ",
      "ung Ġ",
      "angg al",
      "Ġse l",
      "d iĠ",
      "ar taĠ",
      "ah ir",
      "erin tahĠ",
      "ing anĠ",
      "si ar",
      "ata u",
      "Ġ C",
      "se telahĠ",
      "aĠ ber",
      "Ġ \"",
      "A m",
      "ap atĠ",
      "Ġdi b",
      "s endir",
      "as al",
      "i -",
      "Sipr us",
      "N am",
      "aup un",
      "en y",
      "l ok",
      "sel amaĠ",
      "untuk Ġmen",
      "ad em",
      "eb ut",
      "Ġt idakĠ",
      "as tiĠ",
      "d ir",
      "it er",
      "bag iĠ",
      "p el",
      "Ġse caraĠ",
      "aĠ (",
      "Ġ :",
      "bag ianĠ",
      "aj aanĠ",
      "Ib ran",
      "euter okanon"
    ],
    "unk_token": null,
    "byte_fallback": true
  },
  "pre_tokenizer": {
    "type": "Sequence",
    "pretokenizers": [
      {
        "type": "Digits",
        "individual_digits": true
      },
      {
        "type": "ByteLevel",
        "add_prefix_space": false,
        "use_regex": true
      }
    ]
  },
  "decoder": {
    "type": "ByteLevel",
    "add_prefix_space": false
  },
  "post_processor": null,
  "added_tokens": []
}