{
  "version": "1.0",
  "model": {
    "type": "BPE",
    "vocab": {
      "<|endoftext|>": 0,
      "<fim_prefix>": 1,
      "<fim_middle>": 2,
      "<fim_suffix>": 3,
      "<fim_pad>": 4,
      "<filename>": 5,
      "<gh_stars>": 6,
      "<issue_start>": 7,
      "<issue_comment>": 8,
      "<issue_closed>": 9,
      "<jupyter_start>": 10,
      "<jupyter_text>": 11,
      "<jupyter_code>": 12,
      "<jupyter_output>": 13,
      "<empty_output>": 14,
      "<commit_before>": 15,
      "<commit_msg>": 16,
      "<commit_after>": 17,
      "<reponame>": 18,
      "Ā": 19,
      "ā": 20,
      "Ă": 21,
      "ă": 22,
      "Ą": 23,
      "ą": 24,
      "Ć": 25,
      "ć": 26,
      "Ĉ": 27,
      "ĉ": 28,
      "Ċ": 29,
      "ċ": 30,
      "Č": 31,
      "č": 32,
      "Ď": 33,
      "ď": 34,
      "Đ": 35,
      "đ": 36,
      "Ē": 37,
      "ē": 38,
      "Ĕ": 39,
      "ĕ": 40,
      "Ė": 41,
      "ė": 42,
      "Ę": 43,
      "ę": 44,
      "Ě": 45,
      "ě": 46,
      "Ĝ": 47,
      "ĝ": 48,
      "Ğ": 49,
      "ğ": 50,
      "Ġ": 51,
      "!": 52,
      "\"": 53,
      "#": 54,
      "$": 55,
      "%": 56,
      "&": 57,
      "'": 58,
      "(": 59,
      ")": 60,
      "*": 61,
      "+": 62,
      ",": 63,
      "-": 64,
      ".": 65,
      "/": 66,
      "0": 67,
      "1": 68,
      "2": 69,
      "3": 70,
      "4": 71,
      "5": 72,
      "6": 73,
      "7": 74,
      "8": 75,
      "9": 76,
      ":": 77,
      ";": 78,
      "<": 79,
      "=": 80,
      ">": 81,
      "?": 82,
      "@": 83,
      "A": 84,
      "B": 85,
      "C": 86,
      "D": 87,
      "E": 88,
      "F": 89,
      "G": 90,
      "H": 91,
      "I": 92,
      "J": 93,
      "K": 94,
      "L": 95,
      "M": 96,
      "N": 97,
      "O": 98,
      "P": 99,
      "Q": 100,
      "R": 101,
      "S": 102,
      "T": 103,
      "U": 104,
      "V": 105,
      "W": 106,
      "X": 107,
      "Y": 108,
      "Z": 109,
      "[": 110,
      "\\": 111,
      "]": 112,
      "^": 113,
      "_": 114,
      "`": 115,
      "a": 116,
      "b": 117,
      "c": 118,
      "d": 119,
      "e": 120,
      "f": 121,
      "g": 122,
      "h": 123,
      "i": 124,
      "j": 125,
      "k": 126,
      "l": 127,
      "m": 128,
      "n": 129,
      "o": 130,
      "p": 131,
      "q": 132,
      "r": 133,
      "s": 134,
      "t": 135,
      "u": 136,
      "v": 137,
      "w": 138,
      "x": 139,
      "y": 140,
      "z": 141,
      "{": 142,
      "|": 143,
      "}": 144,
      "~": 145,
      "ġ": 146,
      "Ģ": 147,
      "ģ": 148,
      "Ĥ": 149,
      "ĥ": 150,
      "Ħ": 151,
      "ħ": 152,
      "Ĩ": 153,
      "ĩ": 154,
      "Ī": 155,
      "ī": 156,
      "Ĭ": 157,
      "ĭ": 158,
      "Į": 159,
      "į": 160,
      "İ": 161,
      "ı": 162,
      "Ĳ": 163,
      "ĳ": 164,
      "Ĵ": 165,
      "ĵ": 166,
      "Ķ": 167,
      "ķ": 168,
      "ĸ": 169,
      "Ĺ": 170,
      "ĺ": 171,
      "Ļ": 172,
      "ļ": 173,
      "Ľ": 174,
      "ľ": 175,
      "Ŀ": 176,
      "ŀ": 177,
      "Ł": 178,
      "ł": 179,
      "¡": 180,
      "¢": 181,
      "£": 182,
      "¤": 183,
      "¥": 184,
      "¦": 185,
      "§": 186,
      "¨": 187,
      "©": 188,
      "ª": 189,
      "«": 190,
      "¬": 191,
      "Ń": 192,
      "®": 193,
      "¯": 194,
      "°": 195,
      "±": 196,
      "²": 197,
      "³": 198,
      "´": 199,
      "µ": 200,
      "¶": 201,
      "·": 202,
      "¸": 203,
      "¹": 204,
      "º": 205,
      "»": 206,
      "¼": 207,
      "½": 208,
      "¾": 209,
      "¿": 210,
      "À": 211,
      "Á": 212,
      "Â": 213,
      "Ã": 214,
      "Ä": 215,
      "Å": 216,
      "Æ": 217,
      "Ç": 218,
      "È": 219,
      "É": 220,
      "Ê": 221,
      "Ë": 222,
      "Ì": 223,
      "Í": 224,
      "Î": 225,
      "Ï": 226,
      "Ð": 227,
      "Ñ": 228,
      "Ò": 229,
      "Ó": 230,
      "Ô": 231,
      "Õ": 232,
      "Ö": 233,
      "×": 234,
      "Ø": 235,
      "Ù": 236,
      "Ú": 237,
      "Û": 238,
      "Ü": 239,
      "Ý": 240,
      "Þ": 241,
      "ß": 242,
      "à": 243,
      "á": 244,
      "â": 245,
      "ã": 246,
      "ä": 247,
      "å": 248,
      "æ": 249,
      "ç": 250,
      "è": 251,
      "é": 252,
      "ê": 253,
      "ë": 254,
      "ì": 255,
      "í": 256,
      "î": 257,
      "ï": 258,
      "ð": 259,
      "ñ": 260,
      "ò": 261,
      "ó": 262,
      "ô": 263,
      "õ": 264,
      "ö": 265,
      "÷": 266,
      "ø": 267,
      "ù": 268,
      "ú": 269,
      "û": 270,
      "ü": 271,
      "ý": 272,
      "þ": 273,
      "ÿ": 274,
      "an": 275,
      "ĠĠ": 276,
      "er": 277,
      "en": 278,
      "ar": 279,
      "at": 280,
      "di": 281,
      "ang": 282,
      "ah": 283,
      "al": 284,
      "as": 285,
      "un": 286,
      "ak": 287,
      "am": 288,
      "em": 289,
      "el": 290,
      "eng": 291,
      "ai": 292,
      "uk": 293,
      "on": 294,
      "yang": 295,
      "es": 296,
      "eb": 297,
      "us": 298,
      "ap": 299,
      "ur": 300,
      "or": 301,
      "et": 302,
      "ari": 303,
      "ek": 304,
      "ut": 305,
      "ol": 306,
      "ag": 307,
      "asi": 308,
      "ul": 309,
      "um": 310,
      "eri": 311,
      "dal": 312,
      "ung": 313,
      "ep": 314,
      "akan": 315,
      "emb": 316,
      "engan": 317,
      "ab": 318,
      "dari": 319,
      "ert": 320,
      "om": 321,
      "dengan": 322,
      "aw": 323,
      "ent": 324,
      "ot": 325,
      "up": 326,
      "ers": 327,
      "eh": 328,
      "unt": 329,
      "adi": 330,
      "eg": 331,
      "untuk": 332,
      "dalam": 333,
      "uh": 334,
      "In": 335,
      "ok": 336,
      "os": 337,
      "esi": 338,
      "erb": 339,
      "agai": 340,
      "ec": 341,
      "enj": 342,
      "aj": 343,
      "ati": 344,
      "dalah": 345,
      "adalah": 346,
      "emi": 347,
      "ub": 348,
      "dap": 349,
      "ebagai": 350,
      "oleh": 351,
      "emp": 352,
      "ug": 353,
      "sebagai": 354,
      "menj": 355,
      "og": 356,
      "ahan": 357,
      "ej": 358,
      "op": 359,
      "Pr": 360,
      "agi": 361,
      "fi": 362,
      "ebut": 363,
      "dapat": 364,
      "art": 365,
      "erk": 366,
      "menjadi": 367,
      "usi": 368,
      "orang": 369,
      "vi": 370,
      "ern": 371,
      "eni": 372,
      "erj": 373,
      "erik": 374,
      "erm": 375,
      "uni": 376,
      "don": 377,
      "uga": 378,
      "erin": 379,
      "Di": 380,
      "juga": 381,
      "âĢ": 382,
      "dang": 383,
      "eti": 384,
      "erl": 385,
      "aki": 386,
      "ew": 387,
      "duk": 388,
      "eli": 389,
      "amb": 390,
      "engg": 391,
      "esia": 392,
      "emil": 393,
      "ebi": 394,
      "Ti": 395,
      "Indon": 396,
      "Indonesia": 397,
      "enc": 398,
      "emili": 399,
      "ui": 400,
      "erti": 401,
      "udi": 402,
      "erup": 403,
      "asan": 404,
      "ob": 405,
      "erek": 406,
      "Al": 407,
      "),": 408,
      "ark": 409,
      "Si": 410,
      "akt": 411,
      "ebih": 412,
      "oh": 413,
      "ersi": 414,
      "uli": 415,
      ").": 416,
      "ei": 417,
      "ersebut": 418,
      "tersebut": 419,
      "erap": 420,
      "ereka": 421,
      "emilik": 422,
      "erh": 423,
      "erang": 424,
      "agian": 425,
      "uj": 426,
      "oli": 427,
      "erupakan": 428,
      "ahw": 429,
      "merupakan": 430,
      "An": 431,
      "lebih": 432,
      "ahwa": 433,
      "bahwa": 434,
      "Un": 435,
      "emiliki": 436,
      "memiliki": 437,
      "etap": 438,
      "unakan": 439,
      "aja": 440,
      "erg": 441,
      "erint": 442,
      "mereka": 443,
      "eperti": 444,
      "ungan": 445,
      "endi": 446,
      "edi": 447,
      "aks": 448,
      "asuk": 449,
      "Ar": 450,
      "erp": 451,
      "ori": 452,
      "omp": 453,
      "ust": 454,
      "engh": 455,
      "Li": 456,
      "seperti": 457,
      "erapa": 458,
      "Am": 459,
      "ecar": 460,
      "ecara": 461,
      "empat": 462,
      "âĢĵ": 463,
      "eberapa": 464,
      "est": 465,
      "asil": 466,
      "entuk": 467,
      "osi": 468,
      "St": 469,
      "emerint": 470,
      "embang": 471,
      "omi": 472,
      "tetap": 473,
      "akh": 474,
      "Is": 475,
      "yai": 476,
      "ast": 477,
      "unan": 478,
      "Mi": 479,
      "sej": 480,
      "arkan": 481,
      "secara": 482,
      "elan": 483,
      "arg": 484,
      "emudi": 485,
      "asion": 486,
      "dr": 487,
      "asional": 488,
      "mengg": 489,
      "emudian": 490,
      "uran": 491,
      "Th": 492,
      "Ch": 493,
      "akhi": 494,
      "awan": 495,
      "menc": 496,
      "akhir": 497,
      "beberapa": 498,
      "umb": 499,
      "olog": 500,
      "Uni": 501,
      "Hi": 502,
      "enal": 503,
      "arang": 504,
      "versi": 505,
      "uhan": 506,
      "unia": 507,
      "abup": 508,
      "abupat": 509,
      "abupaten": 510,
      "Wi": 511,
      "dek": 512,
      "kemudian": 513,
      "enti": 514,
      "usia": 515,
      "bagian": 516,
      "asal": 517,
      "orm": 518,
      "Br": 519,
      "eorang": 520,
      "mengh": 521,
      "uduk": 522,
      "ulan": 523,
      "arn": 524,
      "duduk": 525,
      "ungk": 526,
      "Bi": 527,
      "enin": 528,
      "ologi": 529,
      "uml": 530,
      "etik": 531,
      "umlah": 532,
      "As": 533,
      "ual": 534,
      "pemerint": 535,
      "yi": 536,
      "abi": 537,
      "akuk": 538,
      "akukan": 539,
      "ulai": 540,
      "ask": 541,
      "tetapi": 542,
      "Pran": 543,
      "yait": 544,
      "yaitu": 545,
      "erika": 546,
      "ovi": 547,
      "Amerika": 548,
      "Kabupaten": 549,
      "arti": 550,
      "arga": 551,
      "Kot": 552,
      "endir": 553,
      "uang": 554,
      "endiri": 555,
      "ort": 556,
      "egi": 557,
      "engi": 558,
      "enduduk": 559,
      "embal": 560,
      "Ci": 561,
      "ening": 562,
      "ow": 563,
      "ult": 564,
      "ering": 565,
      "uc": 566,
      "seorang": 567,
      "enang": 568,
      "versit": 569,
      "sebut": 570,
      "ulis": 571,
      "uri": 572,
      "Kota": 573,
      "oc": 574,
      "esid": 575,
      "Fi": 576,
      "entang": 577,
      "ft": 578,
      "Dal": 579,
      "aut": 580,
      "unc": 581,
      "fr": 582,
      "terj": 583,
      "Ki": 584,
      "ubl": 585,
      "Ag": 586,
      "awal": 587,
      "asin": 588,
      "Tr": 589,
      "II": 590,
      "unj": 591,
      "arta": 592,
      "ustr": 593,
      "ubli": 594,
      "ump": 595,
      "esiden": 596,
      "ation": 597,
      "etika": 598,
      "Kon": 599,
      "asih": 600,
      "olit": 601,
      "Dalam": 602,
      "mulai": 603,
      "erc": 604,
      "dunia": 605,
      "akn": 606,
      "urut": 607,
      "usan": 608,
      "The": 609,
      "Kr": 610,
      "Pi": 611,
      "elal": 612,
      "dup": 613,
      "Universit": 614,
      "menggunakan": 615,
      "disebut": 616,
      "erdi": 617,
      "embali": 618,
      "Gr": 619,
      "akarta": 620,
      "zi": 621,
      "erikat": 622,
      "Kec": 623,
      "org": 624,
      "Mal": 625,
      "umn": 626,
      "tempat": 627,
      "edang": 628,
      "Ing": 629,
      "idup": 630,
      "ublik": 631,
      "Ai": 632,
      "erha": 633,
      "form": 634,
      "Ab": 635,
      "engk": 636,
      "erhadap": 637,
      "emuk": 638,
      "Belan": 639,
      "erdapat": 640,
      "fil": 641,
      "penduduk": 642,
      "Ut": 643,
      "Beland": 644,
      "Belanda": 645,
      "Ingg": 646,
      "Inggr": 647,
      "Inggri": 648,
      "Inggris": 649,
      "kembali": 650,
      "Er": 651,
      "ermasuk": 652,
      "terhadap": 653,
      "oliti": 654,
      "endapat": 655,
      "termasuk": 656,
      "mengi": 657,
      "esk": 658,
      "umny": 659,
      "umnya": 660,
      "Int": 661,
      "mening": 662,
      "erdir": 663,
      "erdiri": 664,
      "Ak": 665,
      "eral": 666,
      "Kep": 667,
      "akti": 668,
      "enis": 669,
      "esm": 670,
      "oi": 671,
      "elai": 672,
      "Sh": 673,
      "umi": 674,
      "erman": 675,
      "Or": 676,
      "bulan": 677,
      "entin": 678,
      "oduk": 679,
      "Kecam": 680,
      "Kecamat": 681,
      "Kecamatan": 682,
      "fik": 683,
      "Ang": 684,
      "awi": 685,
      "aksi": 686,
      "atakan": 687,
      "kenal": 688,
      "ovin": 689,
      "Air": 690,
      "Ri": 691,
      "Serikat": 692,
      "asing": 693,
      "terjadi": 694,
      "erikan": 695,
      "erit": 696,
      "ebagian": 697,
      "erej": 698,
      "Ap": 699,
      "masih": 700,
      "erbagai": 701,
      "Isl": 702,
      "eman": 703,
      "aft": 704,
      "dikenal": 705,
      "bentuk": 706,
      "Fr": 707,
      "olitik": 708,
      "esmi": 709,
      "tentang": 710,
      "elalui": 711,
      "elain": 712,
      "engal": 713,
      "ereja": 714,
      "Sej": 715,
      "ungki": 716,
      "terdapat": 717,
      "urk": 718,
      "Vi": 719,
      "ajaan": 720,
      "ass": 721,
      "atang": 722,
      "ambi": 723,
      "ungkin": 724,
      "erajaan": 725,
      "Universitas": 726,
      "ovins": 727,
      "berbagai": 728,
      "ovinsi": 729,
      "melalui": 730,
      "uari": 731,
      "wakt": 732,
      "endidi": 733,
      "roduk": 734,
      "eris": 735,
      "endidik": 736,
      "dakan": 737,
      "urn": 738,
      "sendiri": 739,
      "asik": 740,
      "ketika": 741,
      "waktu": 742,
      "eban": 743,
      "erlet": 744,
      "ell": 745,
      "erletak": 746,
      "unjuk": 747,
      "endidikan": 748,
      "aftar": 749,
      "eski": 750,
      "Ni": 751,
      "Sp": 752,
      "okoh": 753,
      "edia": 754,
      "sejak": 755,
      "SM": 756,
      "ebab": 757,
      "asti": 758,
      "Pranal": 759,
      "Pranala": 760,
      "ungai": 761,
      "opa": 762,
      "resmi": 763,
      "enurut": 764,
      "Islam": 765,
      "ys": 766,
      "osis": 767,
      "usim": 768,
      "dh": 769,
      "elomp": 770,
      "\".": 771,
      "terletak": 772,
      "Rep": 773,
      "dok": 774,
      "aji": 775,
      "pemerintahan": 776,
      "Kal": 777,
      "elompok": 778,
      "asarkan": 779,
      "Tion": 780,
      "Tiong": 781,
      "ustri": 782,
      "urang": 783,
      "Jerman": 784,
      "Jep": 785,
      "erbang": 786,
      "sedang": 787,
      "ewan": 788,
      "Presiden": 789,
      "pemerintah": 790,
      "Sek": 791,
      "ernasional": 792,
      "adis": 793,
      "Kri": 794,
      "dasarkan": 795,
      "jumlah": 796,
      "erbi": 797,
      "mengal": 798,
      "ein": 799,
      "Eropa": 800,
      "emukan": 801,
      "Sal": 802,
      "Sin": 803,
      "enting": 804,
      "Jepang": 805,
      "sebagian": 806,
      "arl": 807,
      "terdiri": 808,
      "erli": 809,
      "lakukan": 810,
      "artai": 811,
      "Wil": 812,
      "elakukan": 813,
      "sering": 814,
      "akil": 815,
      "Ã©": 816,
      "Jakarta": 817,
      "olon": 818,
      "produk": 819,
      "melakukan": 820,
      "usk": 821,
      "Bri": 822,
      "embentuk": 823,
      "akin": 824,
      "organ": 825,
      "Republik": 826,
      "politik": 827,
      "erkembang": 828,
      "ertan": 829,
      "dilakukan": 830,
      "ex": 831,
      "fis": 832,
      "elek": 833,
      "Utar": 834,
      "ebany": 835,
      "Utara": 836,
      "asany": 837,
      "askan": 838,
      "asanya": 839,
      "ernah": 840,
      "emik": 841,
      "etiap": 842,
      "musim": 843,
      "Pranc": 844,
      "Pranci": 845,
      "Prancis": 846,
      "pernah": 847,
      "ubungan": 848,
      "hidup": 849,
      "asukan": 850,
      "erasal": 851,
      "New": 852,
      "eskip": 853,
      "eskipun": 854,
      "erdasarkan": 855,
      "berasal": 856,
      "erub": 857,
      "Kris": 858,
      "erakhir": 859,
      "enulis": 860,
      "\",": 861,
      "erkenal": 862,
      "elit": 863,
      "akit": 864,
      "asikan": 865,
      "emati": 866,
      "masing": 867,
      "erbes": 868,
      "usik": 869,
      "erikut": 870,
      "emim": 871,
      "emimp": 872,
      "emimpi": 873,
      "erw": 874,
      "emimpin": 875,
      "jenis": 876,
      "sejar": 877,
      "Hin": 878,
      "erhasil": 879,
      "fl": 880,
      "erbesar": 881,
      "ergi": 882,
      "Perang": 883,
      "Hal": 884,
      "datang": 885,
      "Selain": 886,
      "enai": 887,
      "Bal": 888,
      "ork": 889,
      "ambil": 890,
      "En": 891,
      "ungg": 892,
      "arny": 893,
      "Krist": 894,
      "arnya": 895,
      "asis": 896,
      "ultan": 897,
      "erita": 898,
      "Gereja": 899,
      "mendapat": 900,
      "esai": 901,
      "terbesar": 902,
      "dekat": 903,
      "organi": 904,
      "akny": 905,
      "aknya": 906,
      "Kh": 907,
      "film": 908,
      "Asi": 909,
      "osisi": 910,
      "ds": 911,
      "It": 912,
      "kelompok": 913,
      "âĢĶ": 914,
      "esti": 915,
      "erpi": 916,
      "fin": 917,
      "obi": 918,
      "Ac": 919,
      "Sc": 920,
      "ost": 921,
      "ebabk": 922,
      "ebabkan": 923,
      "osial": 924,
      "Bang": 925,
      "Indi": 926,
      "opi": 927,
      "urkan": 928,
      "Daftar": 929,
      "Ir": 930,
      "ungs": 931,
      "dustri": 932,
      "uw": 933,
      "orit": 934,
      "berhasil": 935,
      "odi": 936,
      "Dr": 937,
      "Nasional": 938,
      "ermi": 939,
      "astr": 940,
      "meningg": 941,
      "At": 942,
      "emberikan": 943,
      "meninggal": 944,
      "memberikan": 945,
      "Con": 946,
      "ulang": 947,
      "deka": 948,
      "setiap": 949,
      "mencap": 950,
      "Tiongk": 951,
      "Tiongkok": 952,
      "akai": 953,
      "nasional": 954,
      "yatakan": 955,
      "asilk": 956,
      "asilkan": 957,
      "emai": 958,
      "ertahan": 959,
      "mencapai": 960,
      "penting": 961,
      "erut": 962,
      "Ok": 963,
      "Mon": 964,
      "Pemerint": 965,
      "Min": 966,
      "adisi": 967,
      "arna": 968,
      "ebr": 969,
      "emiki": 970,
      "agang": 971,
      "Dunia": 972,
      "sejarah": 973,
      "Ol": 974,
      "||": 975,
      "enunjuk": 976,
      "Lih": 977,
      "emain": 978,
      "Lihat": 979,
      "emilih": 980,
      "iasanya": 981,
      "biasanya": 982,
      "perj": 983,
      "uangan": 984,
      "Sejar": 985,
      "Gi": 986,
      "Sit": 987,
      "oll": 988,
      "elumnya": 989,
      "ebelumnya": 990,
      "Ek": 991,
      "erangan": 992,
      "esemb": 993,
      "elin": 994,
      "oman": 995,
      "arb": 996,
      "ungsi": 997,
      "All": 998,
      "dagang": 999,
      "pengh": 1000,
      "akib": 1001,
      "erist": 1002,
      "oj": 1003,
      "Fil": 1004,
      "fri": 1005,
      "akibat": 1006,
      "Juli": 1007,
      "elekt": 1008,
      "organis": 1009,
      "menunjuk": 1010,
      "ulk": 1011,
      "Rusia": 1012,
      "Pang": 1013,
      "Wal": 1014,
      "eristi": 1015,
      "elap": 1016,
      "tulis": 1017,
      "engembang": 1018,
      "El": 1019,
      "Suk": 1020,
      "fek": 1021,
      "pasukan": 1022,
      "berikut": 1023,
      "val": 1024,
      "Sejarah": 1025,
      "uman": 1026,
      "ambang": 1027,
      "esember": 1028,
      "Desember": 1029,
      "Angk": 1030,
      "Okt": 1031,
      "enyi": 1032,
      "erutam": 1033,
      "Jal": 1034,
      "uali": 1035,
      "Kali": 1036,
      "elang": 1037,
      "urahan": 1038,
      "erutama": 1039,
      "emenang": 1040,
      "deral": 1041,
      "radisi": 1042,
      "tradisi": 1043,
      "unit": 1044,
      "Oktob": 1045,
      "Oktober": 1046,
      "Asia": 1047,
      "Agust": 1048,
      "uai": 1049,
      "musik": 1050,
      "erakan": 1051,
      "Kerajaan": 1052,
      "Il": 1053,
      "edik": 1054,
      "erki": 1055,
      "terutama": 1056,
      "Pl": 1057,
      "orn": 1058,
      "temukan": 1059,
      "mengalam": 1060,
      "emin": 1061,
      "mengan": 1062,
      "ulkan": 1063,
      "Brit": 1064,
      "mengalami": 1065,
      "uarga": 1066,
      "eluarga": 1067,
      "unyai": 1068,
      "Apr": 1069,
      "Pal": 1070,
      "empunyai": 1071,
      "membentuk": 1072,
      "Dengan": 1073,
      "Kons": 1074,
      "berdasarkan": 1075,
      "engenai": 1076,
      "Apri": 1077,
      "Ant": 1078,
      "oran": 1079,
      "Raja": 1080,
      "mempunyai": 1081,
      "esin": 1082,
      "April": 1083,
      "enerbang": 1084,
      "Beberapa": 1085,
      "ayang": 1086,
      "ditemukan": 1087,
      "uskan": 1088,
      "elurahan": 1089,
      "Lin": 1090,
      "sebelumnya": 1091,
      "anuari": 1092,
      "uis": 1093,
      "Agustus": 1094,
      "munc": 1095,
      "erdeka": 1096,
      "orb": 1097,
      "Januari": 1098,
      "Afri": 1099,
      "yl": 1100,
      "fisi": 1101,
      "pertan": 1102,
      "dai": 1103,
      "Um": 1104,
      "mengenai": 1105,
      "abil": 1106,
      "erbit": 1107,
      "muncul": 1108,
      "India": 1109,
      "Ji": 1110,
      "Pri": 1111,
      "terkenal": 1112,
      "uham": 1113,
      "ermin": 1114,
      "Muham": 1115,
      "Ist": 1116,
      "Kristen": 1117,
      "uci": 1118,
      "Ital": 1119,
      "olik": 1120,
      "okal": 1121,
      "osa": 1122,
      "enyatakan": 1123,
      "rovinsi": 1124,
      "provinsi": 1125,
      "mungkin": 1126,
      "Bl": 1127,
      "Juni": 1128,
      "menyatakan": 1129,
      "ays": 1130,
      "Dia": 1131,
      "urg": 1132,
      "erupa": 1133,
      "Tin": 1134,
      "ash": 1135,
      "erarti": 1136,
      "elektr": 1137,
      "enerbangan": 1138,
      "atasan": 1139,
      "usn": 1140,
      "ukup": 1141,
      "meningk": 1142,
      "Itali": 1143,
      "meningkat": 1144,
      "berarti": 1145,
      "Muhamm": 1146,
      "ebanyak": 1147,
      "Chi": 1148,
      "Provinsi": 1149,
      "etn": 1150,
      "pendidikan": 1151,
      "akni": 1152,
      "Sing": 1153,
      "Unt": 1154,
      "embangunan": 1155,
      "olis": 1156,
      "ulit": 1157,
      "produks": 1158,
      "produksi": 1159,
      "yakni": 1160,
      "dern": 1161,
      "menunjukk": 1162,
      "menunjukkan": 1163,
      "kerj": 1164,
      "Afrik": 1165,
      "ternasional": 1166,
      "nternasional": 1167,
      "internasional": 1168,
      "Menurut": 1169,
      "Kek": 1170,
      "erbai": 1171,
      "sedangk": 1172,
      "Afrika": 1173,
      "sedangkan": 1174,
      "vemb": 1175,
      "emungkin": 1176,
      "ovemb": 1177,
      "ovember": 1178,
      "Joh": 1179,
      "November": 1180,
      "ungkan": 1181,
      "esuai": 1182,
      "ational": 1183,
      "aksan": 1184,
      "Italia": 1185,
      "sebanyak": 1186,
      "Partai": 1187,
      "arr": 1188,
      "unik": 1189,
      "Put": 1190,
      "yebabkan": 1191,
      "enyebabkan": 1192,
      "terakhir": 1193,
      "sosial": 1194,
      "menyebabkan": 1195,
      "cukup": 1196,
      "odern": 1197,
      "emban": 1198,
      "uns": 1199,
      "Sungai": 1200,
      "erca": 1201,
      "residen": 1202,
      "tokoh": 1203,
      "ect": 1204,
      "etin": 1205,
      "sejumlah": 1206,
      "Tek": 1207,
      "Em": 1208,
      "kurang": 1209,
      "engang": 1210,
      "Abd": 1211,
      "dri": 1212,
      "esis": 1213,
      "ndustri": 1214,
      "egal": 1215,
      "menghasilkan": 1216,
      "industri": 1217,
      "elih": 1218,
      "Untuk": 1219,
      "kerajaan": 1220,
      "etig": 1221,
      "sungai": 1222,
      "ermuk": 1223,
      "ehidup": 1224,
      "oron": 1225,
      "ehidupan": 1226,
      "erubahan": 1227,
      "umumnya": 1228,
      "urunan": 1229,
      "Im": 1230,
      "ahr": 1231,
      "fungsi": 1232,
      "hubungan": 1233,
      "ath": 1234,
      "eristiw": 1235,
      "uhn": 1236,
      "eristiwa": 1237,
      "Laut": 1238,
      "Tokoh": 1239,
      "erbaik": 1240,
      "Cl": 1241,
      "menurut": 1242,
      "arc": 1243,
      "atal": 1244,
      "TV": 1245,
      "uhny": 1246,
      "uhnya": 1247,
      "'s": 1248,
      "Britan": 1249,
      "ahui": 1250,
      "emikian": 1251,
      "keluarga": 1252,
      "Äģ": 1253,
      "enduk": 1254,
      "Febr": 1255,
      "etahui": 1256,
      "asalah": 1257,
      "posisi": 1258,
      "Mereka": 1259,
      "endukung": 1260,
      "Sebagai": 1261,
      "eron": 1262,
      "Pendidikan": 1263,
      "Aw": 1264,
      "anyi": 1265,
      "Fran": 1266,
      "etan": 1267,
      "ermai": 1268,
      "omput": 1269,
      "erbentuk": 1270,
      "Isr": 1271,
      "akanan": 1272,
      "oritas": 1273,
      "erai": 1274,
      "ugi": 1275,
      "ercay": 1276,
      "usny": 1277,
      "Kl": 1278,
      "usnya": 1279,
      "Sw": 1280,
      "Allah": 1281,
      "Britani": 1282,
      "Britania": 1283,
      "yanyi": 1284,
      "embant": 1285,
      "berkembang": 1286,
      "Ali": 1287,
      "emang": 1288,
      "ematian": 1289,
      "eluk": 1290,
      "Februari": 1291,
      "asl": 1292,
      "Dewan": 1293,
      "obil": 1294,
      "etiga": 1295,
      "eal": 1296,
      "Ph": 1297,
      "elesai": 1298,
      "eliti": 1299,
      "undang": 1300,
      "artik": 1301,
      "urs": 1302,
      "erbatasan": 1303,
      "elawan": 1304,
      "Span": 1305,
      "Din": 1306,
      "Ins": 1307,
      "Ting": 1308,
      "uhk": 1309,
      "egang": 1310,
      "organisasi": 1311,
      "ercaya": 1312,
      "yebut": 1313,
      "darip": 1314,
      "enderal": 1315,
      "daripa": 1316,
      "daripad": 1317,
      "atolik": 1318,
      "enyebut": 1319,
      "unis": 1320,
      "Mil": 1321,
      "eseh": 1322,
      "oviet": 1323,
      "yakit": 1324,
      "elip": 1325,
      "enyakit": 1326,
      "erdagang": 1327,
      "Tran": 1328,
      "uhkan": 1329,
      "permuk": 1330,
      "penerbangan": 1331,
      "umbuhan": 1332,
      "engambil": 1333,
      "Soviet": 1334,
      "Mari": 1335,
      "daripada": 1336,
      "Hari": 1337,
      "Spany": 1338,
      "Spanyol": 1339,
      "presiden": 1340,
      "atih": 1341,
      "asli": 1342,
      "terpi": 1343,
      "Kap": 1344,
      "usl": 1345,
      "Trans": 1346,
      "modern": 1347,
      "Tekn": 1348,
      "Â°": 1349,
      "mendapatk": 1350,
      "mendapatkan": 1351,
      "Katolik": 1352,
      "Isra": 1353,
      "Pari": 1354,
      "esehat": 1355,
      "esehatan": 1356,
      "Dari": 1357,
      "ergan": 1358,
      "Port": 1359,
      "akang": 1360,
      "âĢĿ": 1361,
      "demikian": 1362,
      "ubern": 1363,
      "oba": 1364,
      "Pemerintah": 1365,
      "adir": 1366,
      "PR": 1367,
      "elakang": 1368,
      "Ini": 1369,
      "aturan": 1370,
      "olek": 1371,
      "erkai": 1372,
      "ediki": 1373,
      "edikit": 1374,
      "dokt": 1375,
      "Internasional": 1376,
      "erkait": 1377,
      "eroleh": 1378,
      "ahudi": 1379,
      "Jalan": 1380,
      "erbuk": 1381,
      "eneliti": 1382,
      "dali": 1383,
      "unsur": 1384,
      "Sch": 1385,
      "dimulai": 1386,
      "yek": 1387,
      "erkir": 1388,
      "menyebut": 1389,
      "sesuai": 1390,
      "ermain": 1391,
      "Yahudi": 1392,
      "Israel": 1393,
      "ungi": 1394,
      "ergant": 1395,
      "olong": 1396,
      "Cal": 1397,
      "berupa": 1398,
      "ujan": 1399,
      "meskipun": 1400,
      "eting": 1401,
      "asang": 1402,
      "mesin": 1403,
      "kerja": 1404,
      "fini": 1405,
      "Angkat": 1406,
      "arj": 1407,
      "Meskipun": 1408,
      "agn": 1409,
      "Dep": 1410,
      "ubernur": 1411,
      "Yog": 1412,
      "emerdeka": 1413,
      "Ah": 1414,
      "emerdekaan": 1415,
      "Sultan": 1416,
      "sedikit": 1417,
      "masalah": 1418,
      "Sr": 1419,
      "erian": 1420,
      "ujuk": 1421,
      "ock": 1422,
      "Buk": 1423,
      "ebij": 1424,
      "Angkatan": 1425,
      "perubahan": 1426,
      "Wila": 1427,
      "Ng": 1428,
      "York": 1429,
      "makanan": 1430,
      "Wilay": 1431,
      "Wilayah": 1432,
      "etuj": 1433,
      "abr": 1434,
      "omputer": 1435,
      "melawan": 1436,
      "pemain": 1437,
      "kabupaten": 1438,
      "efek": 1439,
      "usli": 1440,
      "yakarta": 1441,
      "ĠĠĠ": 1442,
      "out": 1443,
      "Mic": 1444,
      "Bin": 1445,
      "egiat": 1446,
      "kehidupan": 1447,
      "pemimpin": 1448,
      "omunik": 1449,
      "Art": 1450,
      "egiatan": 1451,
      "Lon": 1452,
      "emis": 1453,
      "Yunan": 1454,
      "emakin": 1455,
      "ketiga": 1456,
      "aksa": 1457,
      "ergab": 1458,
      "melip": 1459,
      "pakai": 1460,
      "ergabung": 1461,
      "Yunani": 1462,
      "permuka": 1463,
      "permukaan": 1464,
      "akr": 1465,
      "aysi": 1466,
      "Alb": 1467,
      "erdagangan": 1468,
      "ukuran": 1469,
      "Malaysi": 1470,
      "meliput": 1471,
      "Malaysia": 1472,
      "emilihan": 1473,
      "asj": 1474,
      "uslim": 1475,
      "enyanyi": 1476,
      "euangan": 1477,
      "ustral": 1478,
      "enik": 1479,
      "Sis": 1480,
      "TN": 1481,
      "mengang": 1482,
      "Mis": 1483,
      "vari": 1484,
      "Austral": 1485,
      "elis": 1486,
      "enari": 1487,
      "engkap": 1488,
      "partai": 1489,
      "meliputi": 1490,
      "omawi": 1491,
      "Muhamma": 1492,
      "asji": 1493,
      "gereja": 1494,
      "âĢľ": 1495,
      "Kong": 1496,
      "Abdul": 1497,
      "Muhammad": 1498,
      "umpang": 1499,
      "menulis": 1500,
      "Romawi": 1501,
      "mengambil": 1502,
      "Perj": 1503,
      "omunikasi": 1504,
      "Kelurahan": 1505,
      "akl": 1506,
      "Ã¡": 1507,
      "ohon": 1508,
      "Yogyakarta": 1509,
      "ebijakan": 1510,
      "Gal": 1511,
      "energi": 1512,
      "Kit": 1513,
      "ddh": 1514,
      "memin": 1515,
      "belakang": 1516,
      "Australi": 1517,
      "unn": 1518,
      "egit": 1519,
      "semakin": 1520,
      "fisik": 1521,
      "Cr": 1522,
      "Tang": 1523,
      "menang": 1524,
      "Jenderal": 1525,
      "Bali": 1526,
      "akult": 1527,
      "aktif": 1528,
      "Kalim": 1529,
      "Str": 1530,
      "embantu": 1531,
      "arap": 1532,
      "embuk": 1533,
      "finis": 1534,
      "Lig": 1535,
      "yon": 1536,
      "mengik": 1537,
      "hujan": 1538,
      "menggan": 1539,
      "penyakit": 1540,
      "berikan": 1541,
      "mobil": 1542,
      "abang": 1543,
      "obat": 1544,
      "Ketika": 1545,
      "Sk": 1546,
      "dw": 1547,
      "ddi": 1548,
      "Agung": 1549,
      "pembangunan": 1550,
      "elektron": 1551,
      "olisi": 1552,
      "penulis": 1553,
      "Tri": 1554,
      "akultas": 1555,
      "ebang": 1556,
      "askap": 1557,
      "Tai": 1558,
      "menyi": 1559,
      "John": 1560,
      "elihat": 1561,
      "uddh": 1562,
      "Ilm": 1563,
      "astra": 1564,
      "Fl": 1565,
      "asp": 1566,
      "Aceh": 1567,
      "askapai": 1568,
      "menjab": 1569,
      "Sang": 1570,
      "etingg": 1571,
      "Sejak": 1572,
      "Win": 1573,
      "Sai": 1574,
      "diberikan": 1575,
      "menggant": 1576,
      "meman": 1577,
      "zin": 1578,
      "agal": 1579,
      "membang": 1580,
      "Undang": 1581,
      "oloni": 1582,
      "asjid": 1583,
      "bergabung": 1584,
      "On": 1585,
      "emok": 1586,
      "asisw": 1587,
      "Kai": 1588,
      "engembangan": 1589,
      "empuran": 1590,
      "âĢĻ": 1591,
      "emokr": 1592,
      "tradision": 1593,
      "menjabat": 1594,
      "dut": 1595,
      "tradisional": 1596,
      "Pap": 1597,
      "Secara": 1598,
      "University": 1599,
      "Australia": 1600,
      "ditulis": 1601,
      "Prot": 1602,
      "Us": 1603,
      "kematian": 1604,
      "ertempuran": 1605,
      "etinggi": 1606,
      "yakin": 1607,
      "zh": 1608,
      "abin": 1609,
      "Sri": 1610,
      "erlang": 1611,
      "ketahui": 1612,
      "pengi": 1613,
      "orong": 1614,
      "perkir": 1615,
      "mengganti": 1616,
      "ors": 1617,
      "TNI": 1618,
      "Bangs": 1619,
      "Airl": 1620,
      "asiswa": 1621,
      "Yang": 1622,
      "berdiri": 1623,
      "eril": 1624,
      "Hindi": 1625,
      "Orang": 1626,
      "ahari": 1627,
      "esat": 1628,
      "Pial": 1629,
      "orl": 1630,
      "erbitk": 1631,
      "erbitkan": 1632,
      "Sim": 1633,
      "ahrag": 1634,
      "ompl": 1635,
      "uarkan": 1636,
      "oss": 1637,
      "eluarkan": 1638,
      "Buddh": 1639,
      "abuhan": 1640,
      "Inst": 1641,
      "Sekol": 1642,
      "Piala": 1643,
      "lokal": 1644,
      "Kaliman": 1645,
      "pering": 1646,
      "Es": 1647,
      "kegiatan": 1648,
      "III": 1649,
      "mendiri": 1650,
      "mendirik": 1651,
      "mendirikan": 1652,
      "eturunan": 1653,
      "Kalimant": 1654,
      "publik": 1655,
      "Kalimantan": 1656,
      "Ã¼": 1657,
      "Sekolah": 1658,
      "Os": 1659,
      "Shi": 1660,
      "Kemudian": 1661,
      "egr": 1662,
      "erubah": 1663,
      "obal": 1664,
      "engatakan": 1665,
      "perkembang": 1666,
      "enemukan": 1667,
      "Muslim": 1668,
      "hewan": 1669,
      "mengatakan": 1670,
      "elep": 1671,
      "ahraga": 1672,
      "emut": 1673,
      "Komi": 1674,
      "diketahui": 1675,
      "ows": 1676,
      "enumpang": 1677,
      "menemukan": 1678,
      "enelitian": 1679,
      "Sl": 1680,
      "Ekon": 1681,
      "Chr": 1682,
      "perkembangan": 1683,
      "asili": 1684,
      "daftar": 1685,
      "gerakan": 1686,
      "enetap": 1687,
      "Pon": 1688,
      "fakt": 1689,
      "etis": 1690,
      "berlang": 1691,
      "berubah": 1692,
      "arakt": 1693,
      "BN": 1694,
      "omand": 1695,
      "mass": 1696,
      "Hindia": 1697,
      "Cont": 1698,
      "perdagangan": 1699,
      "Bangsa": 1700,
      "Ilmu": 1701,
      "Bumi": 1702,
      "Film": 1703,
      "ebanyakan": 1704,
      "eir": 1705,
      "Will": 1706,
      "esir": 1707,
      "datangan": 1708,
      "awaln": 1709,
      "eric": 1710,
      "awalny": 1711,
      "umk": 1712,
      "urki": 1713,
      "awalnya": 1714,
      "AM": 1715,
      "fic": 1716,
      "menik": 1717,
      "ebal": 1718,
      "eront": 1719,
      "Arm": 1720,
      "Ekonomi": 1721,
      "elabuhan": 1722,
      "artin": 1723,
      "endali": 1724,
      "serangan": 1725,
      "amal": 1726,
      "Gl": 1727,
      "erluk": 1728,
      "PK": 1729,
      "perjal": 1730,
      "perjalan": 1731,
      "melihat": 1732,
      "oris": 1733,
      "mengikut": 1734,
      "uit": 1735,
      "arakan": 1736,
      "Liga": 1737,
      "umkan": 1738,
      "Sumb": 1739,
      "peristiwa": 1740,
      "ustak": 1741,
      "Mesir": 1742,
      "Ul": 1743,
      "membangun": 1744,
      "perjalanan": 1745,
      "berlangs": 1746,
      "berlangsung": 1747,
      "ahap": 1748,
      "ahasiswa": 1749,
      "ount": 1750,
      "emberont": 1751,
      "kebijakan": 1752,
      "komputer": 1753,
      "elaksan": 1754,
      "Ari": 1755,
      "Kepal": 1756,
      "askah": 1757,
      "orld": 1758,
      "oyek": 1759,
      "mendukung": 1760,
      "ook": 1761,
      "Cin": 1762,
      "Kepala": 1763,
      "efinis": 1764,
      "ustaka": 1765,
      "kemerdekaan": 1766,
      "pendapat": 1767,
      "asia": 1768,
      "dungan": 1769,
      "):": 1770,
      "edit": 1771,
      "osit": 1772,
      "elalu": 1773,
      "efinisi": 1774,
      "keturunan": 1775,
      "dokter": 1776,
      "Turki": 1777,
      "ambarkan": 1778,
      "Prog": 1779,
      "Persi": 1780,
      "Gubernur": 1781,
      "ambahan": 1782,
      "enim": 1783,
      "artikel": 1784,
      "elengg": 1785,
      "asc": 1786,
      "edis": 1787,
      "berw": 1788,
      "pertani": 1789,
      "pertanian": 1790,
      "ental": 1791,
      "membantu": 1792,
      "emungkinan": 1793,
      "menjal": 1794,
      "yn": 1795,
      "esep": 1796,
      "arlem": 1797,
      "akup": 1798,
      "Fin": 1799,
      "selalu": 1800,
      "yt": 1801,
      "yap": 1802,
      "Fakultas": 1803,
      "engahan": 1804,
      "penumpang": 1805,
      "ddin": 1806,
      "ernational": 1807,
      "pemilihan": 1808,
      "yle": 1809,
      "enarik": 1810,
      "mengikuti": 1811,
      "dibentuk": 1812,
      "Unit": 1813,
      "egis": 1814,
      "unungan": 1815,
      "lawan": 1816,
      "melin": 1817,
      "eform": 1818,
      "Tuhan": 1819,
      "erban": 1820,
      "aktivi": 1821,
      "asifik": 1822,
      "ertengahan": 1823,
      "Suku": 1824,
      "esies": 1825,
      "oci": 1826,
      "Ex": 1827,
      "egunungan": 1828,
      "erlih": 1829,
      "kesehatan": 1830,
      "erlihat": 1831,
      "Tingg": 1832,
      "Kin": 1833,
      "eing": 1834,
      "ordi": 1835,
      "erial": 1836,
      "ÃŃ": 1837,
      "asai": 1838,
      "yr": 1839,
      "International": 1840,
      "Singap": 1841,
      "melan": 1842,
      "etni": 1843,
      "unitas": 1844,
      "berikutn": 1845,
      "Airli": 1846,
      "berikutny": 1847,
      "berikutnya": 1848,
      "egitu": 1849,
      "Airlin": 1850,
      "Zh": 1851,
      "Angg": 1852,
      "Gran": 1853,
      "erlin": 1854,
      "London": 1855,
      "Sist": 1856,
      "Progr": 1857,
      "meningkatk": 1858,
      "meningkatkan": 1859,
      "UN": 1860,
      "ultanan": 1861,
      "engub": 1862,
      "osk": 1863,
      "Tiongh": 1864,
      "Insti": 1865,
      "abri": 1866,
      "ashi": 1867,
      "Tiongho": 1868,
      "agin": 1869,
      "memenang": 1870,
      "Tionghoa": 1871,
      "etinggian": 1872,
      "Instit": 1873,
      "ematik": 1874,
      "Ur": 1875,
      "PD": 1876,
      "Sedang": 1877,
      "enterian": 1878,
      "meninggalk": 1879,
      "arbon": 1880,
      "Tinggi": 1881,
      "meninggalkan": 1882,
      "ementerian": 1883,
      "Chri": 1884,
      "embentukan": 1885,
      "Chris": 1886,
      "Sup": 1887,
      "cerita": 1888,
      "Alk": 1889,
      "Kekai": 1890,
      "Kekais": 1891,
      "Kekaisar": 1892,
      "Kekaisaran": 1893,
      "urusan": 1894,
      "IV": 1895,
      "ambat": 1896,
      "Et": 1897,
      "erminal": 1898,
      "Isti": 1899,
      "Agam": 1900,
      "Huk": 1901,
      "erhi": 1902,
      "Wis": 1903,
      "pening": 1904,
      "ertahanan": 1905,
      "Adi": 1906,
      "kemungkinan": 1907,
      "Airlines": 1908,
      "terbuk": 1909,
      "omunitas": 1910,
      "memut": 1911,
      "dorong": 1912,
      "esultanan": 1913,
      "Buddha": 1914,
      "ecuali": 1915,
      "embuka": 1916,
      "eis": 1917,
      "elaskan": 1918,
      "erlukan": 1919,
      "enut": 1920,
      "Org": 1921,
      "uruhan": 1922,
      "World": 1923,
      "ertumbuhan": 1924,
      "Perjan": 1925,
      "percaya": 1926,
      "Konst": 1927,
      "eaksi": 1928,
      "pesies": 1929,
      "Pemerintahan": 1930,
      "aktik": 1931,
      "erisi": 1932,
      "spesies": 1933,
      "Arg": 1934,
      "ersedia": 1935,
      "Sistem": 1936,
      "obj": 1937,
      "dipakai": 1938,
      "emperoleh": 1939,
      "asilit": 1940,
      "Sedangk": 1941,
      "Sedangkan": 1942,
      "berakhir": 1943,
      "atahari": 1944,
      "enarnya": 1945,
      "enia": 1946,
      "menci": 1947,
      "erwakil": 1948,
      "Perjanj": 1949,
      "Perjanji": 1950,
      "orp": 1951,
      "umumkan": 1952,
      "awang": 1953,
      "keuangan": 1954,
      "memperoleh": 1955,
      "penyanyi": 1956,
      "uasai": 1957,
      "Perjanjian": 1958,
      "Pengh": 1959,
      "koloni": 1960,
      "omplek": 1961,
      "omunis": 1962,
      "estin": 1963,
      "perkirakan": 1964,
      "memilih": 1965,
      "Hon": 1966,
      "ebenarnya": 1967,
      "Institut": 1968,
      "andai": 1969,
      "uddin": 1970,
      "Wakil": 1971,
      "etid": 1972,
      "Austri": 1973,
      "menarik": 1974,
      "urit": 1975,
      "els": 1976,
      "fit": 1977,
      "Kitab": 1978,
      "Willi": 1979,
      "Mang": 1980,
      "ususnya": 1981,
      "uruk": 1982,
      "Program": 1983,
      "objek": 1984,
      "Paris": 1985,
      "erwakilan": 1986,
      "Kari": 1987,
      "unggal": 1988,
      "Putr": 1989,
      "ajal": 1990,
      "Bint": 1991,
      "Papu": 1992,
      "enek": 1993,
      "zim": 1994,
      "Sebagian": 1995,
      "menjadik": 1996,
      "menjadikan": 1997,
      "Ot": 1998,
      "estan": 1999,
      "Papua": 2000,
      "engembangk": 2001,
      "engembangkan": 2002,
      "pengembangan": 2003,
      "mencakup": 2004,
      "etnis": 2005,
      "karakt": 2006,
      "Coll": 2007,
      "Ø§": 2008,
      "Tengg": 2009,
      "menggantik": 2010,
      "menggantikan": 2011,
      "His": 2012,
      "menetap": 2013,
      "definisi": 2014,
      "perint": 2015,
      "Bil": 2016,
      "Hukum": 2017,
      "hususnya": 2018,
      "pendiri": 2019,
      "senj": 2020,
      "terbang": 2021,
      "Hit": 2022,
      "ketinggian": 2023,
      "Organ": 2024,
      "khususnya": 2025,
      "begitu": 2026,
      "abinet": 2027,
      "erlib": 2028,
      "mengembangkan": 2029,
      "Agama": 2030,
      "Ahm": 2031,
      "amk": 2032,
      "ertahank": 2033,
      "ertahankan": 2034,
      "Studi": 2035,
      "menikah": 2036,
      "ediakan": 2037,
      "orban": 2038,
      "Tekni": 2039,
      "Bh": 2040,
      "Alki": 2041,
      "olekul": 2042,
      "erenc": 2043,
      "mengub": 2044,
      "Panger": 2045,
      "ugis": 2046,
      "memerint": 2047,
      "ops": 2048,
      "memerintah": 2049,
      "Pangeran": 2050,
      "Istan": 2051,
      "Lib": 2052,
      "berisi": 2053,
      "ergantung": 2054,
      "och": 2055,
      "ajib": 2056,
      "terkait": 2057,
      "zon": 2058,
      "adian": 2059,
      "arki": 2060,
      "kulit": 2061,
      "Â²": 2062,
      "arlemen": 2063,
      "terbentuk": 2064,
      "uisi": 2065,
      "pasang": 2066,
      "maskapai": 2067,
      "Austria": 2068,
      "Son": 2069,
      "elesaik": 2070,
      "elesaikan": 2071,
      "senjat": 2072,
      "punc": 2073,
      "engadi": 2074,
      "William": 2075,
      "Alkit": 2076,
      "engadil": 2077,
      "Penduduk": 2078,
      "eseorang": 2079,
      "ompon": 2080,
      "emungkink": 2081,
      "emungkinkan": 2082,
      "penelitian": 2083,
      "terpil": 2084,
      "Politik": 2085,
      "enon": 2086,
      "terpili": 2087,
      "memungkinkan": 2088,
      "Fis": 2089,
      "terpilih": 2090,
      "eluruhan": 2091,
      "erson": 2092,
      "AR": 2093,
      "amakan": 2094,
      "Alkitab": 2095,
      "Berdasarkan": 2096,
      "eut": 2097,
      "Mek": 2098,
      "ologis": 2099,
      "oek": 2100,
      "erlibat": 2101,
      "mengubah": 2102,
      "elim": 2103,
      "Mich": 2104,
      "berbatasan": 2105,
      "Kementerian": 2106,
      "Organi": 2107,
      "aporan": 2108,
      "Franc": 2109,
      "olongan": 2110,
      "menjalan": 2111,
      "Tenggar": 2112,
      "ayap": 2113,
      "senjata": 2114,
      "ext": 2115,
      "memenangk": 2116,
      "Don": 2117,
      "eraturan": 2118,
      "memenangkan": 2119,
      "SBN": 2120,
      "DPR": 2121,
      "tyle": 2122,
      "Awar": 2123,
      "ISBN": 2124,
      "Ã¶": 2125,
      "style": 2126,
      "asiny": 2127,
      "Teknik": 2128,
      "asinya": 2129,
      "emulai": 2130,
      "efekt": 2131,
      "yoritas": 2132,
      "massa": 2133,
      "ompleks": 2134,
      "yc": 2135,
      "ayoritas": 2136,
      "universit": 2137,
      "unyi": 2138,
      "memint": 2139,
      "mengir": 2140,
      "engadilan": 2141,
      "arut": 2142,
      "memulai": 2143,
      "pertumbuhan": 2144,
      "ulti": 2145,
      "erkenalk": 2146,
      "royek": 2147,
      "sebenarnya": 2148,
      "erhati": 2149,
      "erkenalkan": 2150,
      "memutuskan": 2151,
      "perjan": 2152,
      "edakan": 2153,
      "fli": 2154,
      "awesi": 2155,
      "perjanj": 2156,
      "perjanji": 2157,
      "perjanjian": 2158,
      "ulawesi": 2159,
      "esta": 2160,
      "Singapur": 2161,
      "Singapura": 2162,
      "sakit": 2163,
      "elil": 2164,
      "Akh": 2165,
      "Sulawesi": 2166,
      "utuhkan": 2167,
      "erhan": 2168,
      "mengha": 2169,
      "Contoh": 2170,
      "kebanyakan": 2171,
      "ulin": 2172,
      "tetapk": 2173,
      "asilitas": 2174,
      ");": 2175,
      "tetapkan": 2176,
      "proyek": 2177,
      "fils": 2178,
      "elili": 2179,
      "universitas": 2180,
      "artis": 2181,
      "Kej": 2182,
      "emegang": 2183,
      "pergi": 2184,
      "ungari": 2185,
      "pertengahan": 2186,
      "engurang": 2187,
      "erlan": 2188,
      "tulisan": 2189,
      "Hungari": 2190,
      "agr": 2191,
      "Jik": 2192,
      "ebasan": 2193,
      "akal": 2194,
      "perintah": 2195,
      "ditetapkan": 2196,
      "Tenggara": 2197,
      "berbentuk": 2198,
      "etari": 2199,
      "oal": 2200,
      "sempat": 2201,
      "ums": 2202,
      "burg": 2203,
      "elilin": 2204,
      "Depart": 2205,
      "Grand": 2206,
      "eliling": 2207,
      "seseorang": 2208,
      "atematik": 2209,
      "Jumlah": 2210,
      "diambil": 2211,
      "Kut": 2212,
      "ox": 2213,
      "Tit": 2214,
      "abl": 2215,
      "eformasi": 2216,
      "enakan": 2217,
      "Protestan": 2218,
      "molekul": 2219,
      "orni": 2220,
      "ordin": 2221,
      "diperkirakan": 2222,
      "Kais": 2223,
      "elatih": 2224,
      "mencip": 2225,
      "audi": 2226,
      "fot": 2227,
      "Kesultanan": 2228,
      "mencipt": 2229,
      "elt": 2230,
      "urt": 2231,
      "own": 2232,
      "Jika": 2233,
      "Americ": 2234,
      "egala": 2235,
      "Hungaria": 2236,
      "awai": 2237,
      "uwan": 2238,
      "abrik": 2239,
      "opt": 2240,
      "meminta": 2241,
      "Selan": 2242,
      "Cali": 2243,
      "menciptakan": 2244,
      "%.": 2245,
      "entik": 2246,
      "Mili": 2247,
      "Dh": 2248,
      "penyi": 2249,
      "Cir": 2250,
      "berwarna": 2251,
      "aktivit": 2252,
      "aktivitas": 2253,
      "Fre": 2254,
      "mengangg": 2255,
      "terbitkan": 2256,
      "ualit": 2257,
      "fs": 2258,
      "erlal": 2259,
      "Mali": 2260,
      "emakai": 2261,
      "urw": 2262,
      "mencari": 2263,
      "abis": 2264,
      "National": 2265,
      "memang": 2266,
      "Arti": 2267,
      "menghadap": 2268,
      "terlihat": 2269,
      "Ric": 2270,
      "kelurahan": 2271,
      "Organis": 2272,
      "ajari": 2273,
      "ermainan": 2274,
      "akluk": 2275,
      "sebabkan": 2276,
      "Pin": 2277,
      "ertang": 2278,
      "erlalu": 2279,
      "Bup": 2280,
      "olahraga": 2281,
      "erebut": 2282,
      "eraih": 2283,
      "Phi": 2284,
      "etuju": 2285,
      "Bupati": 2286,
      "diterbitkan": 2287,
      "asir": 2288,
      "pemberont": 2289,
      "Dinasti": 2290,
      "Bon": 2291,
      "mengiri": 2292,
      "enit": 2293,
      "Rek": 2294,
      "andatangan": 2295,
      "berpi": 2296,
      "eseluruhan": 2297,
      "Christ": 2298,
      "\"|": 2299,
      "asuki": 2300,
      "elapan": 2301,
      "Anggot": 2302,
      "komunitas": 2303,
      "menganggap": 2304,
      "disebabkan": 2305,
      "Ling": 2306,
      "ajuk": 2307,
      "ambut": 2308,
      "Oleh": 2309,
      "erjumlah": 2310,
      "embalap": 2311,
      "umpulan": 2312,
      "Sm": 2313,
      "Kaisar": 2314,
      "berjumlah": 2315,
      "pohon": 2316,
      "emikir": 2317,
      "ejab": 2318,
      "Wala": 2319,
      "esisi": 2320,
      "ejabat": 2321,
      "Pengg": 2322,
      "Val": 2323,
      "asit": 2324,
      "Inj": 2325,
      "Cil": 2326,
      "derhan": 2327,
      "eempat": 2328,
      "ederhan": 2329,
      "pembentukan": 2330,
      "argan": 2331,
      "erhubungan": 2332,
      "variasi": 2333,
      "Departem": 2334,
      "tambahan": 2335,
      "segala": 2336,
      "Sir": 2337,
      "abila": 2338,
      "teman": 2339,
      "egion": 2340,
      "Anggota": 2341,
      "Sosial": 2342,
      "dukungan": 2343,
      "Tig": 2344,
      "eyakin": 2345,
      "emahan": 2346,
      "Oli": 2347,
      "elangg": 2348,
      "Sain": 2349,
      "keseluruhan": 2350,
      "Thai": 2351,
      "memimpin": 2352,
      "yari": 2353,
      "Terdapat": 2354,
      "Teluk": 2355,
      "olk": 2356,
      "Sumber": 2357,
      "ym": 2358,
      "oph": 2359,
      "elajari": 2360,
      "eim": 2361,
      "Eng": 2362,
      "Departemen": 2363,
      "Bek": 2364,
      "engeluarkan": 2365,
      "Fili": 2366,
      "emenangan": 2367,
      "Phil": 2368,
      "akibatk": 2369,
      "akibatkan": 2370,
      "forni": 2371,
      "terbaik": 2372,
      "Ã³": 2373,
      "empertahankan": 2374,
      "edokter": 2375,
      "arangan": 2376,
      "uncurkan": 2377,
      "edokteran": 2378,
      "mengeluarkan": 2379,
      "engumumkan": 2380,
      "desai": 2381,
      "komunikasi": 2382,
      "Fisi": 2383,
      "mengumumkan": 2384,
      "asasti": 2385,
      "desain": 2386,
      "Bagian": 2387,
      "ualitas": 2388,
      "mengirim": 2389,
      "mempertahankan": 2390,
      "uch": 2391,
      "mengalah": 2392,
      "Mc": 2393,
      "Wh": 2394,
      "Organisasi": 2395,
      "Dj": 2396,
      "terlibat": 2397,
      "urni": 2398,
      "esisir": 2399,
      "karbon": 2400,
      "Ast": 2401,
      "akna": 2402,
      "erencan": 2403,
      "Akhi": 2404,
      "aton": 2405,
      "arjan": 2406,
      "bermain": 2407,
      "Fir": 2408,
      "CO": 2409,
      "raktik": 2410,
      "entina": 2411,
      "kompleks": 2412,
      "muri": 2413,
      "fornia": 2414,
      "Harr": 2415,
      "esh": 2416,
      "awati": 2417,
      "Mont": 2418,
      "duga": 2419,
      "meraih": 2420,
      "erujuk": 2421,
      "uluk": 2422,
      "gagal": 2423,
      "ersenj": 2424,
      "Inji": 2425,
      "Bap": 2426,
      "Sut": 2427,
      "pengharga": 2428,
      "Injil": 2429,
      "pelabuhan": 2430,
      "penghargaan": 2431,
      "hasilkan": 2432,
      "mengalahk": 2433,
      "mengalahkan": 2434,
      "Komand": 2435,
      "Teknologi": 2436,
      "terlalu": 2437,
      "Chin": 2438,
      "Ahma": 2439,
      "murid": 2440,
      "retari": 2441,
      "Inform": 2442,
      "Ahmad": 2443,
      "Bintang": 2444,
      "atelit": 2445,
      "ersenjat": 2446,
      "pertempuran": 2447,
      "opsi": 2448,
      "Demokr": 2449,
      "arch": 2450,
      "California": 2451,
      "Peristiwa": 2452,
      "merujuk": 2453,
      "Kim": 2454,
      "kompon": 2455,
      "enk": 2456,
      "ebangs": 2457,
      "Purw": 2458,
      "Soek": 2459,
      "fon": 2460,
      "edisi": 2461,
      "menggambarkan": 2462,
      "arles": 2463,
      "esepak": 2464,
      "%,": 2465,
      "yediakan": 2466,
      "enyediakan": 2467,
      "dihasilkan": 2468,
      "Industri": 2469,
      "turut": 2470,
      "derita": 2471,
      "ural": 2472,
      "menjelaskan": 2473,
      "ewati": 2474,
      "Mot": 2475,
      "Malang": 2476,
      "usant": 2477,
      "Uk": 2478,
      "terpis": 2479,
      "endorong": 2480,
      "Bir": 2481,
      "puncak": 2482,
      "ertangg": 2483,
      "terpisah": 2484,
      "Pembangunan": 2485,
      "menyediakan": 2486,
      "Charles": 2487,
      "fir": 2488,
      "Utam": 2489,
      "terbuka": 2490,
      "ajap": 2491,
      "elib": 2492,
      "asukk": 2493,
      "udut": 2494,
      "mayoritas": 2495,
      "yelengg": 2496,
      "Hist": 2497,
      "Milit": 2498,
      "asukkan": 2499,
      "enyelengg": 2500,
      "faktor": 2501,
      "Unite": 2502,
      "arjana": 2503,
      "drog": 2504,
      "ungkap": 2505,
      "peningk": 2506,
      "Ton": 2507,
      "adiy": 2508,
      "ersih": 2509,
      "Lit": 2510,
      "umsi": 2511,
      "peningkat": 2512,
      "enjual": 2513,
      "Ass": 2514,
      "arw": 2515,
      "korban": 2516,
      "Filip": 2517,
      "pertandi": 2518,
      "Transp": 2519,
      "United": 2520,
      "Lang": 2521,
      "erapi": 2522,
      "estival": 2523,
      "pertandin": 2524,
      "pertanding": 2525,
      "Pek": 2526,
      "bertahan": 2527,
      "oup": 2528,
      "Pengharga": 2529,
      "ederhana": 2530,
      "Penghargaan": 2531,
      "elli": 2532,
      "oon": 2533,
      "embagian": 2534,
      "peningkatan": 2535,
      "unci": 2536,
      "Argentina": 2537,
      "engurangi": 2538,
      "dahan": 2539,
      "atematika": 2540,
      "untut": 2541,
      "ajelis": 2542,
      "orbi": 2543,
      "urnal": 2544,
      "Eks": 2545,
      "flik": 2546,
      "Åį": 2547,
      "enentuk": 2548,
      "andatangani": 2549,
      "unjungi": 2550,
      "enentukan": 2551,
      "Portugis": 2552,
      "oordin": 2553,
      "Alex": 2554,
      "emal": 2555,
      "erbasis": 2556,
      "etia": 2557,
      "Mik": 2558,
      "elaksana": 2559,
      "etisi": 2560,
      "permainan": 2561,
      "obert": 2562,
      "pertandingan": 2563,
      "Berikut": 2564,
      "oeh": 2565,
      "mengurangi": 2566,
      "ursi": 2567,
      "ajalah": 2568,
      "Bog": 2569,
      "yelesaikan": 2570,
      "peringk": 2571,
      "amkan": 2572,
      "enyelesaikan": 2573,
      "arai": 2574,
      "ebangsa": 2575,
      "elibat": 2576,
      "peringkat": 2577,
      "adiyah": 2578,
      "menim": 2579,
      "erapk": 2580,
      "ois": 2581,
      "Utama": 2582,
      "Robert": 2583,
      "orr": 2584,
      "laporan": 2585,
      "Bangk": 2586,
      "menyelesaikan": 2587,
      "SE": 2588,
      "menentukan": 2589,
      "ebangsaan": 2590,
      "pejabat": 2591,
      "ajukan": 2592,
      "Akhir": 2593,
      "App": 2594,
      "osh": 2595,
      "ositi": 2596,
      "erapkan": 2597,
      "ffic": 2598,
      "pegunungan": 2599,
      "Bis": 2600,
      "Istil": 2601,
      "drogen": 2602,
      "Istilah": 2603,
      "Masjid": 2604,
      "berbasis": 2605,
      "mahasiswa": 2606,
      "Ord": 2607,
      "orkan": 2608,
      "Puti": 2609,
      "outh": 2610,
      "puran": 2611,
      "emog": 2612,
      "perbatasan": 2613,
      "ahlawan": 2614,
      "ajang": 2615,
      "olin": 2616,
      "uck": 2617,
      "Transport": 2618,
      "katakan": 2619,
      "keempat": 2620,
      "Tal": 2621,
      "emasuki": 2622,
      "ersenjata": 2623,
      "ampuran": 2624,
      "erasikan": 2625,
      "ebutuhan": 2626,
      "fasilitas": 2627,
      "enderita": 2628,
      "Stan": 2629,
      "usal": 2630,
      "ucap": 2631,
      "uskup": 2632,
      "Taiw": 2633,
      "masjid": 2634,
      "oral": 2635,
      "bulkan": 2636,
      "Tangg": 2637,
      "praktik": 2638,
      "doks": 2639,
      "reaksi": 2640,
      "text": 2641,
      "Taiwan": 2642,
      "yot": 2643,
      "erfungsi": 2644,
      "mengangk": 2645,
      "operasikan": 2646,
      "Eli": 2647,
      "ebon": 2648,
      "opis": 2649,
      "Irl": 2650,
      "Istana": 2651,
      "Filipi": 2652,
      "Irlan": 2653,
      "Irlandi": 2654,
      "Irlandia": 2655,
      "pabrik": 2656,
      "urr": 2657,
      "menyebutk": 2658,
      "menyebutkan": 2659,
      "Terminal": 2660,
      "uris": 2661,
      "Muhammadiyah": 2662,
      "enekan": 2663,
      "berbi": 2664,
      "Nik": 2665,
      "American": 2666,
      "astik": 2667,
      "Awal": 2668,
      "ajapah": 2669,
      "ajapahi": 2670,
      "ajapahit": 2671,
      "esal": 2672,
      "akim": 2673,
      "dokum": 2674,
      "Komis": 2675,
      "dungi": 2676,
      "mendorong": 2677,
      "Stal": 2678,
      "elibatk": 2679,
      "elibatkan": 2680,
      "berfungsi": 2681,
      "enguasai": 2682,
      "orbit": 2683,
      "afs": 2684,
      "Imam": 2685,
      "Majapahit": 2686,
      "kemenangan": 2687,
      "engakibatkan": 2688,
      "mengakibatkan": 2689,
      "agasan": 2690,
      "Kir": 2691,
      "erkaitan": 2692,
      "menguasai": 2693,
      "vokal": 2694,
      "erusia": 2695,
      "Alam": 2696,
      "eritakan": 2697,
      "Tingk": 2698,
      "berusia": 2699,
      "melibatkan": 2700,
      "omersi": 2701,
      "enm": 2702,
      "Atl": 2703,
      "Walaup": 2704,
      "Walaupun": 2705,
      "dekatan": 2706,
      "aging": 2707,
      "usion": 2708,
      "Soeh": 2709,
      "mencoba": 2710,
      "Mit": 2711,
      "membuka": 2712,
      "edalam": 2713,
      "erpendapat": 2714,
      "Soekarn": 2715,
      "berpendapat": 2716,
      "Palestin": 2717,
      "ebali": 2718,
      "Olim": 2719,
      "Prin": 2720,
      "Olimp": 2721,
      "usantar": 2722,
      "usantara": 2723,
      "ayi": 2724,
      "sayap": 2725,
      "ahal": 2726,
      "Hil": 2727,
      "karakter": 2728,
      "Jati": 2729,
      "curkan": 2730,
      "ederal": 2731,
      "//": 2732,
      "Musim": 2733,
      "artiny": 2734,
      "artinya": 2735,
      "delapan": 2736,
      "ÙĦ": 2737,
      "Pertan": 2738,
      "penjual": 2739,
      "ancurkan": 2740,
      "empeng": 2741,
      "omersial": 2742,
      "sudut": 2743,
      "elewati": 2744,
      "harap": 2745,
      "etempat": 2746,
      "Colleg": 2747,
      "entit": 2748,
      "Swi": 2749,
      "tunjuk": 2750,
      "tersedia": 2751,
      "melanj": 2752,
      "melewati": 2753,
      "melanjut": 2754,
      "ebalik": 2755,
      "Terj": 2756,
      "sederhana": 2757,
      "ajik": 2758,
      "komponen": 2759,
      "Militer": 2760,
      "melanjutk": 2761,
      "melanjutkan": 2762,
      "perlukan": 2763,
      "adiah": 2764,
      "kebutuhan": 2765,
      "Tap": 2766,
      "epercaya": 2767,
      "Filipin": 2768,
      "emon": 2769,
      "Aki": 2770,
      "abili": 2771,
      "erencana": 2772,
      "College": 2773,
      "Tetap": 2774,
      "urai": 2775,
      "erkan": 2776,
      "Buki": 2777,
      "Kabinet": 2778,
      "setempat": 2779,
      "tarnya": 2780,
      "ugh": 2781,
      "ertanggung": 2782,
      "eduduk": 2783,
      "ersal": 2784,
      "eij": 2785,
      "matahari": 2786,
      "final": 2787,
      "Marin": 2788,
      "Filipina": 2789,
      "Divi": 2790,
      "Stali": 2791,
      "Stalin": 2792,
      "suci": 2793,
      "erasan": 2794,
      "enentang": 2795,
      "ditunjuk": 2796,
      "erlawan": 2797,
      "oeing": 2798,
      "satelit": 2799,
      "diperlukan": 2800,
      "ustakaan": 2801,
      "emikiran": 2802,
      "Olimpi": 2803,
      "edudukan": 2804,
      "menyim": 2805,
      "Wisat": 2806,
      "memasuki": 2807,
      "tumbuhan": 2808,
      "Soehart": 2809,
      "Boeing": 2810,
      "Bukit": 2811,
      "Soeharto": 2812,
      "golongan": 2813,
      "adiri": 2814,
      "Thail": 2815,
      "Thailan": 2816,
      "Thailand": 2817,
      "naskah": 2818,
      "Palestina": 2819,
      "erlawanan": 2820,
      "pesisir": 2821,
      "komersial": 2822,
      "oft": 2823,
      "ompetisi": 2824,
      "Akt": 2825,
      "Kesehatan": 2826,
      "partikel": 2827,
      "ubang": 2828,
      "Olimpia": 2829,
      "://": 2830,
      "demokr": 2831,
      "itarnya": 2832,
      "esion": 2833,
      "penang": 2834,
      "esim": 2835,
      "entikan": 2836,
      "menghadapi": 2837,
      "Olimpiad": 2838,
      "Gh": 2839,
      "Cap": 2840,
      "peroleh": 2841,
      "Armenia": 2842,
      "pendapatan": 2843,
      "Olimpiade": 2844,
      "kendali": 2845,
      "erkon": 2846,
      "UU": 2847,
      "sastra": 2848,
      "Thom": 2849,
      "etani": 2850,
      "á¹": 2851,
      "Mong": 2852,
      "filsa": 2853,
      "filsaf": 2854,
      "Jenis": 2855,
      "dasan": 2856,
      "idrogen": 2857,
      "perhati": 2858,
      "ernal": 2859,
      "pendukung": 2860,
      "ebunan": 2861,
      "ations": 2862,
      "yth": 2863,
      "kolonial": 2864,
      "Bai": 2865,
      "Edi": 2866,
      "Hut": 2867,
      "Up": 2868,
      "Aj": 2869,
      "erkebunan": 2870,
      "Khal": 2871,
      "engenal": 2872,
      "urc": 2873,
      "filsafat": 2874,
      "aseh": 2875,
      "sulit": 2876,
      "tahap": 2877,
      "ekitarnya": 2878,
      "sekitarnya": 2879,
      "oit": 2880,
      "erapan": 2881,
      "berhubungan": 2882,
      "menetapk": 2883,
      "entitas": 2884,
      "PM": 2885,
      "Yoh": 2886,
      "empelajari": 2887,
      "Jalur": 2888,
      "epercayaan": 2889,
      "menetapkan": 2890,
      "Won": 2891,
      "menit": 2892,
      "Tiga": 2893,
      "Pertempuran": 2894,
      "kepercayaan": 2895,
      "ux": 2896,
      "Produk": 2897,
      "Sip": 2898,
      "Wisata": 2899,
      "magn": 2900,
      "menyimp": 2901,
      "Perwakilan": 2902,
      "Anti": 2903,
      "erganti": 2904,
      "obatan": 2905,
      "Hitl": 2906,
      "mempelajari": 2907,
      "erka": 2908,
      "ewakil": 2909,
      "Hitler": 2910,
      "Pemain": 2911,
      "positi": 2912,
      "asari": 2913,
      "ersek": 2914,
      "Wind": 2915,
      "Zho": 2916,
      "enutup": 2917,
      "Pasukan": 2918,
      "sebagaim": 2919,
      "Yohan": 2920,
      "sebagaiman": 2921,
      "erusal": 2922,
      "Misal": 2923,
      "engkapi": 2924,
      "hidrogen": 2925,
      "Rai": 2926,
      "Zi": 2927,
      "berkaitan": 2928,
      "fal": 2929,
      "sebagaimana": 2930,
      "erusalem": 2931,
      "mengali": 2932,
      "PE": 2933,
      "ebebasan": 2934,
      "Emp": 2935,
      "Bogor": 2936,
      "Soekarno": 2937,
      "diub": 2938,
      "ewakili": 2939,
      "diubah": 2940,
      "pemberontakan": 2941,
      "enakluk": 2942,
      "asakan": 2943,
      "organism": 2944,
      "eiri": 2945,
      "Zhou": 2946,
      "udh": 2947,
      "dikatakan": 2948,
      "abs": 2949,
      "ervi": 2950,
      "awarkan": 2951,
      "enil": 2952,
      "Suci": 2953,
      "uap": 2954,
      "Bidang": 2955,
      "menimbulkan": 2956,
      "engetahui": 2957,
      "Sekretari": 2958,
      "Form": 2959,
      "gagasan": 2960,
      "Appl": 2961,
      "empati": 2962,
      "erpustakaan": 2963,
      "Wali": 2964,
      "mewakili": 2965,
      "Saint": 2966,
      "etang": 2967,
      "arjo": 2968,
      "odoks": 2969,
      "sebutan": 2970,
      "organisme": 2971,
      "elebih": 2972,
      "engkl": 2973,
      "Nic": 2974,
      "adion": 2975,
      "Frank": 2976,
      "unisi": 2977,
      "ropis": 2978,
      "omal": 2979,
      "China": 2980,
      "Divis": 2981,
      "Nusantara": 2982,
      "Divisi": 2983,
      "yemb": 2984,
      "embutuhkan": 2985,
      "zink": 2986,
      "Tingkat": 2987,
      "eirin": 2988,
      "multi": 2989,
      "enmark": 2990,
      "Tetapi": 2991,
      "Pot": 2992,
      "Chan": 2993,
      "disebutk": 2994,
      "disebutkan": 2995,
      "Gerakan": 2996,
      "pertahanan": 2997,
      "Wir": 2998,
      "eiring": 2999,
      "erhit": 3000,
      "kursi": 3001,
      "membutuhkan": 3002,
      "yawan": 3003,
      "Ort": 3004,
      "ajian": 3005,
      "Transportasi": 3006,
      "Sastra": 3007,
      "Uts": 3008,
      "asitas": 3009,
      "eiji": 3010,
      "Denmark": 3011,
      "Setiap": 3012,
      "laksan": 3013,
      "memakai": 3014,
      "akut": 3015,
      "eil": 3016,
      "erekon": 3017,
      "Vic": 3018,
      "ashin": 3019,
      "emimpinan": 3020,
      "Ami": 3021,
      "Fri": 3022,
      "Yohanes": 3023,
      "Ã¤": 3024,
      "South": 3025,
      "bertanggung": 3026,
      "pemuk": 3027,
      "egan": 3028,
      "menjalank": 3029,
      "esional": 3030,
      "menjalankan": 3031,
      "entifik": 3032,
      "Seperti": 3033,
      "campuran": 3034,
      "dentifik": 3035,
      "omesti": 3036,
      "ecti": 3037,
      "tropis": 3038,
      "atuk": 3039,
      "zinkan": 3040,
      "Aka": 3041,
      "Media": 3042,
      "Kont": 3043,
      "Brig": 3044,
      "argany": 3045,
      "Thomas": 3046,
      "arganya": 3047,
      "Lut": 3048,
      "Rp": 3049,
      "Terbaik": 3050,
      "daging": 3051,
      "fesional": 3052,
      "peral": 3053,
      "Utsm": 3054,
      "Xi": 3055,
      "mengetahui": 3056,
      "Utsman": 3057,
      "Majelis": 3058,
      "Ron": 3059,
      "unuhan": 3060,
      "elon": 3061,
      "embunuhan": 3062,
      "mencat": 3063,
      "fisika": 3064,
      "aduk": 3065,
      "memegang": 3066,
      "akis": 3067,
      "matematika": 3068,
      "opl": 3069,
      "erlebih": 3070,
      "Swedia": 3071,
      "pengik": 3072,
      "Hong": 3073,
      "laksanakan": 3074,
      "mencatat": 3075,
      "merebut": 3076,
      "arth": 3077,
      "entingan": 3078,
      "asr": 3079,
      "ergerakan": 3080,
      "orgi": 3081,
      "emogr": 3082,
      "Islan": 3083,
      "pelaksana": 3084,
      "diproduksi": 3085,
      "Ria": 3086,
      "Harry": 3087,
      "Soci": 3088,
      "ebalikn": 3089,
      "Penc": 3090,
      "Ã¨": 3091,
      "engerti": 3092,
      "ebalikny": 3093,
      "ebaliknya": 3094,
      "egional": 3095,
      "%),": 3096,
      "Jon": 3097,
      "arok": 3098,
      "dilaksanakan": 3099,
      "Vir": 3100,
      "Tari": 3101,
      "erikatan": 3102,
      "esatu": 3103,
      "PN": 3104,
      "Tuj": 3105,
      "arx": 3106,
      "muwan": 3107,
      "ashing": 3108,
      "Count": 3109,
      "eraksi": 3110,
      "lmuwan": 3111,
      "ilmuwan": 3112,
      "ofesional": 3113,
      "estr": 3114,
      "erbany": 3115,
      "erekonomi": 3116,
      "apabila": 3117,
      "erlindungan": 3118,
      "esatuan": 3119,
      "pelatih": 3120,
      "elg": 3121,
      "Kongr": 3122,
      "emogra": 3123,
      "erekonomian": 3124,
      "von": 3125,
      "yasan": 3126,
      "omestik": 3127,
      "ahunan": 3128,
      "uala": 3129,
      "Kis": 3130,
      "Tra": 3131,
      "Misaln": 3132,
      "Misalny": 3133,
      "Misalnya": 3134,
      "ersai": 3135,
      "Gil": 3136,
      "elepon": 3137,
      "ashingt": 3138,
      "ashington": 3139,
      "jarang": 3140,
      "urna": 3141,
      "egisl": 3142,
      "ajahan": 3143,
      "menceg": 3144,
      "Persia": 3145,
      "Marx": 3146,
      "Washington": 3147,
      "Yerusalem": 3148,
      "ketid": 3149,
      "etujui": 3150,
      "Rich": 3151,
      "Komunis": 3152,
      "aterial": 3153,
      "ajurit": 3154,
      "emir": 3155,
      "elapa": 3156,
      "à¤": 3157,
      "parlemen": 3158,
      "abilit": 3159,
      "Akad": 3160,
      "buruk": 3161,
      "menekan": 3162,
      "erib": 3163,
      "Ars": 3164,
      "azh": 3165,
      "jual": 3166,
      "petani": 3167,
      "mengkl": 3168,
      "namakan": 3169,
      "akhiri": 3170,
      "ternal": 3171,
      "orin": 3172,
      "dewan": 3173,
      "efisi": 3174,
      "menduduk": 3175,
      "ertunjuk": 3176,
      "mencegah": 3177,
      "Hot": 3178,
      "keluarkan": 3179,
      "efekti": 3180,
      "ulih": 3181,
      "penjualan": 3182,
      "erbanyak": 3183,
      "boleh": 3184,
      "edir": 3185,
      "Khali": 3186,
      "adri": 3187,
      "ehorm": 3188,
      "erili": 3189,
      "pasangan": 3190,
      "afsi": 3191,
      "ehormat": 3192,
      "Hai": 3193,
      "Hasil": 3194,
      "apasitas": 3195,
      "Abdull": 3196,
      "ehormatan": 3197,
      "epentingan": 3198,
      "untungan": 3199,
      "etnam": 3200,
      "Kimi": 3201,
      "Mai": 3202,
      "ayasan": 3203,
      "majalah": 3204,
      "elilingi": 3205,
      "Tempat": 3206,
      "ology": 3207,
      "enaik": 3208,
      "osn": 3209,
      "Vietnam": 3210,
      "Swis": 3211,
      "Abdullah": 3212,
      "afsir": 3213,
      "dopsi": 3214,
      "ambangan": 3215,
      "oversi": 3216,
      "engendali": 3217,
      "Maluk": 3218,
      "Kematian": 3219,
      "edagang": 3220,
      "diduk": 3221,
      "dikeluarkan": 3222,
      "emografi": 3223,
      "menduduki": 3224,
      "Swiss": 3225,
      "oot": 3226,
      "roversi": 3227,
      "enuhnya": 3228,
      "aksim": 3229,
      "Malik": 3230,
      "Apple": 3231,
      "pasc": 3232,
      "ekerasan": 3233,
      "omposisi": 3234,
      "Pangl": 3235,
      "opti": 3236,
      "didukung": 3237,
      "Kerj": 3238,
      "Arc": 3239,
      "Ming": 3240,
      "positif": 3241,
      "kepentingan": 3242,
      "serupa": 3243,
      "eali": 3244,
      "Rh": 3245,
      "ugal": 3246,
      "Vis": 3247,
      "ambangk": 3248,
      "definisik": 3249,
      "perhatian": 3250,
      "definisikan": 3251,
      "King": 3252,
      "Lal": 3253,
      "kekerasan": 3254,
      "peringat": 3255,
      "Komit": 3256,
      "Putri": 3257,
      "Micha": 3258,
      "ambangkan": 3259,
      "Dok": 3260,
      "erair": 3261,
      "Penggun": 3262,
      "Maluku": 3263,
      "Group": 3264,
      "edalaman": 3265,
      "enilai": 3266,
      "Keuangan": 3267,
      "epemimpinan": 3268,
      "kepemimpinan": 3269,
      "Ann": 3270,
      "Awards": 3271,
      "erilis": 3272,
      "Pengguna": 3273,
      "dinamakan": 3274,
      "emproduk": 3275,
      "emproduks": 3276,
      "emproduksi": 3277,
      "Kedokteran": 3278,
      "Pasifik": 3279,
      "Kongres": 3280,
      "Pangli": 3281,
      "menentang": 3282,
      "omali": 3283,
      "Panglim": 3284,
      "pemikiran": 3285,
      "esempat": 3286,
      "Finl": 3287,
      "elanggar": 3288,
      "memproduksi": 3289,
      "usin": 3290,
      "ermint": 3291,
      "Panglima": 3292,
      "esempatan": 3293,
      "eorgi": 3294,
      "Ã£": 3295,
      "dram": 3296,
      "Cina": 3297,
      "dentifikasi": 3298,
      "adopsi": 3299,
      "epenuhnya": 3300,
      "komunis": 3301,
      "akhl": 3302,
      "erminta": 3303,
      "ermintaan": 3304,
      "Georgi": 3305,
      "Pertahanan": 3306,
      "enyemb": 3307,
      "SMK": 3308,
      "Nort": 3309,
      "perkebunan": 3310,
      "sepenuhnya": 3311,
      "tentuk": 3312,
      "enian": 3313,
      "Maria": 3314,
      "Komite": 3315,
      "abh": 3316,
      "Finlan": 3317,
      "tentukan": 3318,
      "kebebasan": 3319,
      "Minang": 3320,
      "Windows": 3321,
      "from": 3322,
      "Pertani": 3323,
      "azhab": 3324,
      "Kuala": 3325,
      "qi": 3326,
      "empa": 3327,
      "enempati": 3328,
      "olitan": 3329,
      "atali": 3330,
      "berbic": 3331,
      "peringatan": 3332,
      "Pertanian": 3333,
      "berbicar": 3334,
      "opik": 3335,
      "elaksanakan": 3336,
      "berbicara": 3337,
      "menempati": 3338,
      "ervariasi": 3339,
      "diperoleh": 3340,
      "Iran": 3341,
      "Kapal": 3342,
      "Histor": 3343,
      "BR": 3344,
      "CE": 3345,
      "bervariasi": 3346,
      "juluk": 3347,
      "pembalap": 3348,
      "rofesional": 3349,
      "enempat": 3350,
      "PKI": 3351,
      "Christi": 3352,
      "History": 3353,
      "Ukr": 3354,
      "paknya": 3355,
      "wajib": 3356,
      "ditentukan": 3357,
      "ampaknya": 3358,
      "ersemb": 3359,
      "uct": 3360,
      "Ã¼r": 3361,
      "emaink": 3362,
      "Buku": 3363,
      "owsp": 3364,
      "emainkan": 3365,
      "owspan": 3366,
      "Dek": 3367,
      "Pariw": 3368,
      "erilak": 3369,
      "efektif": 3370,
      "profesional": 3371,
      "embok": 3372,
      "oront": 3373,
      "Alexan": 3374,
      "eijin": 3375,
      "Pariwi": 3376,
      "Pariwis": 3377,
      "Pariwisat": 3378,
      "memainkan": 3379,
      "tahunan": 3380,
      "osari": 3381,
      "able": 3382,
      "Finlandi": 3383,
      "Pariwisata": 3384,
      "ertari": 3385,
      "Arj": 3386,
      "Micr": 3387,
      "Fisik": 3388,
      "rowspan": 3389,
      "Finlandia": 3390,
      "komand": 3391,
      "umani": 3392,
      "memerintahk": 3393,
      "Ukrai": 3394,
      "memerintahkan": 3395,
      "Ukrain": 3396,
      "Saudi": 3397,
      "pengadilan": 3398,
      "menjual": 3399,
      "Michael": 3400,
      "ertai": 3401,
      "Lis": 3402,
      "umpulkan": 3403,
      "Ei": 3404,
      "Nap": 3405,
      "Pakis": 3406,
      "kolek": 3407,
      "kesal": 3408,
      "emperkenalkan": 3409,
      "elektroni": 3410,
      "aspek": 3411,
      "melindungi": 3412,
      "ahasia": 3413,
      "elari": 3414,
      "ebs": 3415,
      "asehi": 3416,
      "Tub": 3417,
      "egislati": 3418,
      "Mosk": 3419,
      "Ortodoks": 3420,
      "eijing": 3421,
      "Beijing": 3422,
      "opolitan": 3423,
      "Musik": 3424,
      "kualitas": 3425,
      "memperkenalkan": 3426,
      "pengal": 3427,
      "etal": 3428,
      "pengikut": 3429,
      "ersain": 3430,
      "ersaing": 3431,
      "tergantung": 3432,
      "erkis": 3433,
      "berkis": 3434,
      "elima": 3435,
      "Pelabuhan": 3436,
      "esenian": 3437,
      "obl": 3438,
      "Pangk": 3439,
      "Shin": 3440,
      "egislatif": 3441,
      "Serbi": 3442,
      "pedagang": 3443,
      "dral": 3444,
      "Akib": 3445,
      "fg": 3446,
      "melaksanakan": 3447,
      "enawarkan": 3448,
      "Konstan": 3449,
      "UK": 3450,
      "domestik": 3451,
      "Ä«": 3452,
      "engunjungi": 3453,
      "Nig": 3454,
      "Putih": 3455,
      "ajikan": 3456,
      "osni": 3457,
      "erilaku": 3458,
      "gubernur": 3459,
      "enew": 3460,
      "Aba": 3461,
      "Keput": 3462,
      "Vin": 3463,
      "melint": 3464,
      "Tanggal": 3465,
      "menawarkan": 3466,
      "akht": 3467,
      "odin": 3468,
      "ayangk": 3469,
      "mengangkat": 3470,
      "polisi": 3471,
      "peraturan": 3472,
      "esik": 3473,
      "sebagain": 3474,
      "Est": 3475,
      "Kelompok": 3476,
      "TK": 3477,
      "enerbitkan": 3478,
      "menerbitkan": 3479,
      "Akan": 3480,
      "astron": 3481,
      "mengunjungi": 3482,
      "Isa": 3483,
      "ercep": 3484,
      "Meks": 3485,
      "elektronik": 3486,
      "Serbia": 3487,
      "Meksi": 3488,
      "Ross": 3489,
      "permintaan": 3490,
      "sumsi": 3491,
      "enandatangani": 3492,
      "Him": 3493,
      "mengalir": 3494,
      "Meksik": 3495,
      "Meksiko": 3496,
      "didasarkan": 3497,
      "ajin": 3498,
      "Somali": 3499,
      "menandatangani": 3500,
      "ebaskan": 3501,
      "egawai": 3502,
      "osl": 3503,
      "etangg": 3504,
      "bergantung": 3505,
      "onsumsi": 3506,
      "Ã©r": 3507,
      "Keputusan": 3508,
      "sebagainy": 3509,
      "Bentuk": 3510,
      "agon": 3511,
      "dwi": 3512,
      "peralat": 3513,
      "Akademi": 3514,
      "sebagainya": 3515,
      "Fai": 3516,
      "pembunuhan": 3517,
      "pergerakan": 3518,
      "mengklai": 3519,
      "mengklaim": 3520,
      "Festival": 3521,
      "person": 3522,
      "tulang": 3523,
      "erserikatan": 3524,
      "eriks": 3525,
      "zona": 3526,
      "erairan": 3527,
      "Ùħ": 3528,
      "mengis": 3529,
      "Utsmani": 3530,
      "efisien": 3531,
      "Ukraina": 3532,
      "rajurit": 3533,
      "ason": 3534,
      "Sali": 3535,
      "pelaksanaan": 3536,
      "ertunjukan": 3537,
      "peralatan": 3538,
      "Mahasiswa": 3539,
      "telepon": 3540,
      "Grup": 3541,
      "Sci": 3542,
      "terbanyak": 3543,
      "usakan": 3544,
      "Konsti": 3545,
      "Penggunaan": 3546,
      "kesempatan": 3547,
      "puisi": 3548,
      "aksas": 3549,
      "Eti": 3550,
      "Konstit": 3551,
      "Bosni": 3552,
      "desk": 3553,
      "euntungan": 3554,
      "urne": 3555,
      "berkisar": 3556,
      "aksasa": 3557,
      "sejarawan": 3558,
      "Cirebon": 3559,
      "Hubungan": 3560,
      "Rin": 3561,
      "Informasi": 3562,
      "Riau": 3563,
      "orw": 3564,
      "Ams": 3565,
      "elaink": 3566,
      "orsi": 3567,
      "uling": 3568,
      "elainkan": 3569,
      "makna": 3570,
      "usic": 3571,
      "Lingk": 3572,
      "Demografi": 3573,
      "etek": 3574,
      "etujuan": 3575,
      "Ã£o": 3576,
      "akhluk": 3577,
      "Abad": 3578,
      "melainkan": 3579,
      "oja": 3580,
      "Dai": 3581,
      "Log": 3582,
      "Maskapai": 3583,
      "Martin": 3584,
      "ategis": 3585,
      "paksa": 3586,
      "prajurit": 3587,
      "etk": 3588,
      "âĢĺ": 3589,
      "amali": 3590,
      "Pakist": 3591,
      "ercepat": 3592,
      "Belg": 3593,
      "Gon": 3594,
      "eit": 3595,
      "Portugal": 3596,
      "Ã¡n": 3597,
      "urakarta": 3598,
      "asihat": 3599,
      "BM": 3600,
      "Kemerdekaan": 3601,
      "Surakarta": 3602,
      "ojo": 3603,
      "Bosnia": 3604,
      "kompetisi": 3605,
      "Emi": 3606,
      "Luth": 3607,
      "Kimia": 3608,
      "Pakistan": 3609,
      "Pengadilan": 3610,
      "berlan": 3611,
      "Song": 3612,
      "Akibat": 3613,
      "PL": 3614,
      "ropolitan": 3615,
      "olr": 3616,
      "dapt": 3617,
      "opr": 3618,
      "terjadin": 3619,
      "terjadiny": 3620,
      "terjadinya": 3621,
      "pakaian": 3622,
      "Penerbangan": 3623,
      "Olahraga": 3624,
      "Cint": 3625,
      "eniman": 3626,
      "Atlan": 3627,
      "Atlant": 3628,
      "lengkapi": 3629,
      "maksim": 3630,
      "erusakan": 3631,
      "murni": 3632,
      "perkenalkan": 3633,
      "redit": 3634,
      "atw": 3635,
      "etropolitan": 3636,
      "valu": 3637,
      "North": 3638,
      "material": 3639,
      "ocok": 3640,
      "Komisi": 3641,
      "Pegunungan": 3642,
      "akass": 3643,
      "omot": 3644,
      "Prix": 3645,
      "eingi": 3646,
      "Putra": 3647,
      "eriksa": 3648,
      "eingin": 3649,
      "usunan": 3650,
      "Aks": 3651,
      "Georgia": 3652,
      "Hasan": 3653,
      "reformasi": 3654,
      "enurunan": 3655,
      "Bekasi": 3656,
      "Sekretaris": 3657,
      "Parlemen": 3658,
      "undi": 3659,
      "ompan": 3660,
      "Ahl": 3661,
      "menangk": 3662,
      "Offic": 3663,
      "carkan": 3664,
      "elik": 3665,
      "mencet": 3666,
      "Arjun": 3667,
      "mengenal": 3668,
      "emec": 3669,
      "akhta": 3670,
      "Perserikatan": 3671,
      "gambarkan": 3672,
      "terka": 3673,
      "enap": 3674,
      "Bari": 3675,
      "Holl": 3676,
      "kapasitas": 3677,
      "engut": 3678,
      "Kehidupan": 3679,
      "ourne": 3680,
      "ÙĬ": 3681,
      "diperkenalkan": 3682,
      "ersetujuan": 3683,
      "organik": 3684,
      "Adip": 3685,
      "Keju": 3686,
      "akassar": 3687,
      "Bulan": 3688,
      "hadis": 3689,
      "luncurkan": 3690,
      "elahan": 3691,
      "ewajib": 3692,
      "pengang": 3693,
      "perlindungan": 3694,
      "osil": 3695,
      "ublic": 3696,
      "Makassar": 3697,
      "dijual": 3698,
      "ompi": 3699,
      "Ism": 3700,
      "Bim": 3701,
      "dokumen": 3702,
      "atap": 3703,
      "dilengkapi": 3704,
      "etim": 3705,
      "Plan": 3706,
      "Seh": 3707,
      "usulkan": 3708,
      "ersegi": 3709,
      "artu": 3710,
      "eristik": 3711,
      "Johan": 3712,
      "Selanj": 3713,
      "Richar": 3714,
      "einginan": 3715,
      "Selanjut": 3716,
      "Cik": 3717,
      "Selandi": 3718,
      "Selandia": 3719,
      "elambangkan": 3720,
      "Global": 3721,
      "Award": 3722,
      "Selanjutn": 3723,
      "Selanjutny": 3724,
      "Selanjutnya": 3725,
      "Ani": 3726,
      "Luther": 3727,
      "melep": 3728,
      "makhluk": 3729,
      "Bill": 3730,
      "digambarkan": 3731,
      "oria": 3732,
      "fre": 3733,
      "olisian": 3734,
      "ungkapk": 3735,
      "Fisika": 3736,
      "ungkapkan": 3737,
      "Masehi": 3738,
      "erkot": 3739,
      "Eri": 3740,
      "artisi": 3741,
      "Belgi": 3742,
      "amalia": 3743,
      "Mass": 3744,
      "dentitas": 3745,
      "merilis": 3746,
      "tegr": 3747,
      "selengg": 3748,
      "etakan": 3749,
      "Yayasan": 3750,
      "orup": 3751,
      "fig": 3752,
      "olia": 3753,
      "emesta": 3754,
      "ertulis": 3755,
      "pemuki": 3756,
      "Amst": 3757,
      "emerlukan": 3758,
      "engakhiri": 3759,
      "elir": 3760,
      "Utsmaniy": 3761,
      "erkota": 3762,
      "selenggarakan": 3763,
      "pemukim": 3764,
      "Utsmaniyah": 3765,
      "Pembagian": 3766,
      "perwakilan": 3767,
      "ebsi": 3768,
      "Sap": 3769,
      "raksasa": 3770,
      "diluncurkan": 3771,
      "ayangan": 3772,
      "Skot": 3773,
      "Pondok": 3774,
      "etidaknya": 3775,
      "Dhar": 3776,
      "ersekut": 3777,
      "berganti": 3778,
      "memerlukan": 3779,
      "rasasti": 3780,
      "prasasti": 3781,
      "regional": 3782,
      "Bib": 3783,
      "erci": 3784,
      "pendudukn": 3785,
      "Ori": 3786,
      "odit": 3787,
      "erkotaan": 3788,
      "ebsit": 3789,
      "pendudukny": 3790,
      "penduduknya": 3791,
      "mengakhiri": 3792,
      "osep": 3793,
      "perjuangan": 3794,
      "sosiali": 3795,
      "Hing": 3796,
      "Gir": 3797,
      "Cinta": 3798,
      "melambangkan": 3799,
      "endang": 3800,
      "esifik": 3801,
      "Aris": 3802,
      "Komando": 3803,
      "Konstant": 3804,
      "ersekutu": 3805,
      "Matahari": 3806,
      "persegi": 3807,
      "Tir": 3808,
      "menghancurkan": 3809,
      "frek": 3810,
      "Skotl": 3811,
      "Skotlan": 3812,
      "Skotlandi": 3813,
      "Skotlandia": 3814,
      "Rang": 3815,
      "embap": 3816,
      "Domi": 3817,
      "pulang": 3818,
      "Ð¾": 3819,
      "adapt": 3820,
      "asyi": 3821,
      "Ris": 3822,
      "Hingg": 3823,
      "uarganya": 3824,
      "eluarganya": 3825,
      "Malak": 3826,
      "Micros": 3827,
      "emek": 3828,
      "pengalam": 3829,
      "sosialis": 3830,
      "freku": 3831,
      "endekatan": 3832,
      "eyakinan": 3833,
      "terminal": 3834,
      "diselenggarakan": 3835,
      "memanf": 3836,
      "Hingga": 3837,
      "frekuen": 3838,
      "memanfa": 3839,
      "frekuens": 3840,
      "memanfaat": 3841,
      "frekuensi": 3842,
      "memanfaatk": 3843,
      "memanfaatkan": 3844,
      "Jl": 3845,
      "Keluarga": 3846,
      "empi": 3847,
      "Malaka": 3848,
      "ãĥ": 3849,
      "Miss": 3850,
      "ebsite": 3851,
      "legislatif": 3852,
      "ntegr": 3853,
      "setia": 3854,
      "Franci": 3855,
      "''": 3856,
      "Afg": 3857,
      "Wang": 3858,
      "meyakin": 3859,
      "mengut": 3860,
      "usuhan": 3861,
      "erlakukan": 3862,
      "awali": 3863,
      "ayangkan": 3864,
      "Music": 3865,
      "merdeka": 3866,
      "perairan": 3867,
      "troversi": 3868,
      "Usk": 3869,
      "oseph": 3870,
      "durkan": 3871,
      "masukkan": 3872,
      "emangat": 3873,
      "bersenjata": 3874,
      "keuntungan": 3875,
      "pesat": 3876,
      "rahasia": 3877,
      "ontroversi": 3878,
      "umm": 3879,
      "ewenang": 3880,
      "Mir": 3881,
      "Hij": 3882,
      "Airw": 3883,
      "nasionali": 3884,
      "oshi": 3885,
      "Stand": 3886,
      "Belgia": 3887,
      "larut": 3888,
      "menempat": 3889,
      "arenakan": 3890,
      "karenakan": 3891,
      "emui": 3892,
      "Vil": 3893,
      "Konstanti": 3894,
      "kontroversi": 3895,
      "tampaknya": 3896,
      "Uskup": 3897,
      "Peraturan": 3898,
      "ertut": 3899,
      "oson": 3900,
      "erikanan": 3901,
      "perti": 3902,
      "pertunjukan": 3903,
      "obot": 3904,
      "Wik": 3905,
      "Institute": 3906,
      "Arjuna": 3907,
      "nasionalis": 3908,
      "menempatk": 3909,
      "menempatkan": 3910,
      "ŃĲ": 3911,
      "olri": 3912,
      "Amster": 3913,
      "Amsterd": 3914,
      "Amsterdam": 3915,
      "Pemilihan": 3916,
      "Polisi": 3917,
      "ÙĪ": 3918,
      "Titan": 3919,
      "pengalaman": 3920,
      "Minangk": 3921,
      "Francis": 3922,
      "Airways": 3923,
      "Konstantin": 3924,
      "undurkan": 3925,
      "Microsoft": 3926,
      "Minangkab": 3927,
      "usir": 3928,
      "elig": 3929,
      "foto": 3930,
      "astikan": 3931,
      "kumpulan": 3932,
      "melap": 3933,
      "penurunan": 3934,
      "perkotaan": 3935,
      "Ð°": 3936,
      "empurna": 3937,
      "yair": 3938,
      "Thi": 3939,
      "owl": 3940,
      "Not": 3941,
      "politikus": 3942,
      "Imp": 3943,
      "artisip": 3944,
      "DV": 3945,
      "kesatuan": 3946,
      "erukuran": 3947,
      "berukuran": 3948,
      "Pit": 3949,
      "Eliz": 3950,
      "ediri": 3951,
      "Minangkaba": 3952,
      "Minangkabau": 3953,
      "Sunan": 3954,
      "Nin": 3955,
      "orba": 3956,
      "Milan": 3957,
      "Kerja": 3958,
      "mencetak": 3959,
      "Lai": 3960,
      "Perubahan": 3961,
      "Yon": 3962,
      "anaknya": 3963,
      "olim": 3964,
      "deks": 3965,
      "Joseph": 3966,
      "Sakit": 3967,
      "duhan": 3968,
      "akw": 3969,
      "urnam": 3970,
      "ella": 3971,
      "Hutan": 3972,
      "Domin": 3973,
      "emekar": 3974,
      "Tj": 3975,
      "semesta": 3976,
      "Ã±": 3977,
      "abut": 3978,
      "frastr": 3979,
      "Greg": 3980,
      "emekaran": 3981,
      "dimasukkan": 3982,
      "esepakat": 3983,
      "County": 3984,
      "esepakatan": 3985,
      "Seorang": 3986,
      "engundurkan": 3987,
      "orc": 3988,
      "ompany": 3989,
      "Gorba": 3990,
      "emunc": 3991,
      "ajarkan": 3992,
      "yono": 3993,
      "firm": 3994,
      "Gorbac": 3995,
      "Gorbach": 3996,
      "edatangan": 3997,
      "Anton": 3998,
      "Pont": 3999,
      "Politikus": 4000,
      "Richard": 4001,
      "enyang": 4002,
      "elidi": 4003,
      "abit": 4004,
      "aktis": 4005,
      "demokrasi": 4006,
      "engertian": 4007,
      "Gorbache": 4008,
      "Gorbachev": 4009,
      "otoritas": 4010,
      "ertarik": 4011,
      "berlanj": 4012,
      "kehormatan": 4013,
      "kerusakan": 4014,
      "atalyon": 4015,
      "menjalani": 4016,
      "emiri": 4017,
      "elidik": 4018,
      "Lebih": 4019,
      "keluarganya": 4020,
      "mengundurkan": 4021,
      "perekonomian": 4022,
      "engajukan": 4023,
      "uja": 4024,
      "Atlanti": 4025,
      "figur": 4026,
      "berlanjut": 4027,
      "TE": 4028,
      "hidupn": 4029,
      "hidupny": 4030,
      "Qi": 4031,
      "Ã¢": 4032,
      "Stadion": 4033,
      "penulisan": 4034,
      "ection": 4035,
      "hidupnya": 4036,
      "Ep": 4037,
      "Kediri": 4038,
      "mengajukan": 4039,
      "setidaknya": 4040,
      "sejenis": 4041,
      "dekati": 4042,
      "ebangk": 4043,
      "Smi": 4044,
      "bourne": 4045,
      "esuk": 4046,
      "Konstitusi": 4047,
      "Elizab": 4048,
      "Elizabet": 4049,
      "vr": 4050,
      "asarnya": 4051,
      "Prasasti": 4052,
      "Elizabeth": 4053,
      "Syari": 4054,
      "emelih": 4055,
      "eig": 4056,
      "emilikan": 4057,
      "Lalu": 4058,
      "kesalahan": 4059,
      "Standar": 4060,
      "emelihar": 4061,
      "Jambi": 4062,
      "Pil": 4063,
      "Bla": 4064,
      "Galeri": 4065,
      "Arsi": 4066,
      "Roh": 4067,
      "kelima": 4068,
      "orontal": 4069,
      "orontalo": 4070,
      "Gorontalo": 4071,
      "detik": 4072,
      "ezim": 4073,
      "kuasai": 4074,
      "pew": 4075,
      "agh": 4076,
      "Reformasi": 4077,
      "tandai": 4078,
      "olut": 4079,
      "emisah": 4080,
      "Akhirn": 4081,
      "Akhirny": 4082,
      "Akhirnya": 4083,
      "Corp": 4084,
      "âŃĲ": 4085,
      "engek": 4086,
      "aska": 4087,
      "unjungan": 4088,
      "frastruk": 4089,
      "frastrukt": 4090,
      "Book": 4091,
      "berkon": 4092,
      "tetangg": 4093,
      "emeriksa": 4094,
      "eterangan": 4095,
      "ersent": 4096,
      "osok": 4097,
      "osik": 4098,
      "Biog": 4099,
      "Umar": 4100,
      "Ngawi": 4101,
      "emelihara": 4102,
      "Fal": 4103,
      "Muk": 4104,
      "Pengembangan": 4105,
      "bersih": 4106,
      "versal": 4107,
      "eperangan": 4108,
      "erangg": 4109,
      "Engl": 4110,
      "elarik": 4111,
      "elarikan": 4112,
      "\").": 4113,
      "Oc": 4114,
      "Roman": 4115,
      "eadi": 4116,
      "komposisi": 4117,
      "diduga": 4118,
      "obs": 4119,
      "umpur": 4120,
      "umni": 4121,
      "oritm": 4122,
      "goritm": 4123,
      "fitur": 4124,
      "Sn": 4125,
      "Versi": 4126,
      "rategis": 4127,
      "olm": 4128,
      "Sik": 4129,
      "Iri": 4130,
      "Tuju": 4131,
      "Ð¸": 4132,
      "Ø§ÙĦ": 4133,
      "ervic": 4134,
      "menceritakan": 4135,
      "Abr": 4136,
      "abilitas": 4137,
      "identitas": 4138,
      "jurnal": 4139,
      "melarikan": 4140,
      "trategis": 4141,
      "Ã§": 4142,
      "ditandai": 4143,
      "ersej": 4144,
      "umpai": 4145,
      "Abb": 4146,
      "Phili": 4147,
      "frastruktur": 4148,
      "Tujuan": 4149,
      "Rot": 4150,
      "strategis": 4151,
      "udakan": 4152,
      "yut": 4153,
      "Karier": 4154,
      "Sosiali": 4155,
      "Ã³n": 4156,
      "Terjun": 4157,
      "Pasc": 4158,
      "emeluk": 4159,
      "eluncurkan": 4160,
      "darin": 4161,
      "unisip": 4162,
      "keinginan": 4163,
      "pegawai": 4164,
      "usai": 4165,
      "urm": 4166,
      "erbudakan": 4167,
      "erkosa": 4168,
      "berpin": 4169,
      "unisipal": 4170,
      "ÙĨ": 4171,
      "elbourne": 4172,
      "Melbourne": 4173,
      "olitis": 4174,
      "Nil": 4175,
      "uist": 4176,
      "Äģn": 4177,
      "Biogr": 4178,
      "ersejar": 4179,
      "Sosialis": 4180,
      "ersejarah": 4181,
      "\"),": 4182,
      "mamalia": 4183,
      "meluncurkan": 4184,
      "dapun": 4185,
      "elij": 4186,
      "Chil": 4187,
      "enont": 4188,
      "Moskw": 4189,
      "Ahli": 4190,
      "berpind": 4191,
      "enonton": 4192,
      "Moskwa": 4193,
      "Mesin": 4194,
      "zai": 4195,
      "andasan": 4196,
      "abai": 4197,
      "dwar": 4198,
      "Eksp": 4199,
      "Arist": 4200,
      "berpindah": 4201,
      "kunci": 4202,
      "arek": 4203,
      "ditempat": 4204,
      "ustru": 4205,
      "bayi": 4206,
      "endekati": 4207,
      "orial": 4208,
      "ojon": 4209,
      "Kejuar": 4210,
      "eligi": 4211,
      "artisipasi": 4212,
      "pesifik": 4213,
      "Inc": 4214,
      "ucu": 4215,
      "Kejuara": 4216,
      "Kejuaraan": 4217,
      "terapkan": 4218,
      "dikuasai": 4219,
      "News": 4220,
      "Mati": 4221,
      "Norw": 4222,
      "nternal": 4223,
      "erugi": 4224,
      "asok": 4225,
      "owi": 4226,
      "terjemahan": 4227,
      "pendudukan": 4228,
      "elisi": 4229,
      "internal": 4230,
      "dikarenakan": 4231,
      "ugust": 4232,
      "Ub": 4233,
      "kedudukan": 4234,
      "lubang": 4235,
      "spesifik": 4236,
      "embedakan": 4237,
      "pendirian": 4238,
      "osikan": 4239,
      "Cek": 4240,
      "obin": 4241,
      "opin": 4242,
      "August": 4243,
      "Penulis": 4244,
      "membedakan": 4245,
      "enuntut": 4246,
      "umahan": 4247,
      "harapk": 4248,
      "harapkan": 4249,
      "emberian": 4250,
      "omosikan": 4251,
      "romosikan": 4252,
      "Tib": 4253,
      "uriah": 4254,
      "Abi": 4255,
      "mengizinkan": 4256,
      "benc": 4257,
      "federal": 4258,
      "mendekati": 4259,
      "erahan": 4260,
      "atc": 4261,
      "diyakin": 4262,
      "Dial": 4263,
      "Briti": 4264,
      "Whi": 4265,
      "Britis": 4266,
      "British": 4267,
      "emot": 4268,
      "engej": 4269,
      "ertentang": 4270,
      "Fils": 4271,
      "Pasal": 4272,
      "Ø±": 4273,
      "arahan": 4274,
      "ulut": 4275,
      "estari": 4276,
      "Scienc": 4277,
      "But": 4278,
      "detek": 4279,
      "dasarnya": 4280,
      "gelap": 4281,
      "kebangsaan": 4282,
      "Ùİ": 4283,
      "erbitan": 4284,
      "ectr": 4285,
      "obaan": 4286,
      "oordinat": 4287,
      "Vict": 4288,
      "Philip": 4289,
      "menutup": 4290,
      "odon": 4291,
      "perilaku": 4292,
      "yumb": 4293,
      "diterapkan": 4294,
      "emaksa": 4295,
      "umit": 4296,
      "menganut": 4297,
      "Wiki": 4298,
      "Company": 4299,
      "Kebanyakan": 4300,
      "Paskah": 4301,
      "integr": 4302,
      "penyelengg": 4303,
      "sarjana": 4304,
      "enomi": 4305,
      "awij": 4306,
      "Walt": 4307,
      "Gali": 4308,
      "ucapk": 4309,
      "Produks": 4310,
      "orups": 4311,
      "Smit": 4312,
      "elisih": 4313,
      "ucapkan": 4314,
      "Produksi": 4315,
      "(,": 4316,
      "Suriah": 4317,
      "yelidik": 4318,
      "enahan": 4319,
      "enyumb": 4320,
      "enyelidik": 4321,
      "erbaiki": 4322,
      "mengirimk": 4323,
      "penyelenggar": 4324,
      "mengirimkan": 4325,
      "roit": 4326,
      "seiring": 4327,
      "Angl": 4328,
      "Spi": 4329,
      "Ent": 4330,
      "Dokt": 4331,
      "pasir": 4332,
      "tertulis": 4333,
      "usis": 4334,
      "Komandan": 4335,
      "melintasi": 4336,
      "osla": 4337,
      "orupsi": 4338,
      "GN": 4339,
      "keyakinan": 4340,
      "takhta": 4341,
      "erinc": 4342,
      "abisk": 4343,
      "awatir": 4344,
      "ditempatk": 4345,
      "abiskan": 4346,
      "ditempatkan": 4347,
      "Budi": 4348,
      "Rut": 4349,
      "Zai": 4350,
      "pertany": 4351,
      "France": 4352,
      "eimb": 4353,
      "Hotel": 4354,
      "Dharm": 4355,
      "AK": 4356,
      "Avi": 4357,
      "bup": 4358,
      "kabinet": 4359,
      "menderita": 4360,
      "enerapkan": 4361,
      "doktr": 4362,
      "ycl": 4363,
      "ewajiban": 4364,
      "Bengk": 4365,
      "Sunn": 4366,
      "oasia": 4367,
      "pegang": 4368,
      "elta": 4369,
      "awija": 4370,
      "eimbang": 4371,
      "doktri": 4372,
      "doktrin": 4373,
      "eang": 4374,
      "konsumsi": 4375,
      "seniman": 4376,
      "etroit": 4377,
      "Detroit": 4378,
      "Associ": 4379,
      "Alexand": 4380,
      "diyakini": 4381,
      "Sys": 4382,
      "eduk": 4383,
      "justru": 4384,
      "uduhan": 4385,
      "engoperasikan": 4386,
      "usuk": 4387,
      "Alban": 4388,
      "Kongo": 4389,
      "melaporkan": 4390,
      "Smith": 4391,
      "Adapun": 4392,
      "count": 4393,
      "menerapkan": 4394,
      "mengoperasikan": 4395,
      "diek": 4396,
      "Jin": 4397,
      "TVR": 4398,
      "erbandi": 4399,
      "Arch": 4400,
      "penyelenggara": 4401,
      "erbandin": 4402,
      "erbanding": 4403,
      "HIV": 4404,
      "butuhkan": 4405,
      "Ãł": 4406,
      "à¸": 4407,
      "esungg": 4408,
      "menangan": 4409,
      "Mingg": 4410,
      "Vinc": 4411,
      "bupati": 4412,
      "Alexander": 4413,
      "euskup": 4414,
      "ough": 4415,
      "olusion": 4416,
      "menangani": 4417,
      "euskupan": 4418,
      "Ps": 4419,
      "oyot": 4420,
      "erkurang": 4421,
      "Princ": 4422,
      "Christian": 4423,
      "omoti": 4424,
      "elijen": 4425,
      "erinci": 4426,
      "TVRI": 4427,
      "bersejarah": 4428,
      "mazhab": 4429,
      "perhit": 4430,
      "sambil": 4431,
      "volusion": 4432,
      "emasukkan": 4433,
      "Club": 4434,
      "dieks": 4435,
      "Berlin": 4436,
      "cocok": 4437,
      "evolusion": 4438,
      "engumpulkan": 4439,
      "eic": 4440,
      "enyumbang": 4441,
      "memisah": 4442,
      "persetujuan": 4443,
      "amari": 4444,
      "engungkapkan": 4445,
      "esulit": 4446,
      "Palembang": 4447,
      "emisi": 4448,
      "PDB": 4449,
      "terkadang": 4450,
      "Blac": 4451,
      "mental": 4452,
      "memasukkan": 4453,
      "Ðµ": 4454,
      "Airb": 4455,
      "usisi": 4456,
      "Syst": 4457,
      "esulitan": 4458,
      "Sebelumnya": 4459,
      "kesepakatan": 4460,
      "mengungkapkan": 4461,
      "Ãº": 4462,
      "dioperasikan": 4463,
      "resmik": 4464,
      "adiran": 4465,
      "atukan": 4466,
      "DVD": 4467,
      "Black": 4468,
      "resmikan": 4469,
      "CTV": 4470,
      "XV": 4471,
      "erbal": 4472,
      "Uns": 4473,
      "pemerintahann": 4474,
      "pemerintahanny": 4475,
      "pemerintahannya": 4476,
      "baja": 4477,
      "elia": 4478,
      "atch": 4479,
      "memisahk": 4480,
      "memisahkan": 4481,
      "Resmi": 4482,
      "berkurang": 4483,
      "earch": 4484,
      "perlawanan": 4485,
      "tembok": 4486,
      "osin": 4487,
      "Api": 4488,
      "Titi": 4489,
      "Orde": 4490,
      "menekank": 4491,
      "menekankan": 4492,
      "mengumpulkan": 4493,
      "Final": 4494,
      "yri": 4495,
      "Astr": 4496,
      "adaptasi": 4497,
      "osong": 4498,
      "pahlawan": 4499,
      "ersendiri": 4500,
      "tersendiri": 4501,
      "oil": 4502,
      "peningg": 4503,
      "Perpustakaan": 4504,
      "Keku": 4505,
      "Struk": 4506,
      "ersekutuan": 4507,
      "evolusioner": 4508,
      "Strukt": 4509,
      "Mobil": 4510,
      "opog": 4511,
      "osta": 4512,
      "egiti": 4513,
      "Kisah": 4514,
      "enaikan": 4515,
      "peninggal": 4516,
      "peninggalan": 4517,
      "Sj": 4518,
      "oog": 4519,
      "Konsi": 4520,
      "dwal": 4521,
      "ambatan": 4522,
      "atalis": 4523,
      "Barr": 4524,
      "Toyot": 4525,
      "eneral": 4526,
      "elaut": 4527,
      "Rit": 4528,
      "atalk": 4529,
      "atalkan": 4530,
      "adwal": 4531,
      "basis": 4532,
      "diharapkan": 4533,
      "Bli": 4534,
      "Formul": 4535,
      "Hadiah": 4536,
      "Perkembang": 4537,
      "Pahlawan": 4538,
      "jumpai": 4539,
      "erencanaan": 4540,
      "unisipali": 4541,
      "Penelitian": 4542,
      "oyang": 4543,
      "engobatan": 4544,
      "egia": 4545,
      "Kli": 4546,
      "System": 4547,
      "Rock": 4548,
      "SL": 4549,
      "memaksa": 4550,
      "rezim": 4551,
      "enep": 4552,
      "ulari": 4553,
      "Sekarang": 4554,
      "Cons": 4555,
      "menyimpan": 4556,
      "atwa": 4557,
      "goritme": 4558,
      "unisipalit": 4559,
      "pendekatan": 4560,
      "dibutuhkan": 4561,
      "asim": 4562,
      "ehadiran": 4563,
      "Ston": 4564,
      "ercobaan": 4565,
      "Bangka": 4566,
      "melepaskan": 4567,
      ";\"|": 4568,
      "Ox": 4569,
      "hawatir": 4570,
      "kuit": 4571,
      "diresmikan": 4572,
      "penghasil": 4573,
      "esungguhnya": 4574,
      "bunyi": 4575,
      "mempeng": 4576,
      "reali": 4577,
      "Anal": 4578,
      "menjadikann": 4579,
      "Kutai": 4580,
      "deskr": 4581,
      "Bibl": 4582,
      "ebangki": 4583,
      "Airbus": 4584,
      "mempengar": 4585,
      "menjadikanny": 4586,
      "deskri": 4587,
      "mempengaruh": 4588,
      "menjadikannya": 4589,
      "Karl": 4590,
      "Wakt": 4591,
      "latih": 4592,
      "engep": 4593,
      "ambr": 4594,
      "Kroasia": 4595,
      "berdirin": 4596,
      "ertentangan": 4597,
      "Perkembangan": 4598,
      "ebangkit": 4599,
      "deskrip": 4600,
      "mempengaruhi": 4601,
      "berdiriny": 4602,
      "Kup": 4603,
      "Punc": 4604,
      "duct": 4605,
      "kartu": 4606,
      "yg": 4607,
      "Biasanya": 4608,
      "penyim": 4609,
      "ebangkitan": 4610,
      "berdirinya": 4611,
      "TR": 4612,
      "legal": 4613,
      "pembuka": 4614,
      "pemekaran": 4615,
      "egaskan": 4616,
      "Johann": 4617,
      "enomin": 4618,
      "Formula": 4619,
      "Barb": 4620,
      "Batalyon": 4621,
      "Tegal": 4622,
      "Å«": 4623,
      "aryawan": 4624,
      "Alaska": 4625,
      "Act": 4626,
      "Waktu": 4627,
      "Komunikasi": 4628,
      "gerbang": 4629,
      "tujuk": 4630,
      "agm": 4631,
      "akram": 4632,
      "Albert": 4633,
      "Societ": 4634,
      "penyimp": 4635,
      "erok": 4636,
      "akap": 4637,
      "emenj": 4638,
      "epemilikan": 4639,
      "kepemilikan": 4640,
      "Ath": 4641,
      "enutur": 4642,
      "Bahan": 4643,
      "Bojon": 4644,
      "noritas": 4645,
      "inoritas": 4646,
      "minoritas": 4647,
      "semangat": 4648,
      "ubarkan": 4649,
      "Gib": 4650,
      "aslin": 4651,
      "terbukt": 4652,
      "Struktur": 4653,
      "terbukti": 4654,
      "esimen": 4655,
      "uisti": 4656,
      "Minggu": 4657,
      "tujukan": 4658,
      "Uj": 4659,
      "Î±": 4660,
      "erumahan": 4661,
      "Elek": 4662,
      "perkira": 4663,
      "Demokrat": 4664,
      "pemukiman": 4665,
      "unisipalitas": 4666,
      "Elekt": 4667,
      "perkiraan": 4668,
      "dosa": 4669,
      "pembagian": 4670,
      "raktis": 4671,
      "Sejumlah": 4672,
      "Hall": 4673,
      "enyelenggarakan": 4674,
      "Virg": 4675,
      "Konsil": 4676,
      "Fort": 4677,
      "Nep": 4678,
      "Penyanyi": 4679,
      "landasan": 4680,
      "emulih": 4681,
      "oposisi": 4682,
      "embukt": 4683,
      "uisis": 4684,
      "oali": 4685,
      "Bima": 4686,
      "embukti": 4687,
      "uisisi": 4688,
      "amba": 4689,
      "ÃŃn": 4690,
      "kedatangan": 4691,
      "penderita": 4692,
      "tuntut": 4693,
      "teraksi": 4694,
      "didapat": 4695,
      "odifik": 4696,
      "ualifik": 4697,
      "ursa": 4698,
      "memandang": 4699,
      "pasca": 4700,
      "engeks": 4701,
      "opogr": 4702,
      "Og": 4703,
      "nteraksi": 4704,
      "interaksi": 4705,
      "zt": 4706,
      "fiah": 4707,
      "Wit": 4708,
      "opia": 4709,
      "Cri": 4710,
      "drama": 4711,
      "Konsili": 4712,
      "MÄģ": 4713,
      "bakal": 4714,
      "kesulitan": 4715,
      "menuntut": 4716,
      "pelin": 4717,
      "ãĤ": 4718,
      "ditujukan": 4719,
      "olumb": 4720,
      "Empat": 4721,
      "Khalid": 4722,
      "asliny": 4723,
      "aslinya": 4724,
      "(),": 4725,
      "Got": 4726,
      "Perdagangan": 4727,
      "Polri": 4728,
      "diperintah": 4729,
      "ualang": 4730,
      "Blu": 4731,
      "artika": 4732,
      "memind": 4733,
      "Pangkal": 4734,
      "memindah": 4735,
      "Servic": 4736,
      "jelaskan": 4737,
      "kelapa": 4738,
      "pengertian": 4739,
      "erkal": 4740,
      "Hig": 4741,
      "Wij": 4742,
      "Fron": 4743,
      "munculn": 4744,
      "munculny": 4745,
      "munculnya": 4746,
      "kemiri": 4747,
      "elk": 4748,
      "abib": 4749,
      "Dut": 4750,
      "Tw": 4751,
      "Wari": 4752,
      "pesepak": 4753,
      "umpah": 4754,
      "Newt": 4755,
      "Calvi": 4756,
      "eribu": 4757,
      "Napol": 4758,
      "Vill": 4759,
      "Jang": 4760,
      "perbudakan": 4761,
      "tuduhan": 4762,
      "zm": 4763,
      "erturut": 4764,
      "Sekut": 4765,
      "ualifikasi": 4766,
      "Calvin": 4767,
      "Federal": 4768,
      "kewajiban": 4769,
      "ugosla": 4770,
      "opogra": 4771,
      "Norm": 4772,
      "menyelenggarakan": 4773,
      "pasal": 4774,
      "peperangan": 4775,
      "vs": 4776,
      "Indian": 4777,
      "varian": 4778,
      "pengir": 4779,
      "Atlantik": 4780,
      "enominasi": 4781,
      "Sekutu": 4782,
      "pengiri": 4783,
      "Drs": 4784,
      "agalan": 4785,
      "Front": 4786,
      "kredit": 4787,
      "Gram": 4788,
      "penangk": 4789,
      "ythag": 4790,
      "ythagor": 4791,
      "CN": 4792,
      "Mut": 4793,
      "berturut": 4794,
      "esej": 4795,
      "orog": 4796,
      "esial": 4797,
      "amban": 4798,
      "One": 4799,
      "karakteristik": 4800,
      "Tong": 4801,
      "Marini": 4802,
      "Toyota": 4803,
      "Newton": 4804,
      "Juga": 4805,
      "mengej": 4806,
      "praktis": 4807,
      "amboja": 4808,
      "ertifik": 4809,
      "Alek": 4810,
      "olic": 4811,
      "Lint": 4812,
      "enaklukan": 4813,
      "deteks": 4814,
      "memindahk": 4815,
      "Napole": 4816,
      "deteksi": 4817,
      "memindahkan": 4818,
      "Jap": 4819,
      "Madri": 4820,
      "kesenian": 4821,
      "Ä±": 4822,
      "eruskan": 4823,
      "aporkan": 4824,
      "ertuk": 4825,
      "menggab": 4826,
      "Bangunan": 4827,
      "Dinas": 4828,
      "Massa": 4829,
      "Gregori": 4830,
      "Napoleon": 4831,
      "Aut": 4832,
      "Kamboja": 4833,
      "laporkan": 4834,
      "pemberian": 4835,
      "etw": 4836,
      "ativi": 4837,
      "asalahan": 4838,
      "ermasalahan": 4839,
      "Yugosla": 4840,
      "gempa": 4841,
      "erulang": 4842,
      "menghabiskan": 4843,
      "Tradisi": 4844,
      "Pic": 4845,
      "zir": 4846,
      "Lingkungan": 4847,
      "Norwegia": 4848,
      "eot": 4849,
      "serial": 4850,
      "engukuran": 4851,
      "seja": 4852,
      "Arsit": 4853,
      "Elektr": 4854,
      "Jup": 4855,
      "Km": 4856,
      "Sari": 4857,
      "dijelaskan": 4858,
      "omai": 4859,
      "artawan": 4860,
      "Ponti": 4861,
      "bencan": 4862,
      "oalis": 4863,
      "bencana": 4864,
      "oalisi": 4865,
      "bertan": 4866,
      "fosil": 4867,
      "enerj": 4868,
      "enungg": 4869,
      "eberhasil": 4870,
      "Asal": 4871,
      "Arsitek": 4872,
      "Berbagai": 4873,
      "menyemb": 4874,
      "ahunn": 4875,
      "embebasan": 4876,
      "Dic": 4877,
      "Aca": 4878,
      "fakta": 4879,
      "Istim": 4880,
      "erkosaan": 4881,
      "omotif": 4882,
      "Virgi": 4883,
      "sejauh": 4884,
      "eberhasilan": 4885,
      "menyumbang": 4886,
      "athi": 4887,
      "Istanb": 4888,
      "Fred": 4889,
      "ucapan": 4890,
      "arekat": 4891,
      "Albani": 4892,
      "Society": 4893,
      "odifikasi": 4894,
      "Jupi": 4895,
      "ahunny": 4896,
      "ahunnya": 4897,
      "FM": 4898,
      "Gari": 4899,
      "Yudh": 4900,
      "ausan": 4901,
      "memec": 4902,
      "engap": 4903,
      "Anc": 4904,
      "erput": 4905,
      "dekl": 4906,
      "ojok": 4907,
      "Pekerj": 4908,
      "menggabungkan": 4909,
      "Jupit": 4910,
      "East": 4911,
      "kunjungan": 4912,
      "dijumpai": 4913,
      "engembali": 4914,
      "etai": 4915,
      "omagn": 4916,
      "omodit": 4917,
      "fili": 4918,
      "Mangk": 4919,
      "ertutup": 4920,
      "Yugoslavi": 4921,
      "Istanbul": 4922,
      "Jupiter": 4923,
      "Marok": 4924,
      "Peman": 4925,
      "mahal": 4926,
      "pustaka": 4927,
      "emastikan": 4928,
      "Proyek": 4929,
      "Bran": 4930,
      "Pier": 4931,
      "etnan": 4932,
      "erbuki": 4933,
      "eira": 4934,
      "Sehi": 4935,
      "awijay": 4936,
      "Oxf": 4937,
      "Aleks": 4938,
      "Istimew": 4939,
      "Yugoslavia": 4940,
      "awijaya": 4941,
      "Istimewa": 4942,
      "Penyakit": 4943,
      "Rap": 4944,
      "yetujui": 4945,
      "enyetujui": 4946,
      "eik": 4947,
      "Konsep": 4948,
      "Rekt": 4949,
      "Purwor": 4950,
      "urch": 4951,
      "Oxfor": 4952,
      "Purworej": 4953,
      "Purworejo": 4954,
      "Ketiga": 4955,
      "Kebijakan": 4956,
      "kedokteran": 4957,
      "tahunnya": 4958,
      "osti": 4959,
      "Mangg": 4960,
      "opter": 4961,
      "Aji": 4962,
      "eich": 4963,
      "Acad": 4964,
      "Pekerja": 4965,
      "erbukit": 4966,
      "Pustaka": 4967,
      "azim": 4968,
      "karyawan": 4969,
      "memastikan": 4970,
      "udang": 4971,
      "oca": 4972,
      "Usah": 4973,
      "Contohn": 4974,
      "filsu": 4975,
      "enewaskan": 4976,
      "uistik": 4977,
      "Rektor": 4978,
      "Contohny": 4979,
      "Contohnya": 4980,
      "CR": 4981,
      "hadiah": 4982,
      "menyetujui": 4983,
      "ãģ": 4984,
      "eroris": 4985,
      "elian": 4986,
      "Sig": 4987,
      "erpaksa": 4988,
      "filsuf": 4989,
      "Rujuk": 4990,
      "redik": 4991,
      "erusuhan": 4992,
      "akek": 4993,
      "etusan": 4994,
      "zil": 4995,
      "Tapi": 4996,
      "Maroko": 4997,
      "Modern": 4998,
      "Non": 4999,
      "asut": 5000,
      "Amp": 5001,
      "ulany": 5002,
      "aktivis": 5003,
      "Etim": 5004,
      "Sehin": 5005,
      "Rujukan": 5006,
      "Etimologi": 5007,
      "Sehing": 5008,
      "Sehingg": 5009,
      "Gog": 5010,
      "Energi": 5011,
      "Kita": 5012,
      "Said": 5013,
      "Sriw": 5014,
      "Karib": 5015,
      "MÄģori": 5016,
      "menewaskan": 5017,
      "perman": 5018,
      "Ã«": 5019,
      "ersang": 5020,
      "Stock": 5021,
      "menghentikan": 5022,
      "Kapt": 5023,
      "UNE": 5024,
      "Eth": 5025,
      "Upa": 5026,
      "magnet": 5027,
      "Hollan": 5028,
      "Oxford": 5029,
      "Sehingga": 5030,
      ":#": 5031,
      "IR": 5032,
      "eologis": 5033,
      "tertutup": 5034,
      "didefinisikan": 5035,
      "Kil": 5036,
      "Klub": 5037,
      "âĢĿ.": 5038,
      "emons": 5039,
      "Columb": 5040,
      "Lumpur": 5041,
      "korupsi": 5042,
      "harapan": 5043,
      "Hait": 5044,
      "Yeh": 5045,
      "terpaksa": 5046,
      "dilaporkan": 5047,
      "usc": 5048,
      "Alumni": 5049,
      "elanggaran": 5050,
      "koleks": 5051,
      "Epi": 5052,
      "eadil": 5053,
      "pertanya": 5054,
      "pertanyaan": 5055,
      "nfrastruktur": 5056,
      "infrastruktur": 5057,
      "erasional": 5058,
      "engungsi": 5059,
      "Pir": 5060,
      "Sutr": 5061,
      "obli": 5062,
      "Kapten": 5063,
      "koleksi": 5064,
      "edral": 5065,
      "melebih": 5066,
      "pemegang": 5067,
      "penutur": 5068,
      "dipegang": 5069,
      "Ara": 5070,
      "Virgin": 5071,
      "etail": 5072,
      "ulanya": 5073,
      "dipercaya": 5074,
      "ertambangan": 5075,
      "erboleh": 5076,
      "Ili": 5077,
      "pelatihan": 5078,
      "Whit": 5079,
      "Puncak": 5080,
      "omain": 5081,
      "erbolehk": 5082,
      "erbolehkan": 5083,
      "Cabang": 5084,
      "Pembentukan": 5085,
      "egagalan": 5086,
      "erkelan": 5087,
      "ernakan": 5088,
      "etil": 5089,
      "Ulam": 5090,
      "Bila": 5091,
      "Usaha": 5092,
      "emonst": 5093,
      "FF": 5094,
      "awari": 5095,
      "menghorm": 5096,
      "kematiann": 5097,
      "Biogra": 5098,
      "emenjak": 5099,
      "eadilan": 5100,
      "emonstr": 5101,
      "kematianny": 5102,
      "kematiannya": 5103,
      "Kegiatan": 5104,
      "Pembalap": 5105,
      "Warna": 5106,
      "lambat": 5107,
      "politis": 5108,
      "sebaliknya": 5109,
      "esian": 5110,
      "Andi": 5111,
      "Ach": 5112,
      "uwang": 5113,
      "umania": 5114,
      "astronomi": 5115,
      "perhitungan": 5116,
      "Karibi": 5117,
      "Karibia": 5118,
      "ebarkan": 5119,
      "enjajahan": 5120,
      "Prefekt": 5121,
      "elekomunikasi": 5122,
      "erbaikan": 5123,
      "Ulama": 5124,
      "'t": 5125,
      "Mening": 5126,
      "Pemimpin": 5127,
      "Rumania": 5128,
      "aá¹": 5129,
      "enegaskan": 5130,
      "menegaskan": 5131,
      "dipasang": 5132,
      "empl": 5133,
      "duta": 5134,
      "yran": 5135,
      "oskop": 5136,
      "Artis": 5137,
      "urnamen": 5138,
      "Association": 5139,
      "deklar": 5140,
      "menghormati": 5141,
      "Tot": 5142,
      "keman": 5143,
      "engs": 5144,
      "eternakan": 5145,
      "abuk": 5146,
      "elle": 5147,
      "Island": 5148,
      "etkol": 5149,
      "Abrah": 5150,
      "deskrips": 5151,
      "Madrid": 5152,
      "deskripsi": 5153,
      "enasihat": 5154,
      "ajan": 5155,
      "urrah": 5156,
      "dward": 5157,
      "Science": 5158,
      "Sriwi": 5159,
      "Letkol": 5160,
      "entasikan": 5161,
      "ovina": 5162,
      "Balai": 5163,
      "menangkap": 5164,
      "pengangk": 5165,
      "orogo": 5166,
      "Abraham": 5167,
      "dakw": 5168,
      "moral": 5169,
      "enzim": 5170,
      "menjaw": 5171,
      "erpec": 5172,
      "etina": 5173,
      "Edit": 5174,
      "Domini": 5175,
      "omoditas": 5176,
      "Pering": 5177,
      "jurusan": 5178,
      "tegang": 5179,
      "ulon": 5180,
      "endin": 5181,
      "flek": 5182,
      "Wales": 5183,
      "eism": 5184,
      "Lain": 5185,
      "Haiti": 5186,
      "Sriwij": 5187,
      "menjawab": 5188,
      "Habib": 5189,
      "Sebaliknya": 5190,
      "penonton": 5191,
      "Ð½": 5192,
      "abdi": 5193,
      "otesis": 5194,
      "potesis": 5195,
      "menjelang": 5196,
      "Alt": 5197,
      "eleks": 5198,
      "erlihatk": 5199,
      "Artik": 5200,
      "olimer": 5201,
      "Biografi": 5202,
      "Sriwija": 5203,
      "erlihatkan": 5204,
      "Sriwijay": 5205,
      "Sriwijaya": 5206,
      "Merdeka": 5207,
      "Syi": 5208,
      "denominasi": 5209,
      "edali": 5210,
      "enyair": 5211,
      "akuisisi": 5212,
      "engenakan": 5213,
      "este": 5214,
      "Shang": 5215,
      "flasi": 5216,
      "Mini": 5217,
      "Sipi": 5218,
      "Mount": 5219,
      "berapi": 5220,
      "kelilingi": 5221,
      "Î¿": 5222,
      "Chang": 5223,
      "Pim": 5224,
      "penghi": 5225,
      "Trin": 5226,
      "arkis": 5227,
      "Awaln": 5228,
      "Awalny": 5229,
      "Awalnya": 5230,
      "mengenakan": 5231,
      "emerkosaan": 5232,
      "ulik": 5233,
      "uchi": 5234,
      "esejah": 5235,
      "melebihi": 5236,
      "esejaht": 5237,
      "Hok": 5238,
      "mengeks": 5239,
      "oep": 5240,
      "terlebih": 5241,
      "ello": 5242,
      "oji": 5243,
      "Hill": 5244,
      "Marxi": 5245,
      "komandan": 5246,
      "oblig": 5247,
      "esejahter": 5248,
      "Samari": 5249,
      "bedakan": 5250,
      "berlebih": 5251,
      "Gri": 5252,
      "Arma": 5253,
      "oordinasi": 5254,
      "undin": 5255,
      "Corpor": 5256,
      "Marinir": 5257,
      "ertukar": 5258,
      "UNES": 5259,
      "ending": 5260,
      "Korp": 5261,
      "festival": 5262,
      "ruangan": 5263,
      "erkebangsaan": 5264,
      "deki": 5265,
      "Pis": 5266,
      "Kalen": 5267,
      "odik": 5268,
      "Depok": 5269,
      "Bapa": 5270,
      "Bapt": 5271,
      "SEA": 5272,
      "opografi": 5273,
      "Marxis": 5274,
      "Bapti": 5275,
      "Kw": 5276,
      "Makanan": 5277,
      "Pasir": 5278,
      "opedia": 5279,
      "Hidup": 5280,
      "osist": 5281,
      "Conc": 5282,
      "Aleksan": 5283,
      "uwangi": 5284,
      "Prefektur": 5285,
      "esejahtera": 5286,
      "esejahteraan": 5287,
      "Leban": 5288,
      "berkebangsaan": 5289,
      "fakultas": 5290,
      "asila": 5291,
      "Ish": 5292,
      "Che": 5293,
      "Ash": 5294,
      "umput": 5295,
      "Kini": 5296,
      "enonj": 5297,
      "embuktik": 5298,
      "yrann": 5299,
      "Kalend": 5300,
      "Baptis": 5301,
      "embuktikan": 5302,
      "metropolitan": 5303,
      "Ø¨": 5304,
      "arusnya": 5305,
      "estoran": 5306,
      "drok": 5307,
      "menghap": 5308,
      "Kondi": 5309,
      "Balt": 5310,
      "ahri": 5311,
      "Cli": 5312,
      "optik": 5313,
      "Kalender": 5314,
      "Fungsi": 5315,
      "batang": 5316,
      "berulang": 5317,
      "ÑĢ": 5318,
      "enandai": 5319,
      "enerapan": 5320,
      "engadopsi": 5321,
      "egovina": 5322,
      "erlep": 5323,
      "ergolong": 5324,
      "Tangerang": 5325,
      "menyin": 5326,
      "Osak": 5327,
      "Somalia": 5328,
      "eleksi": 5329,
      "kehadiran": 5330,
      "membuktikan": 5331,
      "emperbaiki": 5332,
      "askar": 5333,
      "Cim": 5334,
      "egitig": 5335,
      "Kondis": 5336,
      "egitiga": 5337,
      "Kondisi": 5338,
      "Bot": 5339,
      "Dec": 5340,
      "rambut": 5341,
      "sempurna": 5342,
      "dikelilingi": 5343,
      "unduk": 5344,
      "agari": 5345,
      "erpartisipasi": 5346,
      "personel": 5347,
      "mengisi": 5348,
      "empit": 5349,
      "erbandingan": 5350,
      "permanen": 5351,
      "Lebanon": 5352,
      "berpartisipasi": 5353,
      "keterangan": 5354,
      "kualifikasi": 5355,
      "muslim": 5356,
      "menonj": 5357,
      "tertarik": 5358,
      "website": 5359,
      "zegovina": 5360,
      "erzegovina": 5361,
      "Herzegovina": 5362,
      "enambahan": 5363,
      "akamkan": 5364,
      "Kepolisian": 5365,
      "ersaingan": 5366,
      "maksimum": 5367,
      "Pangkalan": 5368,
      "Waris": 5369,
      "menandai": 5370,
      "nology": 5371,
      "percobaan": 5372,
      "yog": 5373,
      "âĪ": 5374,
      "ublis": 5375,
      "oir": 5376,
      "odinam": 5377,
      "jurnali": 5378,
      "urrahm": 5379,
      "jurnalis": 5380,
      "Jari": 5381,
      "tergolong": 5382,
      "yuwangi": 5383,
      "Â±": 5384,
      "erselisih": 5385,
      "Fit": 5386,
      "Gresik": 5387,
      "Airp": 5388,
      "Khan": 5389,
      "Bangl": 5390,
      "orny": 5391,
      "yong": 5392,
      "Simp": 5393,
      "Antoni": 5394,
      "odinami": 5395,
      "Dw": 5396,
      "ulusan": 5397,
      "embersih": 5398,
      "eriny": 5399,
      "residenan": 5400,
      "Akti": 5401,
      "Francisc": 5402,
      "Artikel": 5403,
      "Pimp": 5404,
      "unding": 5405,
      "Osaka": 5406,
      "urrahman": 5407,
      "erinya": 5408,
      "memperbaiki": 5409,
      "makamkan": 5410,
      "pengobatan": 5411,
      "pelanggaran": 5412,
      "atomi": 5413,
      "engusulkan": 5414,
      "embentang": 5415,
      "Plut": 5416,
      "menangg": 5417,
      "High": 5418,
      "(;": 5419,
      "Bugis": 5420,
      "Pendiri": 5421,
      "perpustakaan": 5422,
      "egon": 5423,
      "Simon": 5424,
      "Sipr": 5425,
      "tetangga": 5426,
      "erlepas": 5427,
      "ornya": 5428,
      "Mulai": 5429,
      "mengusulkan": 5430,
      "eritah": 5431,
      "Ã¼n": 5432,
      "Anim": 5433,
      "SAR": 5434,
      "munisipalitas": 5435,
      "olakan": 5436,
      "edic": 5437,
      "ompil": 5438,
      "esuks": 5439,
      "Fam": 5440,
      "Tyrann": 5441,
      "Wr": 5442,
      "berkelan": 5443,
      "hnology": 5444,
      "sertai": 5445,
      "takluk": 5446,
      "tandatangani": 5447,
      "echnology": 5448,
      "erkawi": 5449,
      "Pimpi": 5450,
      "Pimpin": 5451,
      "Pendapat": 5452,
      "bebaskan": 5453,
      "dimakamkan": 5454,
      "engelilingi": 5455,
      "uwai": 5456,
      "Libr": 5457,
      "julukan": 5458,
      "Akibatn": 5459,
      "Irian": 5460,
      "Japan": 5461,
      "âĪĴ": 5462,
      "Akibatny": 5463,
      "Akibatnya": 5464,
      "SF": 5465,
      "casila": 5466,
      "lazim": 5467,
      "oduct": 5468,
      "pemin": 5469,
      "sesungguhnya": 5470,
      "ancasila": 5471,
      "empering": 5472,
      "Buddhi": 5473,
      "Mongolia": 5474,
      "Brigj": 5475,
      "BRI": 5476,
      "Brigjen": 5477,
      "Pythagor": 5478,
      "mengendali": 5479,
      "mengadopsi": 5480,
      "membentang": 5481,
      "mempering": 5482,
      "perbaikan": 5483,
      "emperkir": 5484,
      "empromosikan": 5485,
      "agis": 5486,
      "Ponorogo": 5487,
      "eutr": 5488,
      "pemberontak": 5489,
      "Adipati": 5490,
      "penyelenggaraan": 5491,
      "Garis": 5492,
      "Sipil": 5493,
      "Siprus": 5494,
      "esukses": 5495,
      "Tyrannosa": 5496,
      "erkawin": 5497,
      "Map": 5498,
      "mengelilingi": 5499,
      "memperkir": 5500,
      "turunan": 5501,
      "disertai": 5502,
      "agelang": 5503,
      "Wija": 5504,
      "Armad": 5505,
      "Pimpinan": 5506,
      "cycl": 5507,
      "awahan": 5508,
      "olivi": 5509,
      "massal": 5510,
      "figurasi": 5511,
      "mengendalik": 5512,
      "memperkirakan": 5513,
      "mengendalikan": 5514,
      "Pemberont": 5515,
      "permasalahan": 5516,
      "terikat": 5517,
      "dibedakan": 5518,
      "dibebaskan": 5519,
      "operti": 5520,
      "orik": 5521,
      "urans": 5522,
      "owon": 5523,
      "esmas": 5524,
      "artikan": 5525,
      "Ding": 5526,
      "Arth": 5527,
      "Amir": 5528,
      "kegagalan": 5529,
      "atedral": 5530,
      "ahabh": 5531,
      "Siw": 5532,
      "erpenting": 5533,
      "umbai": 5534,
      "etujuh": 5535,
      "aklah": 5536,
      "ulingk": 5537,
      "Konstantinop": 5538,
      "Filsa": 5539,
      "obligasi": 5540,
      "Wijay": 5541,
      "Filsaf": 5542,
      "Kang": 5543,
      "Magelang": 5544,
      "Pertengahan": 5545,
      "mempromosikan": 5546,
      "dalk": 5547,
      "enaklukk": 5548,
      "Norman": 5549,
      "enaklukkan": 5550,
      "Jurusan": 5551,
      "hakim": 5552,
      "kunjungi": 5553,
      "penjajahan": 5554,
      "vek": 5555,
      "Ñģ": 5556,
      "enerbitan": 5557,
      "operasional": 5558,
      "uskesmas": 5559,
      "Johor": 5560,
      "Stre": 5561,
      "Dialek": 5562,
      "pengirim": 5563,
      "osistem": 5564,
      "ulingkan": 5565,
      "Filsafat": 5566,
      "General": 5567,
      "Pancasila": 5568,
      "peluk": 5569,
      "pengambil": 5570,
      "Keci": 5571,
      "emukakan": 5572,
      "Akunt": 5573,
      "menikm": 5574,
      "ambri": 5575,
      "Trini": 5576,
      "Korps": 5577,
      "Francisco": 5578,
      "esuksesan": 5579,
      "Armada": 5580,
      "Gang": 5581,
      "Oh": 5582,
      "PH": 5583,
      "Yi": 5584,
      "beban": 5585,
      "diumumkan": 5586,
      "ditandatangani": 5587,
      "uluhan": 5588,
      "menghadiri": 5589,
      "Long": 5590,
      "Fisiologi": 5591,
      "Albania": 5592,
      "Buddhis": 5593,
      "menikmati": 5594,
      "kedalaman": 5595,
      "setujui": 5596,
      "anyuwangi": 5597,
      "ersep": 5598,
      "ugaskan": 5599,
      "embantai": 5600,
      "dalkan": 5601,
      "Vari": 5602,
      "musisi": 5603,
      "menungg": 5604,
      "terpenting": 5605,
      "Ø³": 5606,
      "esarnya": 5607,
      "akia": 5608,
      "Angli": 5609,
      "oogl": 5610,
      "Arsitekt": 5611,
      "Academ": 5612,
      "erkawinan": 5613,
      "uransi": 5614,
      "Academy": 5615,
      "Letnan": 5616,
      "Mahabh": 5617,
      "Renc": 5618,
      "berpik": 5619,
      "Qin": 5620,
      "Bengkul": 5621,
      "Zon": 5622,
      "disetujui": 5623,
      "ermal": 5624,
      "Tik": 5625,
      "Alon": 5626,
      "DPRD": 5627,
      "Bait": 5628,
      "oluti": 5629,
      "Warisan": 5630,
      "Sarjana": 5631,
      "restoran": 5632,
      "takut": 5633,
      "Ø¯": 5634,
      "penyimpan": 5635,
      "penangkap": 5636,
      "Balti": 5637,
      "Konstantinopel": 5638,
      "oogle": 5639,
      "Arsitektur": 5640,
      "berpiki": 5641,
      "Bengkulu": 5642,
      "berpikir": 5643,
      "Banyuwangi": 5644,
      "ungut": 5645,
      "unggulan": 5646,
      "Jim": 5647,
      "urma": 5648,
      "Pluto": 5649,
      "Komunitas": 5650,
      "bertentangan": 5651,
      "topik": 5652,
      "enetika": 5653,
      "atural": 5654,
      "ergunakan": 5655,
      "erkant": 5656,
      "ersangk": 5657,
      "ublish": 5658,
      "Akuntan": 5659,
      "Mahabhar": 5660,
      "Mahabharat": 5661,
      "idrok": 5662,
      "hidrok": 5663,
      "lempeng": 5664,
      "persent": 5665,
      "yati": 5666,
      "Hitam": 5667,
      "pembukaan": 5668,
      "tegangan": 5669,
      "Mahabharata": 5670,
      "--": 5671,
      "menyang": 5672,
      "religi": 5673,
      "ertahap": 5674,
      "Angol": 5675,
      "Mongol": 5676,
      "juluki": 5677,
      "Sunni": 5678,
      "Kecil": 5679,
      "Hunt": 5680,
      "Wai": 5681,
      "bertahap": 5682,
      "hancurkan": 5683,
      "memunc": 5684,
      "pesial": 5685,
      "sediakan": 5686,
      "vulkan": 5687,
      "atulis": 5688,
      "erga": 5689,
      "Kres": 5690,
      "kurangn": 5691,
      "atulist": 5692,
      "kurangny": 5693,
      "atulisti": 5694,
      "kurangnya": 5695,
      "atulistiw": 5696,
      "Naskah": 5697,
      "Roll": 5698,
      "keberhasilan": 5699,
      "erempat": 5700,
      "elp": 5701,
      "ebai": 5702,
      "umenep": 5703,
      "ugl": 5704,
      "Mitologi": 5705,
      "memecah": 5706,
      "Airport": 5707,
      "Cep": 5708,
      "Laporan": 5709,
      "betina": 5710,
      "debut": 5711,
      "kenaikan": 5712,
      "rkuit": 5713,
      "irkuit": 5714,
      "sirkuit": 5715,
      "eharusnya": 5716,
      "seharusnya": 5717,
      "ermakna": 5718,
      "erhak": 5719,
      "Saleh": 5720,
      "Frie": 5721,
      "abitat": 5722,
      "atulistiwa": 5723,
      "SN": 5724,
      "Sumenep": 5725,
      "berhak": 5726,
      "furt": 5727,
      "nenek": 5728,
      "aruk": 5729,
      "uls": 5730,
      "filos": 5731,
      "Chic": 5732,
      "Litu": 5733,
      "engembalik": 5734,
      "Bangla": 5735,
      "engembalikan": 5736,
      "%).": 5737,
      "menaklukkan": 5738,
      "temui": 5739,
      "algoritme": 5740,
      "agia": 5741,
      "universal": 5742,
      "olism": 5743,
      "Sutra": 5744,
      "Pemberontakan": 5745,
      "Gust": 5746,
      "Google": 5747,
      "bermakna": 5748,
      "erajin": 5749,
      "endeki": 5750,
      "dihancurkan": 5751,
      "engusir": 5752,
      "entan": 5753,
      "ersah": 5754,
      "ugr": 5755,
      "Hik": 5756,
      "uncuran": 5757,
      "Liby": 5758,
      "Tuban": 5759,
      "Emir": 5760,
      "Pontian": 5761,
      "Azt": 5762,
      "Karakt": 5763,
      "Penang": 5764,
      "demonstr": 5765,
      "karg": 5766,
      "pengukuran": 5767,
      "disediakan": 5768,
      "Isk": 5769,
      "Asam": 5770,
      "Salom": 5771,
      "Abdurrahman": 5772,
      "Aristot": 5773,
      "Angola": 5774,
      "Lituan": 5775,
      "Libya": 5776,
      "Lituani": 5777,
      "Lituania": 5778,
      "Batang": 5779,
      "kajian": 5780,
      "dijuluki": 5781,
      "Vik": 5782,
      "Vit": 5783,
      "jumlahn": 5784,
      "Iman": 5785,
      "ersediaan": 5786,
      "Kiri": 5787,
      "List": 5788,
      "Holland": 5789,
      "fleks": 5790,
      "jumlahny": 5791,
      "jumlahnya": 5792,
      "Vati": 5793,
      "darai": 5794,
      "daklah": 5795,
      "zuk": 5796,
      "eraton": 5797,
      "ertek": 5798,
      "untungkan": 5799,
      "Lil": 5800,
      "Asosi": 5801,
      "unjang": 5802,
      "Ern": 5803,
      "urnus": 5804,
      "produkt": 5805,
      "Electr": 5806,
      "Konser": 5807,
      "belakangan": 5808,
      "elimp": 5809,
      "Kresn": 5810,
      "produkti": 5811,
      "Desai": 5812,
      "domain": 5813,
      "pemakai": 5814,
      "eluncuran": 5815,
      "engaturan": 5816,
      "Ung": 5817,
      "astis": 5818,
      "Chiang": 5819,
      "tuntutan": 5820,
      "olution": 5821,
      "Melalui": 5822,
      "komoditas": 5823,
      "mengembalikan": 5824,
      "pemerkosaan": 5825,
      "Angka": 5826,
      "Engli": 5827,
      "Pierr": 5828,
      "Corporation": 5829,
      "Englis": 5830,
      "Cambri": 5831,
      "Edward": 5832,
      "Fakt": 5833,
      "Tasik": 5834,
      "Era": 5835,
      "Kapu": 5836,
      "emisk": 5837,
      "emoton": 5838,
      "eangg": 5839,
      "Shangh": 5840,
      "Rencan": 5841,
      "kargo": 5842,
      "Asosiasi": 5843,
      "English": 5844,
      "emiski": 5845,
      "emotong": 5846,
      "emiskin": 5847,
      "Seiring": 5848,
      "aturnus": 5849,
      "Saturnus": 5850,
      "Anj": 5851,
      "fron": 5852,
      "erdin": 5853,
      "Ã©n": 5854,
      "Hali": 5855,
      "arcelon": 5856,
      "orra": 5857,
      "Bisn": 5858,
      "Tirt": 5859,
      "peluki": 5860,
      "filoso": 5861,
      "Banglad": 5862,
      "pelukis": 5863,
      "Barcelon": 5864,
      "erig": 5865,
      "adim": 5866,
      "sejati": 5867,
      "Hir": 5868,
      "valen": 5869,
      "etwork": 5870,
      "olisme": 5871,
      "Cambrid": 5872,
      "Bisni": 5873,
      "Cambridg": 5874,
      "Bisnis": 5875,
      "().": 5876,
      "Bolivi": 5877,
      "Harap": 5878,
      "koalisi": 5879,
      "perikanan": 5880,
      "wartawan": 5881,
      "atog": 5882,
      "engasing": 5883,
      "arganeg": 5884,
      "emalang": 5885,
      "Blit": 5886,
      "penyimpanan": 5887,
      "Pontianak": 5888,
      "Pierre": 5889,
      "Kapuas": 5890,
      "emiskinan": 5891,
      "arganegar": 5892,
      "SR": 5893,
      "derlan": 5894,
      "segitiga": 5895,
      "yedia": 5896,
      "zk": 5897,
      "enyedia": 5898,
      "erlahan": 5899,
      "Nis": 5900,
      "ymp": 5901,
      "ucks": 5902,
      "Komisari": 5903,
      "pertim": 5904,
      "menonjol": 5905,
      "ebaik": 5906,
      "Kresna": 5907,
      "Cambridge": 5908,
      "Komputer": 5909,
      "telijen": 5910,
      "ntelijen": 5911,
      "á¸": 5912,
      "Karim": 5913,
      "Syarif": 5914,
      "Archi": 5915,
      "Bibli": 5916,
      "Kupang": 5917,
      "Duta": 5918,
      "odinamik": 5919,
      "endekiawan": 5920,
      "Shanghai": 5921,
      "pertimb": 5922,
      "pertimbang": 5923,
      "Kelapa": 5924,
      "UH": 5925,
      "euw": 5926,
      "pedalaman": 5927,
      "susunan": 5928,
      "elie": 5929,
      "Rig": 5930,
      "Apost": 5931,
      "Encycl": 5932,
      "ucian": 5933,
      "emisahan": 5934,
      "Victoria": 5935,
      "Pythagoras": 5936,
      "Desain": 5937,
      "Bangladesh": 5938,
      "Bolivia": 5939,
      "GR": 5940,
      "koran": 5941,
      "Mill": 5942,
      "Jarin": 5943,
      "Barcelona": 5944,
      "arganegara": 5945,
      "intelijen": 5946,
      "persemb": 5947,
      "perumahan": 5948,
      "dikunjungi": 5949,
      "ebin": 5950,
      "menggang": 5951,
      "Balik": 5952,
      "Robin": 5953,
      "Tut": 5954,
      "yj": 5955,
      "yuran": 5956,
      "enafsir": 5957,
      "esearch": 5958,
      "Blok": 5959,
      "Onl": 5960,
      "asifikasikan": 5961,
      "menying": 5962,
      "Tyrannosaur": 5963,
      "owong": 5964,
      "Alons": 5965,
      "Jaring": 5966,
      "Alonso": 5967,
      "Demikian": 5968,
      "Fasilitas": 5969,
      "identifikasi": 5970,
      "erform": 5971,
      "endungan": 5972,
      "ahyang": 5973,
      "engerj": 5974,
      "engabdi": 5975,
      "osan": 5976,
      "elektromagn": 5977,
      "kerjas": 5978,
      "Hond": 5979,
      "vulkani": 5980,
      "kerjasam": 5981,
      "SH": 5982,
      "berlawanan": 5983,
      "menahan": 5984,
      "mulanya": 5985,
      "teroris": 5986,
      "arfiah": 5987,
      "harfiah": 5988,
      "akari": 5989,
      "osal": 5990,
      "awit": 5991,
      "ealt": 5992,
      "permuki": 5993,
      "emeriksaan": 5994,
      "uwait": 5995,
      "ersahab": 5996,
      "Tyrannosaurus": 5997,
      "permukim": 5998,
      "ersahabat": 5999,
      "permukiman": 6000,
      "berencana": 6001,
      "berangg": 6002,
      "emuja": 6003,
      "Alj": 6004,
      "ediam": 6005,
      "oric": 6006,
      "Islami": 6007,
      "Airlang": 6008,
      "Donal": 6009,
      "Kuta": 6010,
      "penangg": 6011,
      "menggangg": 6012,
      "ediaman": 6013,
      "Airlangg": 6014,
      "Airlangga": 6015,
      "Cerita": 6016,
      "Kuwait": 6017,
      "Zw": 6018,
      "afit": 6019,
      "belahan": 6020,
      "bubarkan": 6021,
      "erdaftar": 6022,
      "Church": 6023,
      "occ": 6024,
      "elektro": 6025,
      "Exc": 6026,
      "ÃŃa": 6027,
      "melancarkan": 6028,
      "Bhar": 6029,
      "Ghan": 6030,
      "Gogh": 6031,
      "Dingi": 6032,
      "Cai": 6033,
      "SÃ£o": 6034,
      "fari": 6035,
      "letusan": 6036,
      "roperti": 6037,
      "properti": 6038,
      "telekt": 6039,
      "ntelekt": 6040,
      "intelekt": 6041,
      "endefinisikan": 6042,
      "elestari": 6043,
      "Akb": 6044,
      "ermink": 6045,
      "menjali": 6046,
      "Biro": 6047,
      "Ronal": 6048,
      "erminkan": 6049,
      "Cup": 6050,
      "Soep": 6051,
      "penambahan": 6052,
      "tebal": 6053,
      "ahagia": 6054,
      "erharga": 6055,
      "mengidentifikasi": 6056,
      "Order": 6057,
      "Putin": 6058,
      "UNESCO": 6059,
      "penangkapan": 6060,
      "erajinan": 6061,
      "Dingin": 6062,
      "menjalin": 6063,
      "fahan": 6064,
      "katalis": 6065,
      "mulut": 6066,
      "sajikan": 6067,
      "dibubarkan": 6068,
      "oharjo": 6069,
      "Isi": 6070,
      "Union": 6071,
      "ematis": 6072,
      "Offici": 6073,
      "eanggot": 6074,
      "Harapan": 6075,
      "Masalah": 6076,
      "TL": 6077,
      "mengap": 6078,
      "yk": 6079,
      "erunding": 6080,
      "agl": 6081,
      "erkedudukan": 6082,
      "arco": 6083,
      "menyebutn": 6084,
      "owli": 6085,
      "Tibet": 6086,
      "Anali": 6087,
      "pelind": 6088,
      "Street": 6089,
      "menyebutny": 6090,
      "owlin": 6091,
      "pelindung": 6092,
      "menyebutnya": 6093,
      "Out": 6094,
      "dorra": 6095,
      "selesaikan": 6096,
      "Andorra": 6097,
      "Starb": 6098,
      "Thal": 6099,
      "meyakini": 6100,
      "Arthur": 6101,
      "kerjasama": 6102,
      "owling": 6103,
      "SCTV": 6104,
      "besarnya": 6105,
      "erusnya": 6106,
      "osÃ©": 6107,
      "entian": 6108,
      "uliner": 6109,
      "Bangkok": 6110,
      "Tasikm": 6111,
      "guistik": 6112,
      "mendefinisikan": 6113,
      "perlahan": 6114,
      "spesial": 6115,
      "aruskan": 6116,
      "disajikan": 6117,
      "emasang": 6118,
      "engecuali": 6119,
      "uruhnya": 6120,
      "Riw": 6121,
      "Vall": 6122,
      "Demokrasi": 6123,
      "Jong": 6124,
      "ojokert": 6125,
      "Ethi": 6126,
      "Official": 6127,
      "Sudi": 6128,
      "hambatan": 6129,
      "Afgan": 6130,
      "eanggota": 6131,
      "eanggotaan": 6132,
      "JosÃ©": 6133,
      "ayuran": 6134,
      "gadis": 6135,
      "modifikasi": 6136,
      "polimer": 6137,
      "rumit": 6138,
      "Ðº": 6139,
      "×Ļ": 6140,
      "engajarkan": 6141,
      "mengajarkan": 6142,
      "enguntungkan": 6143,
      "Aman": 6144,
      "Sport": 6145,
      "Kala": 6146,
      "Antartika": 6147,
      "Kekr": 6148,
      "akri": 6149,
      "menikahi": 6150,
      "Ciri": 6151,
      "etimb": 6152,
      "larutan": 6153,
      "latihan": 6154,
      "Starbucks": 6155,
      "ojokerto": 6156,
      "BK": 6157,
      "Keuskupan": 6158,
      "penyair": 6159,
      "ereaksi": 6160,
      "asumsi": 6161,
      "fib": 6162,
      "Minah": 6163,
      "penghub": 6164,
      "Wall": 6165,
      "ylan": 6166,
      "âĢĿ,": 6167,
      "Ski": 6168,
      "Free": 6169,
      "arwa": 6170,
      "UUD": 6171,
      "Barit": 6172,
      "Ismai": 6173,
      "erugian": 6174,
      "Vincent": 6175,
      "ahrir": 6176,
      "Komisaris": 6177,
      "Jaringan": 6178,
      "etimbang": 6179,
      "penghubung": 6180,
      "Ismail": 6181,
      "Fot": 6182,
      "sertifik": 6183,
      "terdaftar": 6184,
      "Î½": 6185,
      "âĨ": 6186,
      "ditemui": 6187,
      "diselesaikan": 6188,
      "asib": 6189,
      "Shan": 6190,
      "Apabila": 6191,
      "Dharma": 6192,
      "Service": 6193,
      "Aktivi": 6194,
      "pengiriman": 6195,
      "front": 6196,
      "Kekri": 6197,
      "Kekris": 6198,
      "Kekrist": 6199,
      "Kekristen": 6200,
      "Kekristenan": 6201,
      "dot": 6202,
      "jadwal": 6203,
      "persekutuan": 6204,
      "eriodik": 6205,
      "Alat": 6206,
      "Siti": 6207,
      "obatk": 6208,
      "Simb": 6209,
      "Chann": 6210,
      "Blitar": 6211,
      "obatkan": 6212,
      "menguntungkan": 6213,
      "neutr": 6214,
      "penerapan": 6215,
      "persaingan": 6216,
      "sosok": 6217,
      "turnamen": 6218,
      "embl": 6219,
      "erbelan": 6220,
      "esident": 6221,
      "usikan": 6222,
      "Demokrati": 6223,
      "Nigeri": 6224,
      "Matius": 6225,
      "Meningg": 6226,
      "fleksi": 6227,
      "Minahas": 6228,
      "Nigeria": 6229,
      "Minahasa": 6230,
      "edai": 6231,
      "eopl": 6232,
      "kerusuhan": 6233,
      "penaklukan": 6234,
      "orot": 6235,
      "ompa": 6236,
      "Spa": 6237,
      "odis": 6238,
      "elapar": 6239,
      "usines": 6240,
      "Zain": 6241,
      "vsk": 6242,
      "Wijaya": 6243,
      "ebing": 6244,
      "Analis": 6245,
      "erbelanj": 6246,
      "Meninggal": 6247,
      "elaparan": 6248,
      "erbelanja": 6249,
      "Bec": 6250,
      "meluk": 6251,
      "perkawinan": 6252,
      "diucapkan": 6253,
      "empersi": 6254,
      "Atm": 6255,
      "Gall": 6256,
      "eist": 6257,
      "elsi": 6258,
      "elanggan": 6259,
      "elikopter": 6260,
      "Chili": 6261,
      "ealth": 6262,
      "intelektual": 6263,
      "Akbar": 6264,
      "BD": 6265,
      "Definisi": 6266,
      "Efek": 6267,
      "Mojokerto": 6268,
      "Rowling": 6269,
      "berkedudukan": 6270,
      "izinkan": 6271,
      "senilai": 6272,
      "eriam": 6273,
      "Salati": 6274,
      "erhim": 6275,
      "Capi": 6276,
      "menyangk": 6277,
      "Rencana": 6278,
      "usiness": 6279,
      "Hamk": 6280,
      "berharga": 6281,
      "jurkan": 6282,
      "kosong": 6283,
      "kesejahteraan": 6284,
      "pedang": 6285,
      "penyedia": 6286,
      "uft": 6287,
      "diadopsi": 6288,
      "ehr": 6289,
      "demokrati": 6290,
      "komando": 6291,
      "Rossa": 6292,
      "Bojoneg": 6293,
      "enerjem": 6294,
      "Tasikmal": 6295,
      "erhimp": 6296,
      "Hamka": 6297,
      "enerjemah": 6298,
      "Tasikmala": 6299,
      "Tasikmalay": 6300,
      "Tasikmalaya": 6301,
      "PSM": 6302,
      "degan": 6303,
      "kakek": 6304,
      "melanggar": 6305,
      "rumput": 6306,
      "diizinkan": 6307,
      "etualang": 6308,
      "dengann": 6309,
      "egahan": 6310,
      "osoph": 6311,
      "Dian": 6312,
      "usiaan": 6313,
      "Frankfurt": 6314,
      "Pott": 6315,
      "odinamika": 6316,
      "denganny": 6317,
      "dengannya": 6318,
      "Loh": 6319,
      "Pening": 6320,
      "Publik": 6321,
      "moyang": 6322,
      "pertambangan": 6323,
      "erenang": 6324,
      "unai": 6325,
      "ugat": 6326,
      "ermark": 6327,
      "ewon": 6328,
      "mencerminkan": 6329,
      "ambin": 6330,
      "fisikawan": 6331,
      "mengangkut": 6332,
      "Hijr": 6333,
      "berkont": 6334,
      "embantaian": 6335,
      "mengganggu": 6336,
      "Forc": 6337,
      "Koloni": 6338,
      "Kerinci": 6339,
      "idaklah": 6340,
      "mempersi": 6341,
      "atot": 6342,
      "embebaskan": 6343,
      "erikl": 6344,
      "pengis": 6345,
      "esatr": 6346,
      "Nikol": 6347,
      "ewenangan": 6348,
      "berlebihan": 6349,
      "habitat": 6350,
      "memeluk": 6351,
      "predik": 6352,
      "pergunakan": 6353,
      "periodik": 6354,
      "tidaklah": 6355,
      "å¤": 6356,
      "atuhkan": 6357,
      "diajukan": 6358,
      "arts": 6359,
      "file": 6360,
      "Alic": 6361,
      "aspi": 6362,
      "arwi": 6363,
      "optim": 6364,
      "enyelidikan": 6365,
      "Salomo": 6366,
      "owongan": 6367,
      "Bojonegor": 6368,
      "Bojonegoro": 6369,
      "Fuj": 6370,
      "Mumbai": 6371,
      "Pemalang": 6372,
      "ipotesis": 6373,
      "arui": 6374,
      "embuangan": 6375,
      "Misi": 6376,
      "Prins": 6377,
      "Ein": 6378,
      "Ogan": 6379,
      "ativit": 6380,
      "erselisihan": 6381,
      "Barito": 6382,
      "Channel": 6383,
      "Nai": 6384,
      "hipotesis": 6385,
      "kemiskinan": 6386,
      "tayangkan": 6387,
      "endalam": 6388,
      "Step": 6389,
      "Malt": 6390,
      "astian": 6391,
      "Alir": 6392,
      "Insi": 6393,
      "abaik": 6394,
      "ularit": 6395,
      "berkelanj": 6396,
      "Riwa": 6397,
      "abaikan": 6398,
      "berkelanjut": 6399,
      "Riway": 6400,
      "berkelanjutan": 6401,
      "ayj": 6402,
      "Ãī": 6403,
      "asap": 6404,
      "uson": 6405,
      "Alan": 6406,
      "Cis": 6407,
      "Apa": 6408,
      "pasukann": 6409,
      "Linc": 6410,
      "Islandi": 6411,
      "kolekt": 6412,
      "Giri": 6413,
      "Fuji": 6414,
      "Riwayat": 6415,
      "ayjen": 6416,
      "Islandia": 6417,
      "Fon": 6418,
      "Rok": 6419,
      "fai": 6420,
      "ifahan": 6421,
      "membebaskan": 6422,
      "penutup": 6423,
      "surg": 6424,
      "yh": 6425,
      "endaftar": 6426,
      "alifahan": 6427,
      "asaki": 6428,
      "emperlihatkan": 6429,
      "aspor": 6430,
      "Pendudukn": 6431,
      "Purwok": 6432,
      "kontroversial": 6433,
      "Unsur": 6434,
      "eliau": 6435,
      "Pekerjaan": 6436,
      "erbukitan": 6437,
      "mengeksp": 6438,
      "esatri": 6439,
      "pasukanny": 6440,
      "Pendudukny": 6441,
      "pasukannya": 6442,
      "Penduduknya": 6443,
      "Mayjen": 6444,
      "Pt": 6445,
      "kediaman": 6446,
      "medali": 6447,
      "memperlihatkan": 6448,
      "sungg": 6449,
      "dipergunakan": 6450,
      "ditayangkan": 6451,
      "eluang": 6452,
      "elesk": 6453,
      "Bekas": 6454,
      "ertukaran": 6455,
      "endingi": 6456,
      "Afgani": 6457,
      "endingin": 6458,
      "kebangkitan": 6459,
      "ersoal": 6460,
      "Tip": 6461,
      "Sint": 6462,
      "Scot": 6463,
      "Gig": 6464,
      "Class": 6465,
      "olongk": 6466,
      "ebalan": 6467,
      "estinasi": 6468,
      "embapt": 6469,
      "Ceko": 6470,
      "Psi": 6471,
      "Kekuas": 6472,
      "Columbi": 6473,
      "Araf": 6474,
      "Aliran": 6475,
      "Lincol": 6476,
      "olongkan": 6477,
      "embapti": 6478,
      "Kekuasa": 6479,
      "Lincoln": 6480,
      "embaptis": 6481,
      "Kekuasaan": 6482,
      "'m": 6483,
      "Bursa": 6484,
      "Yudi": 6485,
      "]]": 6486,
      "book": 6487,
      "halifahan": 6488,
      "perbandingan": 6489,
      "onfigurasi": 6490,
      "Mall": 6491,
      "menganc": 6492,
      "elesaian": 6493,
      "yelesaian": 6494,
      "enyelesaian": 6495,
      "Lutheran": 6496,
      "Nilai": 6497,
      "Iskan": 6498,
      "ambing": 6499,
      "Afganis": 6500,
      "Serangan": 6501,
      "Syek": 6502,
      "dog": 6503,
      "diartikan": 6504,
      "ertakan": 6505,
      "oporsi": 6506,
      "terjual": 6507,
      "Rik": 6508,
      "Alli": 6509,
      "engkapan": 6510,
      "unner": 6511,
      "Lingg": 6512,
      "Shint": 6513,
      "Ring": 6514,
      "Potter": 6515,
      "mengancam": 6516,
      "Syekh": 6517,
      "Golk": 6518,
      "Marco": 6519,
      "Oi": 6520,
      "Research": 6521,
      "Technology": 6522,
      "erep": 6523,
      "dipaksa": 6524,
      "agg": 6525,
      "emberitah": 6526,
      "etic": 6527,
      "etit": 6528,
      "Persib": 6529,
      "Sony": 6530,
      "agri": 6531,
      "deskripsik": 6532,
      "ularitas": 6533,
      "eleskop": 6534,
      "Afganist": 6535,
      "deskripsikan": 6536,
      "Afganistan": 6537,
      "Karna": 6538,
      "Merupakan": 6539,
      "Mayoritas": 6540,
      "geril": 6541,
      "kesuksesan": 6542,
      "kerugian": 6543,
      "oyono": 6544,
      "pungg": 6545,
      "puluhan": 6546,
      "Î¹": 6547,
      "dalan": 6548,
      "elitung": 6549,
      "Blue": 6550,
      "Aztek": 6551,
      "elektromagnetik": 6552,
      "Golkar": 6553,
      "Belitung": 6554,
      "Penyi": 6555,
      "Rw": 6556,
      "ketujuh": 6557,
      "konfigurasi": 6558,
      "nflasi": 6559,
      "inflasi": 6560,
      "penerbitan": 6561,
      "peluncuran": 6562,
      "Äĩ": 6563,
      "ujang": 6564,
      "Singl": 6565,
      "berakhirn": 6566,
      "Sains": 6567,
      "akiman": 6568,
      "eill": 6569,
      "oducti": 6570,
      "pengambilan": 6571,
      "Anglik": 6572,
      "Ronald": 6573,
      "berakhirny": 6574,
      "berakhirnya": 6575,
      "Hakim": 6576,
      "Leste": 6577,
      "Puskesmas": 6578,
      "detail": 6579,
      "menyanyi": 6580,
      "ougl": 6581,
      "pelajari": 6582,
      "pengendali": 6583,
      "yesuai": 6584,
      "ê¦": 6585,
      "enyesuai": 6586,
      "arawang": 6587,
      "emungut": 6588,
      "usian": 6589,
      "erupai": 6590,
      "yerupai": 6591,
      "Ã¡r": 6592,
      "Kejadian": 6593,
      "uwana": 6594,
      "menyimpulkan": 6595,
      "Dwi": 6596,
      "esatria": 6597,
      "Dougl": 6598,
      "Pelatih": 6599,
      "Tern": 6600,
      "aurit": 6601,
      "melek": 6602,
      "pelanggan": 6603,
      "rentang": 6604,
      "Â£": 6605,
      "enyerupai": 6606,
      "menyerupai": 6607,
      "asuransi": 6608,
      "esarkan": 6609,
      "oic": 6610,
      "ditunjukk": 6611,
      "erkali": 6612,
      "persentas": 6613,
      "demokratis": 6614,
      "ditunjukkan": 6615,
      "AW": 6616,
      "Lex": 6617,
      "kenakan": 6618,
      "pengaturan": 6619,
      "terkon": 6620,
      "eresmi": 6621,
      "ahang": 6622,
      "ewarganegara": 6623,
      "osid": 6624,
      "ambig": 6625,
      "Miny": 6626,
      "mengikat": 6627,
      "Ulu": 6628,
      "Gregorian": 6629,
      "Samarin": 6630,
      "Siwa": 6631,
      "Columbia": 6632,
      "oduction": 6633,
      "ewarganegaraan": 6634,
      "Samarind": 6635,
      "Samarinda": 6636,
      "Lot": 6637,
      "Pengi": 6638,
      "Rej": 6639,
      "afari": 6640,
      "sayuran": 6641,
      "Ð²": 6642,
      "ÑĤ": 6643,
      "âĤ": 6644,
      "abolisme": 6645,
      "Alp": 6646,
      "Ark": 6647,
      "urig": 6648,
      "Harri": 6649,
      "Aksar": 6650,
      "Afgh": 6651,
      "erbali": 6652,
      "Habibi": 6653,
      "Librar": 6654,
      "Chicag": 6655,
      "Donald": 6656,
      "Library": 6657,
      "Chicago": 6658,
      "kesultanan": 6659,
      "ledakan": 6660,
      "selir": 6661,
      "sempit": 6662,
      "yok": 6663,
      "aterai": 6664,
      "awk": 6665,
      "akian": 6666,
      "Indonesian": 6667,
      "drew": 6668,
      "Khm": 6669,
      "Baik": 6670,
      "Khalif": 6671,
      "eimbangan": 6672,
      "Aristotel": 6673,
      "Aksara": 6674,
      "mendalam": 6675,
      "usuri": 6676,
      "untuhan": 6677,
      "emperti": 6678,
      "Ans": 6679,
      "awir": 6680,
      "undangan": 6681,
      "Sleman": 6682,
      "puncaknya": 6683,
      "elebihan": 6684,
      "Gill": 6685,
      "Onli": 6686,
      "Ghana": 6687,
      "engecualian": 6688,
      "Capit": 6689,
      "berkontr": 6690,
      "Purwokert": 6691,
      "Anglikan": 6692,
      "Douglas": 6693,
      "Afghan": 6694,
      "Habibie": 6695,
      "Aristoteles": 6696,
      "Onlin": 6697,
      "ASEA": 6698,
      "Mengg": 6699,
      "Rog": 6700,
      "Sq": 6701,
      "berint": 6702,
      "perbolehkan": 6703,
      "enerangan": 6704,
      "Salat": 6705,
      "Wina": 6706,
      "erbank": 6707,
      "meyakink": 6708,
      "Bharat": 6709,
      "erbalik": 6710,
      "Purwokerto": 6711,
      "Online": 6712,
      "meyakinkan": 6713,
      "Jok": 6714,
      "kelaparan": 6715,
      "Ã¬": 6716,
      "Øª": 6717,
      "enolakan": 6718,
      "atuhan": 6719,
      "diperbolehkan": 6720,
      "Tre": 6721,
      "Tain": 6722,
      "Studies": 6723,
      "Main": 6724,
      "Fais": 6725,
      "value": 6726,
      "Artist": 6727,
      "menunggu": 6728,
      "Hang": 6729,
      "Maurit": 6730,
      "[[": 6731,
      "delin": 6732,
      "hentikan": 6733,
      "larangan": 6734,
      "pertahankan": 6735,
      "senang": 6736,
      "Ð»": 6737,
      "dsc": 6738,
      "Singh": 6739,
      "memanj": 6740,
      "Eksek": 6741,
      "White": 6742,
      "ASEAN": 6743,
      "Audi": 6744,
      "Berita": 6745,
      "Lh": 6746,
      "zs": 6747,
      "ÃĹ": 6748,
      "esig": 6749,
      "Andrew": 6750,
      "Asian": 6751,
      "Ell": 6752,
      "Slam": 6753,
      "âĨĴ": 6754,
      "Khmer": 6755,
      "IBM": 6756,
      "adegan": 6757,
      "bersal": 6758,
      "memperti": 6759,
      "nguistik": 6760,
      "inguistik": 6761,
      "oarjo": 6762,
      "rafit": 6763,
      "grafit": 6764,
      "tadion": 6765,
      "stadion": 6766,
      "endis": 6767,
      "odim": 6768,
      "ych": 6769,
      "Edis": 6770,
      "elautan": 6771,
      "erbankan": 6772,
      "Terletak": 6773,
      "doman": 6774,
      "ndahan": 6775,
      "pesta": 6776,
      "wawan": 6777,
      "eluruhnya": 6778,
      "erlom": 6779,
      "ucer": 6780,
      "Himp": 6781,
      "Wangs": 6782,
      "âŃĲâŃĲ": 6783,
      "zair": 6784,
      "kemirin": 6785,
      "Zona": 6786,
      "Vatik": 6787,
      "Apostolik": 6788,
      "Minyak": 6789,
      "wawanc": 6790,
      "erlomb": 6791,
      "kemiring": 6792,
      "kemiringan": 6793,
      "Eg": 6794,
      "GK": 6795,
      "Gatot": 6796,
      "Magn": 6797,
      "seleksi": 6798,
      "yebarkan": 6799,
      "enesia": 6800,
      "Venesia": 6801,
      "enyebarkan": 6802,
      "diduduk": 6803,
      "dikenakan": 6804,
      "artn": 6805,
      "urian": 6806,
      "Krit": 6807,
      "Balk": 6808,
      "Pali": 6809,
      "America": 6810,
      "penyiar": 6811,
      "Analisi": 6812,
      "mempersiap": 6813,
      "Faisal": 6814,
      "Business": 6815,
      "Delta": 6816,
      "Posisi": 6817,
      "dakian": 6818,
      "ilegal": 6819,
      "pembuangan": 6820,
      "yw": 6821,
      "Ã´": 6822,
      "elh": 6823,
      "uron": 6824,
      "adiun": 6825,
      "orizon": 6826,
      "awiy": 6827,
      "Langk": 6828,
      "efisiens": 6829,
      "Johannes": 6830,
      "Dominik": 6831,
      "Hokk": 6832,
      "osida": 6833,
      "Vatikan": 6834,
      "Analisis": 6835,
      "efisiensi": 6836,
      "Network": 6837,
      "Public": 6838,
      "azir": 6839,
      "bertek": 6840,
      "menyebarkan": 6841,
      "serikat": 6842,
      "tugaskan": 6843,
      "ÏĤ": 6844,
      "eruntuhan": 6845,
      "embelian": 6846,
      "Indeks": 6847,
      "ubon": 6848,
      "ulaim": 6849,
      "Sindang": 6850,
      "exas": 6851,
      "Palm": 6852,
      "athan": 6853,
      "menulisk": 6854,
      "Gibr": 6855,
      "Zwi": 6856,
      "Tainan": 6857,
      "Himpunan": 6858,
      "mempersiapk": 6859,
      "menuliskan": 6860,
      "mempersiapkan": 6861,
      "Sulaim": 6862,
      "azil": 6863,
      "bereaksi": 6864,
      "linguistik": 6865,
      "telekomunikasi": 6866,
      "erdekatan": 6867,
      "endakian": 6868,
      "dihentikan": 6869,
      "akati": 6870,
      "engai": 6871,
      "etunjuk": 6872,
      "erpasang": 6873,
      "asist": 6874,
      "Gian": 6875,
      "arca": 6876,
      "realis": 6877,
      "Yudhoyono": 6878,
      "Balikp": 6879,
      "Shinto": 6880,
      "Rwan": 6881,
      "Balikpap": 6882,
      "Rwand": 6883,
      "Balikpapan": 6884,
      "Metropolitan": 6885,
      "Vl": 6886,
      "berput": 6887,
      "kewenangan": 6888,
      "ourg": 6889,
      "peternakan": 6890,
      "pemeriksaan": 6891,
      "á®": 6892,
      "dipertahankan": 6893,
      "âĢ¢": 6894,
      "ahwan": 6895,
      "Anw": 6896,
      "erce": 6897,
      "melakukann": 6898,
      "Emirat": 6899,
      "Prinsi": 6900,
      "ativitas": 6901,
      "sungguh": 6902,
      "persentase": 6903,
      "diduduki": 6904,
      "Gibral": 6905,
      "melakukanny": 6906,
      "Prinsip": 6907,
      "Gibralt": 6908,
      "melakukannya": 6909,
      "Gibraltar": 6910,
      "Jog": 6911,
      "Madiun": 6912,
      "Rasyi": 6913,
      "Reich": 6914,
      "Texas": 6915,
      "azair": 6916,
      "perut": 6917,
      "pemisahan": 6918,
      "volution": 6919,
      "eneruskan": 6920,
      "esuit": 6921,
      "erlari": 6922,
      "Spr": 6923,
      "Wilh": 6924,
      "Ball": 6925,
      "ajalengk": 6926,
      "Oton": 6927,
      "Michi": 6928,
      "Pekan": 6929,
      "Miki": 6930,
      "Poten": 6931,
      "Office": 6932,
      "eigh": 6933,
      "eduks": 6934,
      "politisi": 6935,
      "ersoalan": 6936,
      "Rwanda": 6937,
      "ajalengka": 6938,
      "eduksi": 6939,
      "Cari": 6940,
      "Kulon": 6941,
      "Multi": 6942,
      "Majalah": 6943,
      "Pohon": 6944,
      "Work": 6945,
      "lasifikasikan": 6946,
      "klasifikasikan": 6947,
      "pengungsi": 6948,
      "penasihat": 6949,
      "resep": 6950,
      "ekosistem": 6951,
      "Sekt": 6952,
      "Sisi": 6953,
      "Singapor": 6954,
      "memangg": 6955,
      "Hili": 6956,
      "ertain": 6957,
      "vulkanik": 6958,
      "erhimpunan": 6959,
      "Malta": 6960,
      "Iskand": 6961,
      "Singapore": 6962,
      "AH": 6963,
      "Dang": 6964,
      "ferenc": 6965,
      "meneruskan": 6966,
      "penyemb": 6967,
      "seluruhnya": 6968,
      "verti": 6969,
      "ä¸": 6970,
      "atuhnya": 6971,
      "etabolisme": 6972,
      "emperhati": 6973,
      "Khi": 6974,
      "astrawan": 6975,
      "Perjuangan": 6976,
      "Uran": 6977,
      "Dong": 6978,
      "kendalik": 6979,
      "Isma": 6980,
      "Anwar": 6981,
      "emperhatik": 6982,
      "kendalikan": 6983,
      "emperhatikan": 6984,
      "Adri": 6985,
      "Fox": 6986,
      "MÃ¼n": 6987,
      "berdekatan": 6988,
      "genetika": 6989,
      "perbukitan": 6990,
      "Sti": 6991,
      "Chec": 6992,
      "ulth": 6993,
      "Gin": 6994,
      "Frans": 6995,
      "Amin": 6996,
      "Oct": 6997,
      "Massac": 6998,
      "erbelanjaan": 6999,
      "Salatig": 7000,
      "pengisi": 7001,
      "esign": 7002,
      "erlomba": 7003,
      "Sulaiman": 7004,
      "Potens": 7005,
      "Salatiga": 7006,
      "ABRI": 7007,
      "keadilan": 7008,
      "dipelajari": 7009,
      "urdi": 7010,
      "erhal": 7011,
      "Arn": 7012,
      "Pangg": 7013,
      "meningkatn": 7014,
      "berupay": 7015,
      "Bukt": 7016,
      "terbentukn": 7017,
      "vokali": 7018,
      "Hija": 7019,
      "Honda": 7020,
      "Hilir": 7021,
      "Potensi": 7022,
      "meningkatny": 7023,
      "berupaya": 7024,
      "meningkatnya": 7025,
      "Mengi": 7026,
      "mengusir": 7027,
      "memperhatikan": 7028,
      "pertukaran": 7029,
      "atform": 7030,
      "emari": 7031,
      "Thr": 7032,
      "olitic": 7033,
      "Taip": 7034,
      "Kair": 7035,
      "Ossetia": 7036,
      "emeliharaan": 7037,
      "Athen": 7038,
      "emulihan": 7039,
      "terbentukny": 7040,
      "terbentuknya": 7041,
      "Darwi": 7042,
      "Kesenian": 7043,
      "edoman": 7044,
      "megal": 7045,
      "uahan": 7046,
      "erowongan": 7047,
      "arungan": 7048,
      "diklasifikasikan": 7049,
      "akon": 7050,
      "owakia": 7051,
      "ualis": 7052,
      "Clark": 7053,
      "ermais": 7054,
      "Schi": 7055,
      "temann": 7056,
      "Philosoph": 7057,
      "Missi": 7058,
      "Pendirian": 7059,
      "vekt": 7060,
      "Akuntans": 7061,
      "mempertim": 7062,
      "ermaisuri": 7063,
      "temanny": 7064,
      "Akuntansi": 7065,
      "mempertimb": 7066,
      "temannya": 7067,
      "mempertimbang": 7068,
      "Mp": 7069,
      "Tog": 7070,
      "keanggotaan": 7071,
      "perselisihan": 7072,
      "akub": 7073,
      "amr": 7074,
      "esort": 7075,
      "ajakan": 7076,
      "opularitas": 7077,
      "akik": 7078,
      "Ciam": 7079,
      "ocal": 7080,
      "fram": 7081,
      "Social": 7082,
      "pengikutn": 7083,
      "Eston": 7084,
      "Friedri": 7085,
      "Ethiopia": 7086,
      "Eksekut": 7087,
      "mempertimbangk": 7088,
      "pengikutny": 7089,
      "Estoni": 7090,
      "Friedric": 7091,
      "mempertimbangkan": 7092,
      "Friedrich": 7093,
      "Cook": 7094,
      "GE": 7095,
      "Hewan": 7096,
      "Matematika": 7097,
      "berga": 7098,
      "holm": 7099,
      "khawatir": 7100,
      "pasok": 7101,
      "erusan": 7102,
      "ditugaskan": 7103,
      "dikendalikan": 7104,
      "ehut": 7105,
      "Moto": 7106,
      "enapan": 7107,
      "Titani": 7108,
      "Books": 7109,
      "elkom": 7110,
      "engasingan": 7111,
      "âĤ¬": 7112,
      "vokalis": 7113,
      "pengikutnya": 7114,
      "Majalengka": 7115,
      "Nugi": 7116,
      "Perikanan": 7117,
      "semenjak": 7118,
      "asg": 7119,
      "akawi": 7120,
      "Ã©l": 7121,
      "finan": 7122,
      "ursus": 7123,
      "Siri": 7124,
      "ungkapan": 7125,
      "Aktor": 7126,
      "Ã¼ri": 7127,
      "Salib": 7128,
      "elief": 7129,
      "Hijri": 7130,
      "ambigu": 7131,
      "Wilhel": 7132,
      "Bukti": 7133,
      "Eksekuti": 7134,
      "ehutan": 7135,
      "Wilhelm": 7136,
      "Eksekutif": 7137,
      "ehutanan": 7138,
      "Fut": 7139,
      "koordinat": 7140,
      "kompil": 7141,
      "erungg": 7142,
      "atusnya": 7143,
      "Asc": 7144,
      "ultural": 7145,
      "mengim": 7146,
      "Anth": 7147,
      "agnosis": 7148,
      "Sangg": 7149,
      "agist": 7150,
      "Spac": 7151,
      "etualangan": 7152,
      "Psik": 7153,
      "Bagai": 7154,
      "Medit": 7155,
      "batalkan": 7156,
      "dahal": 7157,
      "adahal": 7158,
      "memuk": 7159,
      "zebr": 7160,
      "enburg": 7161,
      "ematang": 7162,
      "President": 7163,
      "ambal": 7164,
      "ercayai": 7165,
      "esimp": 7166,
      "Somalil": 7167,
      "ummer": 7168,
      "Total": 7169,
      "Somalilan": 7170,
      "Somaliland": 7171,
      "Hog": 7172,
      "Nuk": 7173,
      "Reaksi": 7174,
      "darkan": 7175,
      "golongkan": 7176,
      "nobatkan": 7177,
      "offic": 7178,
      "oulth": 7179,
      "Coulth": 7180,
      "perencanaan": 7181,
      "ÏĦ": 7182,
      "etahan": 7183,
      "opag": 7184,
      "obb": 7185,
      "Chai": 7186,
      "Big": 7187,
      "fruddin": 7188,
      "afruddin": 7189,
      "eindahan": 7190,
      "Dri": 7191,
      "akrab": 7192,
      "Terjemahan": 7193,
      "asyim": 7194,
      "Virgini": 7195,
      "Arafat": 7196,
      "wawancar": 7197,
      "Iskandar": 7198,
      "Coulthar": 7199,
      "Coulthard": 7200,
      "Gai": 7201,
      "Telkom": 7202,
      "berman": 7203,
      "majelis": 7204,
      "tergabung": 7205,
      "zl": 7206,
      "Äį": 7207,
      "ditakluk": 7208,
      "dinobatkan": 7209,
      "umusan": 7210,
      "Ngan": 7211,
      "Cross": 7212,
      "maksimal": 7213,
      "menyingk": 7214,
      "kolekti": 7215,
      "Fuk": 7216,
      "Luft": 7217,
      "Pelaksana": 7218,
      "Town": 7219,
      "pulih": 7220,
      "uvi": 7221,
      "ØŃ": 7222,
      "diawali": 7223,
      "omering": 7224,
      "opot": 7225,
      "Sidang": 7226,
      "argai": 7227,
      "astil": 7228,
      "estis": 7229,
      "engurangan": 7230,
      "Tujuh": 7231,
      "Salim": 7232,
      "menghapus": 7233,
      "Buddhism": 7234,
      "elektrod": 7235,
      "erunggu": 7236,
      "zebra": 7237,
      "Pabrik": 7238,
      "berikl": 7239,
      "pembelian": 7240,
      "roporsi": 7241,
      "soal": 7242,
      "atup": 7243,
      "dibatalkan": 7244,
      "ulungan": 7245,
      "epausan": 7246,
      "kepausan": 7247,
      "enium": 7248,
      "Amr": 7249,
      "She": 7250,
      "pentingn": 7251,
      "mengandalkan": 7252,
      "posisin": 7253,
      "publikasi": 7254,
      "ochi": 7255,
      "Zim": 7256,
      "Planet": 7257,
      "esimpulan": 7258,
      "pentingny": 7259,
      "posisiny": 7260,
      "pentingnya": 7261,
      "posisinya": 7262,
      "Resimen": 7263,
      "berlakukan": 7264,
      "kerajinan": 7265,
      "pembantu": 7266,
      "proporsi": 7267,
      "yambut": 7268,
      "ÅŁ": 7269,
      "enyambut": 7270,
      "engl": 7271,
      "oldi": 7272,
      "owar": 7273,
      "Palu": 7274,
      "ayangn": 7275,
      "Link": 7276,
      "asilik": 7277,
      "erluka": 7278,
      "Williams": 7279,
      "valuasi": 7280,
      "Galil": 7281,
      "filiasi": 7282,
      "Achm": 7283,
      "Lohan": 7284,
      "dsch": 7285,
      "Massach": 7286,
      "Kairo": 7287,
      "Titanic": 7288,
      "Massachus": 7289,
      "Hati": 7290,
      "Komering": 7291,
      "Marga": 7292,
      "Medang": 7293,
      "hadiri": 7294,
      "lulusan": 7295,
      "amt": 7296,
      "enir": 7297,
      "Pik": 7298,
      "ahrai": 7299,
      "Bahrai": 7300,
      "hubungann": 7301,
      "zho": 7302,
      "Visi": 7303,
      "Rute": 7304,
      "kemanusiaan": 7305,
      "Peringk": 7306,
      "memperingati": 7307,
      "memecahk": 7308,
      "Encyclopedia": 7309,
      "berkontri": 7310,
      "deling": 7311,
      "asisten": 7312,
      "ayangny": 7313,
      "asilika": 7314,
      "Bahrain": 7315,
      "Peringkat": 7316,
      "memecahkan": 7317,
      "berkontrib": 7318,
      "ayangnya": 7319,
      "berkontribusi": 7320,
      "Herman": 7321,
      "Pai": 7322,
      "Rudi": 7323,
      "Sesuai": 7324,
      "Terbuk": 7325,
      "WH": 7326,
      "Warga": 7327,
      "bawahan": 7328,
      "terlepas": 7329,
      "yaksi": 7330,
      "ÙĴ": 7331,
      "enyaksi": 7332,
      "digolongkan": 7333,
      "diberlakukan": 7334,
      "epakati": 7335,
      "embatasan": 7336,
      "erty": 7337,
      "erins": 7338,
      "etir": 7339,
      "Perjal": 7340,
      "fred": 7341,
      "didapatk": 7342,
      "Virginia": 7343,
      "Massachuset": 7344,
      "hubunganny": 7345,
      "enyaksik": 7346,
      "Perjalan": 7347,
      "didapatkan": 7348,
      "Massachusett": 7349,
      "hubungannya": 7350,
      "enyaksikan": 7351,
      "Perjalanan": 7352,
      "Hasyim": 7353,
      "Publish": 7354,
      "revolusioner": 7355,
      "zerbai": 7356,
      "Azerbai": 7357,
      "atvi": 7358,
      "umon": 7359,
      "umuskan": 7360,
      "edim": 7361,
      "menghal": 7362,
      "Trai": 7363,
      "Jepar": 7364,
      "emikon": 7365,
      "Perangk": 7366,
      "Angkut": 7367,
      "kerjakan": 7368,
      "Insp": 7369,
      "Adian": 7370,
      "Yoni": 7371,
      "punggung": 7372,
      "Zwin": 7373,
      "akawin": 7374,
      "wawancara": 7375,
      "berikli": 7376,
      "Massachusetts": 7377,
      "Azerbaij": 7378,
      "Jepara": 7379,
      "beriklim": 7380,
      "Azerbaijan": 7381,
      "Idri": 7382,
      "Mex": 7383,
      "Tentang": 7384,
      "helikopter": 7385,
      "menyaksikan": 7386,
      "anarkis": 7387,
      "enemui": 7388,
      "menemui": 7389,
      "urasia": 7390,
      "epolisian": 7391,
      "kepolisian": 7392,
      "abal": 7393,
      "ertap": 7394,
      "ertarungan": 7395,
      "erkunj": 7396,
      "ultr": 7397,
      "urip": 7398,
      "umpuk": 7399,
      "Dron": 7400,
      "finit": 7401,
      "faktur": 7402,
      "Mikh": 7403,
      "CEO": 7404,
      "Rossi": 7405,
      "etkan": 7406,
      "Pasca": 7407,
      "eoti": 7408,
      "Fami": 7409,
      "pemakaian": 7410,
      "Valle": 7411,
      "Zwing": 7412,
      "erkunjung": 7413,
      "Zwingl": 7414,
      "Zwingli": 7415,
      "\":": 7416,
      "German": 7417,
      "Golongan": 7418,
      "Perekonomian": 7419,
      "baterai": 7420,
      "berkunjung": 7421,
      "loit": 7422,
      "perpi": 7423,
      "penetap": 7424,
      "penyelesaian": 7425,
      "emasok": 7426,
      "enth": 7427,
      "olig": 7428,
      "Mig": 7429,
      "Hidang": 7430,
      "urik": 7431,
      "Scr": 7432,
      "memenangi": 7433,
      "Cili": 7434,
      "Ujung": 7435,
      "Bagaim": 7436,
      "Mexi": 7437,
      "Hidangan": 7438,
      "Bagaiman": 7439,
      "Latvi": 7440,
      "petunjuk": 7441,
      "sambut": 7442,
      "tunduk": 7443,
      "engakuisisi": 7444,
      "ermohon": 7445,
      "ermion": 7446,
      "Att": 7447,
      "perkembangann": 7448,
      "Wisn": 7449,
      "erlibatan": 7450,
      "fotog": 7451,
      "Firs": 7452,
      "Kirg": 7453,
      "osint": 7454,
      "Aljazair": 7455,
      "Steph": 7456,
      "Achma": 7457,
      "Idris": 7458,
      "perkembanganny": 7459,
      "Achmad": 7460,
      "perkembangannya": 7461,
      "Pesisir": 7462,
      "memelihara": 7463,
      "ndungi": 7464,
      "penolakan": 7465,
      "endral": 7466,
      "engucapan": 7467,
      "eterlibatan": 7468,
      "epresidenan": 7469,
      "abj": 7470,
      "erpot": 7471,
      "menggulingkan": 7472,
      "penghorm": 7473,
      "Afric": 7474,
      "Sjahrir": 7475,
      "Wri": 7476,
      "religius": 7477,
      "spesiali": 7478,
      "Demokratik": 7479,
      "eople": 7480,
      "surga": 7481,
      "memanggi": 7482,
      "Buddhisme": 7483,
      "emikonduk": 7484,
      "fotogr": 7485,
      "First": 7486,
      "penghormat": 7487,
      "memanggil": 7488,
      "penghormatan": 7489,
      "Hass": 7490,
      "Iw": 7491,
      "Toba": 7492,
      "indungi": 7493,
      "kepresidenan": 7494,
      "lindungi": 7495,
      "mengakuisisi": 7496,
      "sternal": 7497,
      "anewon": 7498,
      "dikelompok": 7499,
      "eseimbangan": 7500,
      "eksternal": 7501,
      "ermot": 7502,
      "Umumnya": 7503,
      "omputasi": 7504,
      "Cilegon": 7505,
      "unisia": 7506,
      "Emil": 7507,
      "Gramm": 7508,
      "dakwah": 7509,
      "Halim": 7510,
      "engerjakan": 7511,
      "Yudis": 7512,
      "Afghani": 7513,
      "Mexic": 7514,
      "ermohonan": 7515,
      "spesialis": 7516,
      "emikondukt": 7517,
      "fotogra": 7518,
      "Belakang": 7519,
      "Kodim": 7520,
      "Perhubungan": 7521,
      "Terakhir": 7522,
      "azm": 7523,
      "eunggulan": 7524,
      "kabis": 7525,
      "persoalan": 7526,
      "vl": 7527,
      "vorit": 7528,
      "avorit": 7529,
      "yatukan": 7530,
      "enyatukan": 7531,
      "urp": 7532,
      "Inn": 7533,
      "osek": 7534,
      "embala": 7535,
      "arboh": 7536,
      "Bism": 7537,
      "erhitung": 7538,
      "UKM": 7539,
      "Eric": 7540,
      "pertimbangan": 7541,
      "vektor": 7542,
      "Perangkat": 7543,
      "gengg": 7544,
      "ioskop": 7545,
      "bioskop": 7546,
      "memotong": 7547,
      "metabolisme": 7548,
      "mengerjakan": 7549,
      "pedia": 7550,
      "perbelanjaan": 7551,
      "pengasingan": 7552,
      "terluka": 7553,
      "elegr": 7554,
      "obr": 7555,
      "edin": 7556,
      "dron": 7557,
      "Asis": 7558,
      "||||": 7559,
      "etny": 7560,
      "Yehu": 7561,
      "deklarasikan": 7562,
      "Angkutan": 7563,
      "Latvia": 7564,
      "kabisat": 7565,
      "arbohi": 7566,
      "genggam": 7567,
      "etnya": 7568,
      "arbohidr": 7569,
      "arbohidrat": 7570,
      "Bucer": 7571,
      "Hawai": 7572,
      "Jr": 7573,
      "Koordinat": 7574,
      "Medic": 7575,
      "Perencanaan": 7576,
      "Tajik": 7577,
      "badian": 7578,
      "pembebasan": 7579,
      "emurni": 7580,
      "edih": 7581,
      "Arr": 7582,
      "Pih": 7583,
      "aktian": 7584,
      "dekatn": 7585,
      "Mick": 7586,
      "Urusan": 7587,
      "atematikawan": 7588,
      "zhou": 7589,
      "penetapan": 7590,
      "emikonduktor": 7591,
      "Senj": 7592,
      "jajahan": 7593,
      "menyatukan": 7594,
      "ÅĤ": 7595,
      "enyap": 7596,
      "ardh": 7597,
      "diusulkan": 7598,
      "usahan": 7599,
      "abumi": 7600,
      "ersh": 7601,
      "Asm": 7602,
      "Agus": 7603,
      "olitek": 7604,
      "Ã©t": 7605,
      "etigan": 7606,
      "Harian": 7607,
      "Etn": 7608,
      "ellig": 7609,
      "Jatin": 7610,
      "Nicol": 7611,
      "estri": 7612,
      "Billb": 7613,
      "ahyangan": 7614,
      "Athena": 7615,
      "abja": 7616,
      "Asist": 7617,
      "dekatny": 7618,
      "olitekn": 7619,
      "etigany": 7620,
      "Billbo": 7621,
      "dekatnya": 7622,
      "olitekni": 7623,
      "etiganya": 7624,
      "Billboar": 7625,
      "oliteknik": 7626,
      "Hein": 7627,
      "Pengan": 7628,
      "ibadian": 7629,
      "penyelidikan": 7630,
      "rujuk": 7631,
      "ribadian": 7632,
      "tatusnya": 7633,
      "statusnya": 7634,
      "ufaktur": 7635,
      "yerangan": 7636,
      "Ïģ": 7637,
      "Ùĩ": 7638,
      "anufaktur": 7639,
      "enarkan": 7640,
      "enyerangan": 7641,
      "dilindungi": 7642,
      "onfirm": 7643,
      "usulan": 7644,
      "etawi": 7645,
      "ehakiman": 7646,
      "erkumpulan": 7647,
      "ovic": 7648,
      "sejarahn": 7649,
      "berisik": 7650,
      "pengangg": 7651,
      "Const": 7652,
      "engepungan": 7653,
      "Upay": 7654,
      "Antonio": 7655,
      "×Ļ×": 7656,
      "Sektor": 7657,
      "Adiant": 7658,
      "Kirgi": 7659,
      "sejarahny": 7660,
      "sejarahnya": 7661,
      "**": 7662,
      "Karawang": 7663,
      "Lt": 7664,
      "Merapi": 7665,
      "belan": 7666,
      "setinggi": 7667,
      "vaksi": 7668,
      "yafruddin": 7669,
      "Syafruddin": 7670,
      "ebek": 7671,
      "empek": 7672,
      "Umat": 7673,
      "Fire": 7674,
      "Litt": 7675,
      "Wonog": 7676,
      "Dekl": 7677,
      "Khalifah": 7678,
      "finans": 7679,
      "abjad": 7680,
      "Billboard": 7681,
      "vaksin": 7682,
      "finansi": 7683,
      "finansial": 7684,
      "Kompleks": 7685,
      "Rup": 7686,
      "Ug": 7687,
      "eelin": 7688,
      "jatuhnya": 7689,
      "nental": 7690,
      "inental": 7691,
      "yent": 7692,
      "aguk": 7693,
      "embatalkan": 7694,
      "esit": 7695,
      "aktat": 7696,
      "artic": 7697,
      "Utr": 7698,
      "oston": 7699,
      "Sejarawan": 7700,
      "Simal": 7701,
      "egist": 7702,
      "enilaian": 7703,
      "dieksp": 7704,
      "penanggal": 7705,
      "Chech": 7706,
      "ertapa": 7707,
      "penanggalan": 7708,
      "Kesatuan": 7709,
      "March": 7710,
      "Rahwan": 7711,
      "membatalkan": 7712,
      "uaskan": 7713,
      "wewenang": 7714,
      "yuris": 7715,
      "zr": 7716,
      "Ø¹": 7717,
      "enosida": 7718,
      "emohon": 7719,
      "fragm": 7720,
      "arlos": 7721,
      "Carlos": 7722,
      "Cong": 7723,
      "Esp": 7724,
      "Ã©ri": 7725,
      "Baris": 7726,
      "Abbas": 7727,
      "akapan": 7728,
      "mengejar": 7729,
      "ference": 7730,
      "Afghanis": 7731,
      "Pihak": 7732,
      "Asisten": 7733,
      "Wonogi": 7734,
      "Rahwana": 7735,
      "Wonogir": 7736,
      "Wonogiri": 7737,
      "Yesuit": 7738,
      "besarkan": 7739,
      "cendekiawan": 7740,
      "kedai": 7741,
      "nasihat": 7742,
      "odh": 7743,
      "ods": 7744,
      "perganti": 7745,
      "renang": 7746,
      "ebl": 7747,
      "eboman": 7748,
      "engeboman": 7749,
      "etegang": 7750,
      "erih": 7751,
      "ertep": 7752,
      "ucut": 7753,
      "abrak": 7754,
      "Ahme": 7755,
      "Mekk": 7756,
      "yce": 7757,
      "agram": 7758,
      "McL": 7759,
      "ootb": 7760,
      "sosialism": 7761,
      "Titik": 7762,
      "Upaya": 7763,
      "Deklar": 7764,
      "etegangan": 7765,
      "ootbal": 7766,
      "sosialisme": 7767,
      "cucu": 7768,
      "peluang": 7769,
      "semikonduktor": 7770,
      "terci": 7771,
      "andalan": 7772,
      "menggal": 7773,
      "Dre": 7774,
      "Pint": 7775,
      "Smur": 7776,
      "PER": 7777,
      "enewa": 7778,
      "GNO": 7779,
      "Sudir": 7780,
      "Famil": 7781,
      "agukan": 7782,
      "Afghanist": 7783,
      "pergantian": 7784,
      "Ahmed": 7785,
      "Afghanistan": 7786,
      "Boston": 7787,
      "Jenewa": 7788,
      "Kembali": 7789,
      "Katedral": 7790,
      "Tunisia": 7791,
      "bumb": 7792,
      "demisi": 7793,
      "pengecualian": 7794,
      "yajikan": 7795,
      "Îµ": 7796,
      "enyent": 7797,
      "engorban": 7798,
      "akir": 7799,
      "sepertig": 7800,
      "Piet": 7801,
      "Gren": 7802,
      "Nasionali": 7803,
      "Informati": 7804,
      "abst": 7805,
      "ketidaks": 7806,
      "Qing": 7807,
      "ersahabatan": 7808,
      "elsin": 7809,
      "Mpu": 7810,
      "opagan": 7811,
      "Adiantum": 7812,
      "ootball": 7813,
      "GNOM": 7814,
      "GNOME": 7815,
      "Kompon": 7816,
      "Nang": 7817,
      "Sok": 7818,
      "batasan": 7819,
      "dasari": 7820,
      "ovsk": 7821,
      "enyajikan": 7822,
      "ekeliling": 7823,
      "sekeliling": 7824,
      "abw": 7825,
      "fia": 7826,
      "erkam": 7827,
      "olki": 7828,
      "Mikr": 7829,
      "emoni": 7830,
      "arukan": 7831,
      "Single": 7832,
      "Lexus": 7833,
      "Yonif": 7834,
      "Drona": 7835,
      "Mekkah": 7836,
      "Nasionalis": 7837,
      "KÃ¶": 7838,
      "UL": 7839,
      "bersedia": 7840,
      "ederlan": 7841,
      "kementerian": 7842,
      "koordinasi": 7843,
      "mengep": 7844,
      "memberitah": 7845,
      "menyajikan": 7846,
      "pengurangan": 7847,
      "asic": 7848,
      "embek": 7849,
      "erton": 7850,
      "ercan": 7851,
      "Nias": 7852,
      "elektri": 7853,
      "sesuaik": 7854,
      "Pinang": 7855,
      "Raid": 7856,
      "Visual": 7857,
      "Mountai": 7858,
      "ersangkut": 7859,
      "beranggot": 7860,
      "Force": 7861,
      "Joko": 7862,
      "memanjang": 7863,
      "Galile": 7864,
      "Yehud": 7865,
      "eeling": 7866,
      "sesuaikan": 7867,
      "Mountain": 7868,
      "bawang": 7869,
      "fdeling": 7870,
      "keindahan": 7871,
      "endeteksi": 7872,
      "diajarkan": 7873,
      "dikerjakan": 7874,
      "asial": 7875,
      "Prusia": 7876,
      "Diperkirakan": 7877,
      "Lik": 7878,
      "ention": 7879,
      "Conn": 7880,
      "Olymp": 7881,
      "oxi": 7882,
      "ersenjataan": 7883,
      "Ritus": 7884,
      "Soepr": 7885,
      "Uranus": 7886,
      "elektrode": 7887,
      "Bersenjata": 7888,
      "Dap": 7889,
      "Lup": 7890,
      "Tahap": 7891,
      "afiliasi": 7892,
      "perebut": 7893,
      "tarekat": 7894,
      "ersan": 7895,
      "ologic": 7896,
      "Sukoharjo": 7897,
      "Angkor": 7898,
      "Singk": 7899,
      "meling": 7900,
      "euts": 7901,
      "Walau": 7902,
      "voni": 7903,
      "Fair": 7904,
      "Editi": 7905,
      "Slamet": 7906,
      "Darwin": 7907,
      "Simalung": 7908,
      "Deklarasi": 7909,
      "melingk": 7910,
      "Simalungun": 7911,
      "Born": 7912,
      "Kasih": 7913,
      "ademisi": 7914,
      "buahan": 7915,
      "keseimbangan": 7916,
      "latform": 7917,
      "oaktif": 7918,
      "pemut": 7919,
      "vai": 7920,
      "yerahan": 7921,
      "ÙĲ": 7922,
      "enyerahan": 7923,
      "didesain": 7924,
      "akademisi": 7925,
      "esok": 7926,
      "uwon": 7927,
      "Liberi": 7928,
      "Bond": 7929,
      "urce": 7930,
      "Logi": 7931,
      "nasionalism": 7932,
      "Nepal": 7933,
      "diperintahk": 7934,
      "elph": 7935,
      "emujaan": 7936,
      "Exch": 7937,
      "Squ": 7938,
      "berinteraksi": 7939,
      "ubond": 7940,
      "Space": 7941,
      "kolektif": 7942,
      "dikelompokk": 7943,
      "Utrec": 7944,
      "diperintahkan": 7945,
      "dikelompokkan": 7946,
      "Utrech": 7947,
      "Mahap": 7948,
      "Nederlan": 7949,
      "Zub": 7950,
      "delta": 7951,
      "nasib": 7952,
      "ource": 7953,
      "enolong": 7954,
      "ugg": 7955,
      "ormon": 7956,
      "ucl": 7957,
      "politikn": 7958,
      "Sukarn": 7959,
      "usnah": 7960,
      "eronc": 7961,
      "Phot": 7962,
      "Ond": 7963,
      "Chrisy": 7964,
      "Sekretariat": 7965,
      "Trinit": 7966,
      "Baltik": 7967,
      "Bibliog": 7968,
      "Taipei": 7969,
      "Estonia": 7970,
      "Nugin": 7971,
      "pengangguran": 7972,
      "Yehuda": 7973,
      "Utrecht": 7974,
      "politikny": 7975,
      "Chrisye": 7976,
      "Bibliogr": 7977,
      "Nugini": 7978,
      "politiknya": 7979,
      "Earth": 7980,
      "Helsin": 7981,
      "Koh": 7982,
      "Karangan": 7983,
      "Mazhab": 7984,
      "Selang": 7985,
      "platform": 7986,
      "vn": 7987,
      "engulang": 7988,
      "Brown": 7989,
      "Asahan": 7990,
      "eritorial": 7991,
      "datangk": 7992,
      "Teks": 7993,
      "Engi": 7994,
      "erangga": 7995,
      "Stockholm": 7996,
      "Insid": 7997,
      "awiyah": 7998,
      "Terbuka": 7999,
      "loitasi": 8000,
      "Yudist": 8001,
      "abstr": 8002,
      "Exchang": 8003,
      "ubondo": 8004,
      "datangkan": 8005,
      "Yudisti": 8006,
      "Yudistir": 8007,
      "Yudistira": 8008,
      "Betawi": 8009,
      "Hz": 8010,
      "Hermion": 8011,
      "Kehormatan": 8012,
      "MTV": 8013,
      "Nuh": 8014,
      "Perint": 8015,
      "Website": 8016,
      "ZÃ¼ri": 8017,
      "beliau": 8018,
      "dasikan": 8019,
      "eok": 8020,
      "Å¡": 8021,
      "enedik": 8022,
      "endri": 8023,
      "onesia": 8024,
      "olal": 8025,
      "asiy": 8026,
      "Rib": 8027,
      "estig": 8028,
      "Johns": 8029,
      "Nigh": 8030,
      "Epis": 8031,
      "mengapa": 8032,
      "Jongg": 8033,
      "ermarkas": 8034,
      "Kriti": 8035,
      "Mediter": 8036,
      "Hawaii": 8037,
      "Smurf": 8038,
      "abwe": 8039,
      "Exchange": 8040,
      "</": 8041,
      "Benedik": 8042,
      "GAM": 8043,
      "Masing": 8044,
      "bertep": 8045,
      "edunia": 8046,
      "memohon": 8047,
      "disesuaikan": 8048,
      "elc": 8049,
      "eterusnya": 8050,
      "elic": 8051,
      "erekr": 8052,
      "akhs": 8053,
      "Monak": 8054,
      "Situbondo": 8055,
      "etingk": 8056,
      "Mekan": 8057,
      "Riset": 8058,
      "zuki": 8059,
      "erundingan": 8060,
      "Benedikt": 8061,
      "Monako": 8062,
      "etingkat": 8063,
      "GÃ¶": 8064,
      "Politeknik": 8065,
      "Volk": 8066,
      "babwe": 8067,
      "menilai": 8068,
      "mendis": 8069,
      "menyent": 8070,
      "patog": 8071,
      "rentan": 8072,
      "sambigu": 8073,
      "uarai": 8074,
      "vang": 8075,
      "ancarkan": 8076,
      "enunjang": 8077,
      "arunia": 8078,
      "elarut": 8079,
      "orok": 8080,
      "enih": 8081,
      "estern": 8082,
      "Inti": 8083,
      "Nit": 8084,
      "erkin": 8085,
      "Iml": 8086,
      "Kapi": 8087,
      "perjalanann": 8088,
      "erencanakan": 8089,
      "obser": 8090,
      "Ilir": 8091,
      "ujangg": 8092,
      "Balkan": 8093,
      "Zimbabwe": 8094,
      "beranggotakan": 8095,
      "nasionalisme": 8096,
      "Engin": 8097,
      "Hermione": 8098,
      "Imlek": 8099,
      "perjalananny": 8100,
      "observ": 8101,
      "perjalanannya": 8102,
      "doarjo": 8103,
      "penyerangan": 8104,
      "venia": 8105,
      "Ãª": 8106,
      "epergi": 8107,
      "erpenduduk": 8108,
      "Brook": 8109,
      "uce": 8110,
      "Enam": 8111,
      "Klasifik": 8112,
      "erick": 8113,
      "meland": 8114,
      "erpecah": 8115,
      "Syiah": 8116,
      "Simbol": 8117,
      "eille": 8118,
      "erlombaan": 8119,
      "erinsp": 8120,
      "Valley": 8121,
      "osintesis": 8122,
      "sepertiga": 8123,
      "Liberia": 8124,
      "eroncon": 8125,
      "Night": 8126,
      "erekrut": 8127,
      "Mekani": 8128,
      "sambiguasi": 8129,
      "epergian": 8130,
      "eroncong": 8131,
      "Person": 8132,
      "Wetan": 8133,
      "destinasi": 8134,
      "kumpulkan": 8135,
      "metan": 8136,
      "merencanakan": 8137,
      "ovenia": 8138,
      "setingkat": 8139,
      "diidentifikasi": 8140,
      "asej": 8141,
      "etl": 8142,
      "ernar": 8143,
      "Sidoarjo": 8144,
      "ulip": 8145,
      "erharap": 8146,
      "akson": 8147,
      "dikenali": 8148,
      "Ens": 8149,
      "Transi": 8150,
      "Slovenia": 8151,
      "arlement": 8152,
      "pengangkat": 8153,
      "Dominika": 8154,
      "Hijau": 8155,
      "Wisnu": 8156,
      "opagand": 8157,
      "elphi": 8158,
      "ZÃ¼ric": 8159,
      "Klasifikasi": 8160,
      "erinspi": 8161,
      "opaganda": 8162,
      "ZÃ¼rich": 8163,
      "erinspir": 8164,
      "Kyot": 8165,
      "ayati": 8166,
      "pembatasan": 8167,
      "permohonan": 8168,
      "teleskop": 8169,
      "elemahan": 8170,
      "ersk": 8171,
      "Alfred": 8172,
      "MiG": 8173,
      "Wib": 8174,
      "Lont": 8175,
      "dugaan": 8176,
      "Logo": 8177,
      "vertik": 8178,
      "akikat": 8179,
      "Hassan": 8180,
      "Helsink": 8181,
      "ujangga": 8182,
      "Helsinki": 8183,
      "BO": 8184,
      "Menc": 8185,
      "Ruk": 8186,
      "berpenduduk": 8187,
      "kambing": 8188,
      "perbankan": 8189,
      "ÙĢ": 8190,
      "à¥": 8191,
      "dihadiri": 8192,
      "ecurit": 8193,
      "ernap": 8194,
      "enic": 8195,
      "erinfek": 8196,
      "terinfek": 8197,
      "Alor": 8198,
      "erhentikan": 8199,
      "Ain": 8200,
      "Orl": 8201,
      "PDI": 8202,
      "Christoph": 8203,
      "asram": 8204,
      "Ã¼rk": 8205,
      "Philipp": 8206,
      "With": 8207,
      "Tonga": 8208,
      "Lintang": 8209,
      "Hika": 8210,
      "elimpah": 8211,
      "oice": 8212,
      "MÃ¼nc": 8213,
      "Ciami": 8214,
      "bermanf": 8215,
      "Micke": 8216,
      "Informatik": 8217,
      "erinspirasi": 8218,
      "Kyoto": 8219,
      "terinfeks": 8220,
      "MÃ¼nch": 8221,
      "Ciamis": 8222,
      "bermanfa": 8223,
      "Informatika": 8224,
      "terinfeksi": 8225,
      "bermanfaat": 8226,
      "Eurasia": 8227,
      "Pembebasan": 8228,
      "Sendang": 8229,
      "evaluasi": 8230,
      "kesatria": 8231,
      "popularitas": 8232,
      "udai": 8233,
      "undai": 8234,
      "engelompok": 8235,
      "ulir": 8236,
      "erpengh": 8237,
      "ungkung": 8238,
      "abir": 8239,
      "yne": 8240,
      "Urb": 8241,
      "Nike": 8242,
      "Marino": 8243,
      "Walter": 8244,
      "demonstrasi": 8245,
      "Righ": 8246,
      "optimal": 8247,
      "menyingki": 8248,
      "Lufth": 8249,
      "oldin": 8250,
      "Senjat": 8251,
      "eutsc": 8252,
      "vertikal": 8253,
      "Hikay": 8254,
      "menyingkir": 8255,
      "eutsch": 8256,
      "Hikayat": 8257,
      "Bagh": 8258,
      "Perti": 8259,
      "Penerangan": 8260,
      "SV": 8261,
      "Tulis": 8262,
      "berpengh": 8263,
      "evolution": 8264,
      "matematikawan": 8265,
      "melimpah": 8266,
      "oys": 8267,
      "pertarungan": 8268,
      "serangga": 8269,
      "erdasan": 8270,
      "epup": 8271,
      "ercerai": 8272,
      "kembalik": 8273,
      "eristir": 8274,
      "Dhan": 8275,
      "Oil": 8276,
      "menghalang": 8277,
      "Ltd": 8278,
      "Edition": 8279,
      "Mickey": 8280,
      "Right": 8281,
      "XIII": 8282,
      "kenang": 8283,
      "kesimpulan": 8284,
      "memulih": 8285,
      "pengucapan": 8286,
      "rebut": 8287,
      "resik": 8288,
      "vestig": 8289,
      "yudi": 8290,
      "emoc": 8291,
      "engurai": 8292,
      "etuk": 8293,
      "Stein": 8294,
      "Grah": 8295,
      "ambik": 8296,
      "Republic": 8297,
      "flui": 8298,
      "Instr": 8299,
      "Ess": 8300,
      "magnetik": 8301,
      "Ã¨r": 8302,
      "Lingkar": 8303,
      "Oriental": 8304,
      "realit": 8305,
      "eisme": 8306,
      "memunculkan": 8307,
      "neutron": 8308,
      "pasokan": 8309,
      "etahanan": 8310,
      "Olympi": 8311,
      "ological": 8312,
      "eristirah": 8313,
      "memulihk": 8314,
      "eristirahat": 8315,
      "memulihkan": 8316,
      "Bernar": 8317,
      "Mog": 8318,
      "Rakai": 8319,
      "Zap": 8320,
      "bersangkut": 8321,
      "edelapan": 8322,
      "kelebihan": 8323,
      "karbohidrat": 8324,
      "seterusnya": 8325,
      "Ùģ": 8326,
      "didorong": 8327,
      "asarjana": 8328,
      "ereks": 8329,
      "ompetit": 8330,
      "Lir": 8331,
      "drastis": 8332,
      "Sino": 8333,
      "Old": 8334,
      "Ligh": 8335,
      "Winn": 8336,
      "engenalan": 8337,
      "eriba": 8338,
      "menanggap": 8339,
      "Gangg": 8340,
      "meluki": 8341,
      "Gilles": 8342,
      "Ascl": 8343,
      "Littl": 8344,
      "asejar": 8345,
      "Senjata": 8346,
      "kembalikan": 8347,
      "Asclep": 8348,
      "Asclepi": 8349,
      "Permainan": 8350,
      "TAM": 8351,
      "bermarkas": 8352,
      "karangan": 8353,
      "telan": 8354,
      "yundai": 8355,
      "Hyundai": 8356,
      "enesis": 8357,
      "menjuarai": 8358,
      "Tian": 8359,
      "oct": 8360,
      "Pid": 8361,
      "zid": 8362,
      "Shal": 8363,
      "enais": 8364,
      "Ukuran": 8365,
      "Tali": 8366,
      "Klin": 8367,
      "Clin": 8368,
      "oseks": 8369,
      "pengangkatan": 8370,
      "Lufthan": 8371,
      "Light": 8372,
      "melukis": 8373,
      "asejarah": 8374,
      "Lufthans": 8375,
      "Lufthansa": 8376,
      "Bati": 8377,
      "Hawk": 8378,
      "Pertumbuhan": 8379,
      "Resort": 8380,
      "Tembok": 8381,
      "berhadap": 8382,
      "belang": 8383,
      "keunggulan": 8384,
      "memasang": 8385,
      "pemeluk": 8386,
      "pendakian": 8387,
      "pemulihan": 8388,
      "disambiguasi": 8389,
      "dikumpulkan": 8390,
      "ertebr": 8391,
      "empercepat": 8392,
      "uster": 8393,
      "yli": 8394,
      "Sangk": 8395,
      "Finan": 8396,
      "enekanan": 8397,
      "Doktor": 8398,
      "Sutrad": 8399,
      "melekat": 8400,
      "MotoG": 8401,
      "MÃ¼nchen": 8402,
      "Burma": 8403,
      "Carr": 8404,
      "Guang": 8405,
      "busikan": 8406,
      "berharap": 8407,
      "ibusikan": 8408,
      "komputasi": 8409,
      "penyerahan": 8410,
      "ribusikan": 8411,
      "terkan": 8412,
      "tabilitas": 8413,
      "terpecah": 8414,
      "dibesarkan": 8415,
      "engr": 8416,
      "esetia": 8417,
      "epribadian": 8418,
      "emperj": 8419,
      "Disebut": 8420,
      "usana": 8421,
      "engku": 8422,
      "Klasik": 8423,
      "erdagangk": 8424,
      "asri": 8425,
      "Spir": 8426,
      "bertany": 8427,
      "pengangkut": 8428,
      "Scott": 8429,
      "agister": 8430,
      "engli": 8431,
      "erdagangkan": 8432,
      "endari": 8433,
      "epasang": 8434,
      "erlengkapan": 8435,
      "ories": 8436,
      "sejuk": 8437,
      "Kip": 8438,
      "entine": 8439,
      "Linux": 8440,
      "amalan": 8441,
      "Sutan": 8442,
      "Frankl": 8443,
      "menangkan": 8444,
      "pewayangan": 8445,
      "bersalah": 8446,
      "berputar": 8447,
      "ditaklukk": 8448,
      "Koordinator": 8449,
      "onfirmasi": 8450,
      "Sukarno": 8451,
      "bertepat": 8452,
      "olding": 8453,
      "emocr": 8454,
      "bersangkutan": 8455,
      "menanggapi": 8456,
      "Little": 8457,
      "MotoGP": 8458,
      "esetiaan": 8459,
      "ditaklukkan": 8460,
      "bertepatan": 8461,
      "Babil": 8462,
      "aungan": 8463,
      "berpot": 8464,
      "bermot": 8465,
      "hucu": 8466,
      "manufaktur": 8467,
      "terhitung": 8468,
      "yusunan": 8469,
      "enyusunan": 8470,
      "adioaktif": 8471,
      "opang": 8472,
      "erlatih": 8473,
      "ucuk": 8474,
      "yanyian": 8475,
      "Deput": 8476,
      "Manga": 8477,
      "ocht": 8478,
      "Injili": 8479,
      "Aktr": 8480,
      "Rail": 8481,
      "Alici": 8482,
      "Allian": 8483,
      "bergay": 8484,
      "estisi": 8485,
      "yurisdi": 8486,
      "Mediteran": 8487,
      "Baghd": 8488,
      "Asclepias": 8489,
      "bertanya": 8490,
      "Aktri": 8491,
      "bergaya": 8492,
      "Aktris": 8493,
      "Harb": 8494,
      "dedik": 8495,
      "serapan": 8496,
      "sepakati": 8497,
      "teluk": 8498,
      "tribusikan": 8499,
      "uorin": 8500,
      "eresiden": 8501,
      "endeskripsikan": 8502,
      "mendeskripsikan": 8503,
      "arot": 8504,
      "dikembalikan": 8505,
      "disepakati": 8506,
      "ulosis": 8507,
      "omn": 8508,
      "edian": 8509,
      "penghuni": 8510,
      "Phys": 8511,
      "abrakan": 8512,
      "Langs": 8513,
      "Tapan": 8514,
      "emunculan": 8515,
      "eign": 8516,
      "pewari": 8517,
      "akramen": 8518,
      "erpecahan": 8519,
      "hidrokarbon": 8520,
      "Gusti": 8521,
      "produktif": 8522,
      "Aktivit": 8523,
      "gerily": 8524,
      "oward": 8525,
      "Benediktus": 8526,
      "arlementer": 8527,
      "fluid": 8528,
      "terkand": 8529,
      "yurisdik": 8530,
      "eresidenan": 8531,
      "pewaris": 8532,
      "Aktivitas": 8533,
      "yurisdiks": 8534,
      "yurisdiksi": 8535,
      "Garut": 8536,
      "Jendral": 8537,
      "Pakai": 8538,
      "Topografi": 8539,
      "down": 8540,
      "memperj": 8541,
      "refekt": 8542,
      "prefekt": 8543,
      "stabilitas": 8544,
      "atek": 8545,
      "asw": 8546,
      "okomotif": 8547,
      "menjatuhkan": 8548,
      "arnai": 8549,
      "Kij": 8550,
      "assus": 8551,
      "ellan": 8552,
      "Israi": 8553,
      "ebijaksan": 8554,
      "Trib": 8555,
      "Osl": 8556,
      "Persik": 8557,
      "Englan": 8558,
      "penderitaan": 8559,
      "akarid": 8560,
      "Edisi": 8561,
      "ertainm": 8562,
      "Nganj": 8563,
      "emurnian": 8564,
      "Engine": 8565,
      "gerilya": 8566,
      "terkandung": 8567,
      "ebijaksana": 8568,
      "ertainment": 8569,
      "ebijaksanaan": 8570,
      "Ferdin": 8571,
      "Hap": 8572,
      "Vet": 8573,
      "hatulistiwa": 8574,
      "khatulistiwa": 8575,
      "menyambut": 8576,
      "mempercepat": 8577,
      "sepup": 8578,
      "tenang": 8579,
      "topografi": 8580,
      "zakhs": 8581,
      "azakhs": 8582,
      "Kazakhs": 8583,
      "agedi": 8584,
      "ertempat": 8585,
      "erkomunikasi": 8586,
      "ential": 8587,
      "eritan": 8588,
      "erisai": 8589,
      "Studio": 8590,
      "Bapak": 8591,
      "Girl": 8592,
      "Dokter": 8593,
      "yria": 8594,
      "Lintas": 8595,
      "Lhok": 8596,
      "Babilon": 8597,
      "Alicia": 8598,
      "England": 8599,
      "akarida": 8600,
      "Ferdinan": 8601,
      "Kazakhst": 8602,
      "Kazakhstan": 8603,
      "Regional": 8604,
      "berkomunikasi": 8605,
      "keraton": 8606,
      "mendeteksi": 8607,
      "nyari": 8608,
      "zambik": 8609,
      "ozambik": 8610,
      "ateral": 8611,
      "elusuri": 8612,
      "engarkan": 8613,
      "engucapkan": 8614,
      "Chap": 8615,
      "Skan": 8616,
      "membangk": 8617,
      "Reks": 8618,
      "Biru": 8619,
      "Gilb": 8620,
      "menutupi": 8621,
      "integrasi": 8622,
      "ambanan": 8623,
      "Normandi": 8624,
      "eisti": 8625,
      "Tipe": 8626,
      "pengendalian": 8627,
      "Stephen": 8628,
      "Selangor": 8629,
      "berhadapan": 8630,
      "Israil": 8631,
      "Ferdinand": 8632,
      "Coca": 8633,
      "Mozambik": 8634,
      "Revolusioner": 8635,
      "Satelit": 8636,
      "Seribu": 8637,
      "adarai": 8638,
      "deeling": 8639,
      "edemikian": 8640,
      "fdeeling": 8641,
      "keuskupan": 8642,
      "meneliti": 8643,
      "memberont": 8644,
      "pemungut": 8645,
      "radarai": 8646,
      "sedim": 8647,
      "dimenangkan": 8648,
      "engemukakan": 8649,
      "mengemukakan": 8650,
      "abon": 8651,
      "Intellig": 8652,
      "urnakan": 8653,
      "empurnakan": 8654,
      "Salem": 8655,
      "Sukabumi": 8656,
      "aspal": 8657,
      "memant": 8658,
      "Supr": 8659,
      "orbital": 8660,
      "urais": 8661,
      "astronom": 8662,
      "Jing": 8663,
      "Kekuat": 8664,
      "eikh": 8665,
      "orical": 8666,
      "elestarian": 8667,
      "Gigi": 8668,
      "Harris": 8669,
      "Chechn": 8670,
      "resikan": 8671,
      "Frankli": 8672,
      "Nganjuk": 8673,
      "Kekuatan": 8674,
      "Franklin": 8675,
      "Basic": 8676,
      "Down": 8677,
      "Pass": 8678,
      "Pemikiran": 8679,
      "Revolution": 8680,
      "aym": 8681,
      "azid": 8682,
      "karunia": 8683,
      "mengucapkan": 8684,
      "pendingin": 8685,
      "pemujaan": 8686,
      "radioaktif": 8687,
      "engenang": 8688,
      "ului": 8689,
      "âĢĵâĢĵ": 8690,
      "Chen": 8691,
      "Umb": 8692,
      "terakhirn": 8693,
      "asilitasi": 8694,
      "Empi": 8695,
      "Trad": 8696,
      "eliru": 8697,
      "Buton": 8698,
      "Cris": 8699,
      "asuti": 8700,
      "adimi": 8701,
      "Roger": 8702,
      "Inspek": 8703,
      "Kritik": 8704,
      "menyentuh": 8705,
      "prefektur": 8706,
      "Oslo": 8707,
      "memberontak": 8708,
      "Chechny": 8709,
      "terakhirny": 8710,
      "asution": 8711,
      "Chechnya": 8712,
      "terakhirnya": 8713,
      "Cass": 8714,
      "Jayap": 8715,
      "Nasution": 8716,
      "Perhimpunan": 8717,
      "Uang": 8718,
      "eduta": 8719,
      "keterlibatan": 8720,
      "ketegangan": 8721,
      "mempek": 8722,
      "ounci": 8723,
      "penilaian": 8724,
      "rasakan": 8725,
      "zn": 8726,
      "atolia": 8727,
      "direbut": 8728,
      "emberlakukan": 8729,
      "enjelang": 8730,
      "Menjelang": 8731,
      "enip": 8732,
      "Anatolia": 8733,
      "Aram": 8734,
      "argi": 8735,
      "Brawijaya": 8736,
      "datangi": 8737,
      "Dragon": 8738,
      "akibatn": 8739,
      "Alian": 8740,
      "agresi": 8741,
      "dariny": 8742,
      "yland": 8743,
      "framer": 8744,
      "tercip": 8745,
      "asrama": 8746,
      "Sutradar": 8747,
      "edutaan": 8748,
      "akibatny": 8749,
      "darinya": 8750,
      "akibatnya": 8751,
      "Jai": 8752,
      "Jurnal": 8753,
      "Kenc": 8754,
      "Qurais": 8755,
      "Western": 8756,
      "cakram": 8757,
      "degr": 8758,
      "oyce": 8759,
      "percepat": 8760,
      "pelaut": 8761,
      "pembantaian": 8762,
      "pemeliharaan": 8763,
      "yoran": 8764,
      "áŀ": 8765,
      "aruhnya": 8766,
      "akaknya": 8767,
      "esang": 8768,
      "emburuk": 8769,
      "egl": 8770,
      "okasinya": 8771,
      "atifik": 8772,
      "oposal": 8773,
      "Bia": 8774,
      "Situ": 8775,
      "Schw": 8776,
      "Mitr": 8777,
      "Twi": 8778,
      "Upac": 8779,
      "uchin": 8780,
      "embersihan": 8781,
      "Lingga": 8782,
      "Grammy": 8783,
      "Bibliogra": 8784,
      "eribad": 8785,
      "Kijang": 8786,
      "adimir": 8787,
      "mempekerj": 8788,
      "ouncil": 8789,
      "framerah": 8790,
      "tercipt": 8791,
      "Sutradara": 8792,
      "Bibliografi": 8793,
      "\";": 8794,
      "AJ": 8795,
      "Bendungan": 8796,
      "Deutsch": 8797,
      "FL": 8798,
      "Kehakiman": 8799,
      "Loji": 8800,
      "Polic": 8801,
      "People": 8802,
      "Waduk": 8803,
      "dengarkan": 8804,
      "kepribadian": 8805,
      "memberlakukan": 8806,
      "memburuk": 8807,
      "sengk": 8808,
      "sedemikian": 8809,
      "tematis": 8810,
      "äº": 8811,
      "diakibatkan": 8812,
      "uniai": 8813,
      "ambungan": 8814,
      "Konflik": 8815,
      "engki": 8816,
      "uism": 8817,
      "fungsion": 8818,
      "Bukh": 8819,
      "dramati": 8820,
      "firman": 8821,
      "Stoner": 8822,
      "englih": 8823,
      "Pakaian": 8824,
      "Babiloni": 8825,
      "Normandia": 8826,
      "mempekerjakan": 8827,
      "englihat": 8828,
      "Babilonia": 8829,
      "englihatan": 8830,
      "Cah": 8831,
      "Comi": 8832,
      "Polin": 8833,
      "Politic": 8834,
      "Sering": 8835,
      "ayoran": 8836,
      "berenang": 8837,
      "deira": 8838,
      "erengg": 8839,
      "erasakan": 8840,
      "url": 8841,
      "etuai": 8842,
      "umuman": 8843,
      "untuhnya": 8844,
      "ajai": 8845,
      "arkot": 8846,
      "Lion": 8847,
      "mengharuskan": 8848,
      "ulana": 8849,
      "Trot": 8850,
      "umpa": 8851,
      "Theor": 8852,
      "aftarkan": 8853,
      "daftarkan": 8854,
      "Arts": 8855,
      "yte": 8856,
      "orikan": 8857,
      "Vladimir": 8858,
      "Bisma": 8859,
      "Kapit": 8860,
      "menghalangi": 8861,
      "Upacar": 8862,
      "Upacara": 8863,
      "Burg": 8864,
      "Kertan": 8865,
      "Kebangkitan": 8866,
      "Quran": 8867,
      "Subang": 8868,
      "bermuk": 8869,
      "bertempat": 8870,
      "kesemb": 8871,
      "melatih": 8872,
      "seille": 8873,
      "sepasang": 8874,
      "telin": 8875,
      "tercepat": 8876,
      "uert": 8877,
      "Î»": 8878,
      "Î¼": 8879,
      "à¦": 8880,
      "ãĦ": 8881,
      "arseille": 8882,
      "Marseille": 8883,
      "asyh": 8884,
      "erbek": 8885,
      "osiasikan": 8886,
      "Asw": 8887,
      "Krim": 8888,
      "penghap": 8889,
      "Tony": 8890,
      "orri": 8891,
      "Pict": 8892,
      "Cepu": 8893,
      "Philosophy": 8894,
      "perpindahan": 8895,
      "Barisan": 8896,
      "McLar": 8897,
      "olali": 8898,
      "Jonggol": 8899,
      "Bernard": 8900,
      "Deputi": 8901,
      "McLaren": 8902,
      "Democr": 8903,
      "Football": 8904,
      "Keempat": 8905,
      "Kemenangan": 8906,
      "Kebon": 8907,
      "Pasang": 8908,
      "kewarganegaraan": 8909,
      "merasakan": 8910,
      "ndeks": 8911,
      "persenjataan": 8912,
      "perlombaan": 8913,
      "sumpah": 8914,
      "waduk": 8915,
      "arolin": 8916,
      "dikurang": 8917,
      "elengkapi": 8918,
      "etj": 8919,
      "ugb": 8920,
      "erpenc": 8921,
      "fraksi": 8922,
      "zia": 8923,
      "Eku": 8924,
      "eiro": 8925,
      "akupan": 8926,
      "Donn": 8927,
      "oone": 8928,
      "oftw": 8929,
      "Dokum": 8930,
      "GNU": 8931,
      "erokok": 8932,
      "erigal": 8933,
      "Eins": 8934,
      "megalodon": 8935,
      "kompilasi": 8936,
      "Spiri": 8937,
      "Securit": 8938,
      "adeira": 8939,
      "aulana": 8940,
      "pelep": 8941,
      "vention": 8942,
      "andarin": 8943,
      "enot": 8944,
      "endon": 8945,
      "etersediaan": 8946,
      "erlarang": 8947,
      "dekr": 8948,
      "fran": 8949,
      "Pangan": 8950,
      "abilan": 8951,
      "etany": 8952,
      "Klungkung": 8953,
      "Marian": 8954,
      "Cila": 8955,
      "Rhein": 8956,
      "Tji": 8957,
      "Stone": 8958,
      "penyiaran": 8959,
      "ardhan": 8960,
      "Mediterani": 8961,
      "teling": 8962,
      "erigala": 8963,
      "Mediterania": 8964,
      "Azh": 8965,
      "Cot": 8966,
      "Maulana": 8967,
      "Persekutuan": 8968,
      "easiswa": 8969,
      "fasilitasi": 8970,
      "taktik": 8971,
      "terinspirasi": 8972,
      "velt": 8973,
      "aruniai": 8974,
      "dikonsumsi": 8975,
      "ersburg": 8976,
      "Ageng": 8977,
      "aktin": 8978,
      "menganal": 8979,
      "Glasg": 8980,
      "Konstr": 8981,
      "Liberal": 8982,
      "muridn": 8983,
      "urisasi": 8984,
      "Isaa": 8985,
      "Thin": 8986,
      "dieksek": 8987,
      "Jangan": 8988,
      "Manggarai": 8989,
      "Rasyid": 8990,
      "urikul": 8991,
      "articl": 8992,
      "Jayapur": 8993,
      "Spirit": 8994,
      "Cilac": 8995,
      "menganali": 8996,
      "muridny": 8997,
      "dieksekusi": 8998,
      "Jayapura": 8999,
      "Cilacap": 9000,
      "menganalis": 9001,
      "muridnya": 9002,
      "Begitu": 9003,
      "Kelautan": 9004,
      "evelt": 9005,
      "indeks": 9006,
      "karuniai": 9007,
      "perform": 9008,
      "uarnya": 9009,
      "vertebr": 9010,
      "anselir": 9011,
      "enabrak": 9012,
      "elot": 9013,
      "embawan": 9014,
      "otomotif": 9015,
      "Prambanan": 9016,
      "agir": 9017,
      "Kotam": 9018,
      "umpi": 9019,
      "ercetakan": 9020,
      "resmin": 9021,
      "Bris": 9022,
      "Julius": 9023,
      "unity": 9024,
      "moderni": 9025,
      "Konghucu": 9026,
      "Sime": 9027,
      "Astan": 9028,
      "Anna": 9029,
      "Rangg": 9030,
      "Abbasiy": 9031,
      "Michig": 9032,
      "Sudirm": 9033,
      "elektrik": 9034,
      "Squar": 9035,
      "fluida": 9036,
      "atifikasi": 9037,
      "dramatis": 9038,
      "oftwar": 9039,
      "Konstruk": 9040,
      "resminy": 9041,
      "Michigan": 9042,
      "Sudirman": 9043,
      "resminya": 9044,
      "Council": 9045,
      "TUH": 9046,
      "ketimbang": 9047,
      "ketiganya": 9048,
      "menerjemah": 9049,
      "perunggu": 9050,
      "teruskan": 9051,
      "Ð´": 9052,
      "ahului": 9053,
      "engumuman": 9054,
      "erbarui": 9055,
      "dapati": 9056,
      "erkualitas": 9057,
      "ovis": 9058,
      "ucc": 9059,
      "Salm": 9060,
      "Tint": 9061,
      "embandi": 9062,
      "Bukan": 9063,
      "Bilang": 9064,
      "arkir": 9065,
      "berpis": 9066,
      "Briga": 9067,
      "Dict": 9068,
      "Electri": 9069,
      "Wangsa": 9070,
      "ywo": 9071,
      "Hokkai": 9072,
      "memukul": 9073,
      "Dream": 9074,
      "erkamp": 9075,
      "berpoten": 9076,
      "nyaris": 9077,
      "Gilbert": 9078,
      "uching": 9079,
      "oftware": 9080,
      "embandin": 9081,
      "berpisah": 9082,
      "ywoo": 9083,
      "berpotens": 9084,
      "embanding": 9085,
      "ywood": 9086,
      "berpotensi": 9087,
      "Nugr": 9088,
      "Religi": 9089,
      "berkualitas": 9090,
      "kemukakan": 9091,
      "menir": 9092,
      "melengkapi": 9093,
      "menabrak": 9094,
      "parlementer": 9095,
      "stematis": 9096,
      "terbalik": 9097,
      "yolali": 9098,
      "oyolali": 9099,
      "Ã¸": 9100,
      "amelan": 9101,
      "ulasinya": 9102,
      "osevelt": 9103,
      "oosevelt": 9104,
      "Roosevelt": 9105,
      "arkus": 9106,
      "sejal": 9107,
      "enalt": 9108,
      "Balap": 9109,
      "elson": 9110,
      "Åįn": 9111,
      "wajibk": 9112,
      "XVI": 9113,
      "Faktor": 9114,
      "ebaikan": 9115,
      "Anthon": 9116,
      "Tulisan": 9117,
      "TUHA": 9118,
      "Brigad": 9119,
      "wajibkan": 9120,
      "Boyolali": 9121,
      "Mub": 9122,
      "Madeira": 9123,
      "Pash": 9124,
      "Tuk": 9125,
      "dahului": 9126,
      "persahabatan": 9127,
      "perundingan": 9128,
      "rugi": 9129,
      "tumkan": 9130,
      "okuskan": 9131,
      "fokuskan": 9132,
      "Brus": 9133,
      "Asl": 9134,
      "ovid": 9135,
      "Wils": 9136,
      "Brid": 9137,
      "Willem": 9138,
      "berwenang": 9139,
      "Bhakti": 9140,
      "Firm": 9141,
      "Lith": 9142,
      "Langu": 9143,
      "reditasi": 9144,
      "Ubunt": 9145,
      "Acti": 9146,
      "Pisa": 9147,
      "Beck": 9148,
      "Capital": 9149,
      "zst": 9150,
      "grafiti": 9151,
      "Rudin": 9152,
      "eotid": 9153,
      "bumbu": 9154,
      "menyingkirk": 9155,
      "Inspekt": 9156,
      "Glasgow": 9157,
      "embawany": 9158,
      "menerjemahk": 9159,
      "Hokkaid": 9160,
      "Ubuntu": 9161,
      "menyingkirkan": 9162,
      "embawanya": 9163,
      "menerjemahkan": 9164,
      "Kehutanan": 9165,
      "foil": 9166,
[...]
